#version: 0.2
Ġ a
Ġ t
Ġ e
Ġ d
Ġ c
Ġ o
i n
Ġ m
Ġ p
e r
Ġ s
r a
e s
q u
Ġ n
e n
a s
o s
h e
Ġ qu
o r
Ġ f
i s
a r
o n
Ã £
a n
Ġd e
i t
r e
č Ċ
Ã£ o
Ġqu e
Ġ l
o u
Ġt he
o m
a l
Ġ v
Ġ b
Ġ w
i a
d o
h a
Ġ in
e m
Ġ u
t i
t e
Ġa n
l l
r o
Ġc om
t a
d a
i m
Ġn Ã£o
Ġo f
g u
Ã ©
Ġm e
s e
i c
d e
Ã §
Ġs e
Ġt o
Ġe s
Ġu m
t o
Ġ g
v a
Ġp a
Ġan d
Ġa s
in g
Ã ¡
t er
Ġ re
e c
Ġ i
Ġd o
h o
Ġo u
- -
Ġn o
e l
Ġc a
Ġd a
Ġc on
Ġm a
m e
u s
Ġ Ã©
Ġ --
Ġ j
Ġ y
r i
Ġe n
Ġd i
. .
o l
en t
ti on
e t
r es
c e
v e
Ġn a
Ġ is
Ġe u
m a
u l
Ġ h
Ġt h
Ġa l
Ġe m
i l
Ġo s
Ġe ra
Ġ (
e d
e i
Ġa c
Ġp ro
v er
in ha
a m
Ġp or
Ġm as
i r
t u
Ġ it
g o
Ġo n
an do
Ġ ha
i o
Ġpa ra
t ra
s a
ha t
en te
s o
l e
Ġy ou
Ġf or
Ġs a
Ã§ Ã£o
Ġe x
Ġb e
Ġw e
c a
c h
v i
Ã ³
Ġd es
Ġin ter
Ġum a
t h
Ġe ll
a g
Ġd is
Ġp er
ra n
Ġ čĊ
u n
Ġca p
Ġv i
l y
Ġs u
p er
Ġp r
Ġma is
p o
Ã§ a
o c
Ã º
Ġcom o
Ġs er
Ġa m
c o
Ġa t
Ġcap it
u m
Ġa o
e z
l a
b er
it h
Ġt hat
a d
Ġs em
.. .
Ġc o
Ġv er
Ġm inha
qu e
Ġm u
s t
es s
Ġw ith
l h
Ġc as
u t
Ġ r
Ġ res
it o
p a
i z
Ġ Ã¡
c i
Ġp ar
an gu
t en
Ġcapit Ãº
Ġl i
Ġt u
Ġw or
Ã ª
t ar
Ġp o
' s
da de
Ġ 1
Ġf o
Ġ [
Ġl o
Ġinter n
g a
m o
ra s
Ġwe b
Ġcom p
Ġa b
f or
d i
angu ag
a b
Ġl e
Ġw h
m ente
t r
on g
Ã£ e
g h
Ġm or
Ġf a
ic a
Ġ ho
Ġs o
Ġl anguag
i on
Ġo r
Ġt em
Ġc an
Ġp u
Ġintern et
Ġf r
Ġp e
m os
Ġf al
te d
d er
e w
i ll
Ġt e
Ġtu do
d os
t es
Ġ im
s im
Ġa p
er e
l d
l he
in a
Ġu n
p e
Ġ =
Ġs en
Ġn os
Ġl ong
Ġm es
Ġn em
Ġal gu
Ġa re
Ġfo i
Ġdi z
Ġm o
Ġt er
Ġs Ã³
i x
Ġa ll
Ġm Ã£e
in gu
Ġm an
Ġl he
ta va
oc Ãª
Ġell e
d u
t s
Ġa r
Ġp as
Ġl a
ll a
c ia
f f
Ġ gu
Ġf u
Ġc ou
Ġo lh
Ġcom m
Ġt ra
Ġb o
Ġqu ando
p l
t ro
Ġme u
v el
Ġc h
k e
Ġv ez
qu i
Ġd os
Ġth is
Ġt am
b e
Ġqu er
Ġv ocÃª
g e
Ġm y
Ġes c
Ġen t
b em
Ġw ill
Ġou tra
Ġcas a
ou t
th er
d ia
Ġp re
al a
Ġdi as
an t
om e
Ġha ve
Ġell a
l o
it e
i g
Ġm ar
ti c
u r
Ġpr im
ra m
Ġm im
Ġw hat
a va
es se
n o
Ã Ń
Ġ "
Ġ he
Ġdis se
for ma
d as
es t
b ra
po is
Ġb y
Ġb ut
Ã§ o
o k
Ġm ul
ec t
Ġyou r
Ġtam bem
forma tion
x x
us t
en do
Ġas sim
Ġfr om
Ġ ra
Ġc re
Ġin formation
Ġes t
an to
it y
in e
Ġj Ã¡
Ġolh os
Ġwor k
Ġlanguag e
Ġn e
r ia
Ã µ
in da
Ġ k
9 9
a h
i ra
is h
Ġa go
it a
o p
Ġc ar
in ho
Ġmu ito
b l
Ġc or
os Ã©
gh t
Ġno t
Ãµ es
Ġt inha
Ġh as
g ar
Ġj osÃ©
Ġfa z
t or
Ġde pois
0 0
Ġv a
i dade
Ġp os
Ġ ia
a y
Ġho w
Ġago ra
' t
Ġp el
ll e
er s
an d
i es
v o
Ġd ia
Ġc os
Ġp ra
gu n
tu ra
Ġd as
d es
v ia
Ġa inda
Ġp en
Ġu se
Ġcon t
tion s
r ou
Ġt Ã£o
Ġc he
Ġf il
al l
Ġg o
i as
Ġm en
Ġpro j
Ġmor e
e u
in k
s i
Ġt al
Ġna da
en ce
Ġtem po
b ar
Ġ 2
in d
in ar
Ġco p
Ġo h
Ġmes mo
c l
Ġp ala
Ġu s
Ġpala v
ic h
tu re
n os
Ġb a
Ġw as
Ġre c
as se
Ġab out
Ġmul ti
Ġi r
p os
Ġd u
Ġs ol
on e
Ġv is
u a
en to
ou s
Ġv el
Ġpa d
Ġac c
p re
Ġa d
Ġv ol
Ġon e
c er
g ra
Ġm al
Ġi de
Ġ1 99
i go
Ġo ther
b o
i al
Ġen g
Ġat Ã©
g re
Ġe l
ou n
Ġes ta
m as
Ġt ran
Ġp ou
ingu al
b a
Ġt i
Ġb ec
Ġse e
Ġlanguag es
Â «
ol o
Ġpad re
p or
is t
vi ew
Ġcop y
j a
m ent
Â »
Ġt a
Ġprim ei
h n
n a
p on
Ġs im
Ġg ra
ul o
i do
n Ã£o
Ġp ed
Ġf e
v en
Ġcon f
Ġcon s
Ġproj ect
e ar
Ġ Â«
in do
Ġde ix
Ġou r
Ġj ust
Ġwh ich
Ġdiz er
i u
Ġs ome
ra Ã§Ã£o
Ġv o
Ã§ Ãµes
Ġes tava
co bar
ber g
ten berg
l ingual
p ec
Ġ ro
t ing
Ġd on
Ġc er
in h
Ġf ez
ri ght
Ġvi da
Ġg ran
Ġou tro
Ġera m
Ġmulti lingual
i da
p en
t as
Ġc ha
Ġes cobar
i d
i i
t al
Ġc u
Ġsa b
Ġsem inar
c on
r os
Ġan y
ic o
Ġper gun
s ion
Ġ *
p res
v es
Ġp es
Ġp res
Ġth ere
Ġac ab
Ġpr om
Ġgu tenberg
Ġtran s
er a
ar d
an te
Ġl em
Ġb em
Ġca be
Ġh om
Ġwor ld
Ġent Ã£o
ia m
ri o
p an
t ou
Ġpar ec
Ġpe op
Ġpeop le
c is
Ġn ew
Ġqu iz
Ġj o
Ġpor que
p ar
Ġt r
Ġf os
Ġcou sa
olo g
a c
w n
es e
Ġbo ok
s as
Ġt en
Ġent re
c es
f r
f er
Ġa u
Ġa qui
in al
ou ld
b re
f e
f ic
l ish
t os
Ġa os
Ġc l
Ġm os
Ġthe y
Ġme lh
Ġg os
Ġth ink
Ġmelh or
ar y
i os
Ġcom e
Ġes te
c re
z e
Ã ´
in u
Ġan tes
Ġis to
Ġpu bl
Ġs i
or ia
Ġes per
ver so
Ġpo dia
b le
i ve
j o
n s
Ġthe ir
Ġin st
Ġver dade
tura l
) ,
Ġ _
Ġc r
Ġp Ã³
Ġou tr
Ġex pl
Ġk no
u ra
Ġo b
he i
ou r
Ġi f
Ġpr in
a tion
â Ģ
al ly
Ġdi ff
Ġpro f
Ġex per
Ġseminar io
a ch
Ġf ic
Ġr ua
Ġlo go
Ġcopy right
Ġpes so
Ġfos se
en ch
ar ia
Ġeng lish
p ro
u se
Ġde lla
Ġou vi
Ġfil ho
Ġpalav ras
Ġide ia
g es
Ġp Ã©
Ġde us
Ġse i
Ġli ke
Ġweb s
Ġt im
Ġs Ã£o
Ġl Ã¡
Ġj an
Ġen tra
Ġwh en
Ġpou co
Ġc al
Ġam or
Ġpas s
Ġgran de
Ġoutr os
Ġt ec
in ter
Ġs an
de u
Ġno w
ri b
Ġsen ti
Ġcre a
Ġkno w
) .
i qu
Ġs ta
Ġw ho
ro w
Ġto do
Ġcomp u
Ġfr ench
Ġtrans la
c k
Ġn as
Ġde f
Ġto dos
un do
ab le
Ġhom em
h Ã£
y s
an Ã§a
em os
Ġcomp an
Ġest Ã¡
ĠpÃ³ de
Ġt ar
Ġque m
Ġv ir
Ġb r
Ġw ay
te i
va m
ĠÃ¡ s
Ġs om
as t
Ġan nos
Ã§ as
Ġse u
Ġpa e
Ġfal ar
Ġalgu ma
Ġprof ess
d it
h or
p r
p u
Ġp l
it es
Ġco raÃ§Ã£o
tr on
cl u
Ġcompu ter
i e
Ġm Ã£o
Ġv al
Ġu p
Ġdis t
d s
d ar
Ġa ff
Ġf iz
Ġh is
Ġbe en
que lla
Ġli v
Ġwh ere
Ġbec a
c ha
p h
v al
z a
Ġt anto
Ġg l
Ġre ce
Ġcon tra
Ġna tural
ga do
ion al
Ġpel a
Ġtec hn
' m
i de
Ġc e
Ġo p
Ġm is
en cia
Ġf ran
it u
re fr
Ġto da
ul ar
d or
s on
Ġ ri
Ġd ar
as i
Ġw r
ll as
ec tron
Ġeu ro
ver s
Ġcomm un
Ġpre cis
Ġcabe Ã§a
b al
d ing
Ġ x
Ġs in
Ġl u
Ġse us
Ġes qu
Ġpas sa
Ġcont inu
Ġel ectron
Ġc eu
Ġp on
Ġs ou
Ġf ir
Ã© m
Ġis so
Ã³ s
Ġver y
Ġcomm igo
Ġexper i
inter view
Ġelectron ic
d ic
e ah
h er
Ġp h
it ta
Ġthe m
Ġan itta
Ġme us
ho ra
Ġalgu ns
por t
refr Ã£o
v esse
Ġa h
Ġs y
Ġf l
an ce
re c
Ġb as
Ġca m
Ġte x
Ġtim e
Ġ -
Ġa f
Ġd om
Ġm undo
Ġn et
or o
Ġf im
Ġl ingu
Ġb us
Ġto das
Ġas s
Ġal so
Ġsem pre
Ġfu ture
Ġexperi ence
l ine
Ġd ous
er o
Ġb on
Ġme t
Ġre f
Ġre p
Ġth ese
Ġon ly
Ġsu a
Ġle v
Ġnos sa
Ġtra z
a da
c om
h ar
o w
p t
Ġc ur
Ġm in
Ġm on
Ġf el
Ġv ia
Ġres pon
xx x
Ġfaz er
Ġmen os
Ġdiff er
i or
Ġqu al
Ġg row
ri p
Ġth an
Ġpro p
Ġpor ta
Ġsa ber
Ġch an
olog y
d em
k ing
r u
r y
s os
Ġs us
en ti
it as
Ġb ra
de d
Ġdi g
Ġprim a
Ġbeca use
Ġgl oria
m Ã£e
s em
â Ħ
Ġt io
Ġn um
an o
Ġv en
Ġb ent
ei ra
Ġsu b
que lle
Ġfu i
Ġwebs ite
Ġcommun ica
âĦ ¢
Ġbent inho
f t
Ġs on
Ġf ind
ar e
an s
Ġde u
Ġalgu m
Ġcos me
oun d
ear ch
a do
c ar
v ic
z es
Ġf re
it or
Ġw ould
Ġes ti
Ġper son
un ca
Ġmes ma
Ġoutra s
00 0
Ġpos si
Ġpalav ra
Ġjust ina
Ġtar de
a t
g ou
m ar
v is
Ġt or
Ġp ol
Ġp la
en s
Ġv ou
Ġin s
Ġin te
Ġg et
Ġre al
Ġre ad
Ġcon he
Ġit s
Ġsu p
Ġim ag
Ġquer ia
Ġlem bra
Ġ &
Ġa g
Ġn ingu
re i
Ġg es
Ġli fe
Ġsen hor
Ġdu as
Ġbook s
a z
u ma
v ol
Ġe ze
er am
qu en
Ã£ os
Ġb u
Ġin f
ta in
Ġpro vi
Ġres earch
du a
qui el
Ġmos t
Ġprofess ional
Ġeze quiel
Ġt om
Ġe ver
Ġc ul
in o
en h
Ġf ica
ta do
gu ei
ic al
Ġou t
Ġy eah
Ġen ten
ent s
Ġon de
Ġinter view
per a
ci p
Ġlo ve
Ġquer o
Ġpel o
Ġpen s
Ġacc ess
Ġprimei ro
inh as
Ġwr it
p s
w ay
Ġm em
Ġs or
Ġs oc
es sa
Ġn unca
Ġde vel
it ar
ti ll
Ġg ente
Ġre la
Ġ-- -
Ġdis c
Ġres to
Ġun i
Ġva i
Ġfir st
c io
l ha
m in
p ed
s u
Ġs till
Ġn enh
Ġqu i
Ġde ba
gu e
Ã¡ ra
Ã¡ mos
ter s
Ġy ear
am ente
Ġgrow th
, --
c c
g an
l ti
l et
t on
Ġd ent
Ġc ent
Ġo ver
Ġn Ã³s
is te
Ġu lti
ti m
Ġse gu
Ġg a
Ġg en
Ġno ite
Ġj u
ol a
il able
Ġnos so
Ġwork s
Ġten ho
Ġtechn ology
Ġdevel op
g em
l i
n ing
Ġe ff
Ġo ra
Ġs t
as e
Ġl ic
Ġb om
em ent
ti v
Ã§ os
Ġes p
tion al
Ġpar tic
Ġpe quen
Ġdiz ia
Ġman hÃ£
rou gh
Ġus ing
Ġ199 8
Ġlem b
Ġesqu ec
h os
Ġa va
Ġs h
os to
or d
is tic
it os
it ed
Ġv ei
ti r
ti ve
ta mente
im a
Ã¡ s
Ġell es
ber s
Ġesc re
Ġprin cip
Ġpesso a
iqu ei
Ġges to
c t
h as
Ġt re
Ġd or
Ġc y
Ġm Ã£os
os e
Ġf Ã³
Ġin to
Ġes tar
Ġon line
st em
Ġli bra
Ġso bre
Ġne ed
bo ok
Ġvo z
Ġsy stem
Ġpartic ular
Ġava ilable
e g
ra r
es ta
it i
Ġl it
Ġof fic
Ġse c
Ġma in
Ġj un
Ġal ma
Ġbe ing
Ġam ar
Ġam igo
gra ph
Ġprimei ra
pres sa
rib u
Ġsin ce
Ġever y
m s
o d
Ġm il
is sion
Ġde pressa
Ġse gun
va mente
Ġpa dua
Ġth rough
Ġac ha
Ġha via
Ġsa be
Ġcapit ulo
ad os
Ġr is
Ġvez es
Ġra z
Ġcons ul
Ġ /
Ġs al
Ġs tar
Ġs ite
an a
Ġv es
Ġan ti
Ġg lo
Ġma y
Ġpro du
am os
ran do
Ġsu r
Ġser vic
Ġall i
Ġcre io
Ġce do
Ġdent ro
v or
w e
Ġ #
Ġd ic
Ġs ent
Ġs ala
en ta
Ġde lle
Ġv inha
Ġb est
ll es
Ġma de
Ġma mÃ£e
Ġen d
il e
Ġcos tu
Ġeuro pe
. Â»
j e
s es
w are
Ġe r
Ġe ven
Ġs ho
qu er
Ġn ec
Ġf am
is m
is sim
Ġb ab
Ġg re
el y
Ġca ra
Ġdi d
Ġac hei
Ġsu ch
um p
Ġfal ava
pec ial
Ġtransla tion
h i
t ando
Ġ '
Ġc x
Ġc ho
Ġm ÃŃ
an tes
Ġb oc
Ġan da
Ġme io
se l
Ġre g
ri g
Ġh ou
Ġwith out
ut os
for e
Ġpu ta
Ġman y
Ġcou n
ig n
Ġmar k
Ġva e
Ġuse d
Ġpergun tou
Ã´ r
Ġnatural mente
Ġtor n
Ġsh ould
ĠfÃ³ ra
Ġraz Ã£o
Ġfam il
c u
c to
v ing
v ent
Ġ 3
Ġe ach
in te
os o
Ġqu a
Ġf oun
is e
on ta
ou gh
Ġb et
Ġpa per
Ġou v
ve z
ma va
Ġac h
Ġac ce
Ġsa ir
th or
th ing
ad as
Ġmu ch
Ġcas o
Ġpar t
Ġso ft
Ġsen hora
Ġmul her
Ġvel ho
Ġpesso as
Ġvei u
Ġnec ess
l es
p i
p el
p le
r im
t he
Ġa hn
he d
Ġl et
Ġv e
Ġb el
Ġin clu
ing s
Ġre pe
Ġy o
ce u
pa ce
Ġpo der
Ġim port
Ġalgu mas
Ġcer to
Ġentra r
Ġsan cha
vers ity
Ġprecis o
Ġchan ge
c il
Ġe t
Ġe le
Ġo wn
Ġqu in
Ġqu ar
it al
Ġl ink
Ġb ei
im me
Ġg imme
Ġma ter
Ġdi rec
Ġh um
Ġha d
Ġex am
ca do
Ġdes e
Ġsu as
Ġser ia
Ġmor te
ix o
pl es
Ġcor re
Ġfel iz
Ġboc ca
d io
r er
Ġa quella
Ġo lha
in c
er al
ra l
he y
Ġqu asi
it ies
Ġl im
em ber
Ġme ans
Ġcon tar
ri es
Ġen ter
ma il
Ġha ver
le x
Ġsa u
Ġex ac
Ġpar te
Ġim per
Ġun s
Ġtal vez
Ġvo ca
âĢ Ļ
Ġpass ar
Ġdeba te
Ġbab y
a p
j or
m an
s Ã£o
t y
w s
Ġt w
Ġt ro
Ġt res
Ġe la
Ġd in
Ġc in
Ġs tu
en as
is se
is to
Ġb an
Ã§ ar
Ġes tu
Ġre l
Ġda va
us Ã£o
Ġdi go
Ġbe fore
Ġwe ll
Ġdis s
Ġcou ld
Ġfil ha
Ġau thor
Ġjan e
Ġdiffer ent
Ġyear s
Ġlibra ry
c um
d y
f i
i Ã§Ã£o
i ga
v ocÃª
Ġ z
Ġc em
Ġm ust
en e
Ġf i
Ġf ec
Ġb i
ll y
Ġpa pel
Ġda ta
Ġy a
Ġth en
ez a
Ġmu ita
ci as
Ġpo is
pe a
Ġlong e
du ca
lo g
Ġgo t
Ġprom essa
Ġcl ar
Ġdef in
Ġvir tu
Ġtraz ia
c os
p la
Ġ ke
Ġa per
Ġt Ãº
Ġo cc
Ġm i
Ġm inhas
ra va
Ġf iquei
Ġde z
Ġl ou
se i
Ġpa pa
Ġpa ges
Ġca bra
Ġda me
Ġma ta
Ġma ke
us a
ri u
ve d
Ġpro va
Ġfor m
iz ation
Ġun der
Ġservic es
Ġmark et
Ġrepe ti
. _
i Ã£o
v as
v all
w or
Ġe dit
in as
Ġs c
en d
Ġf un
an cia
Ġb ar
ic e
Ġg rou
Ġas so
ec ts
Ġca da
Ġcon clu
Ġma ior
ent es
Ġac u
Ġpro bl
Ġha p
Ġdes de
Ġlo ok
Ġtra bal
Ġhe ad
Ġest ou
ah n
Ġ199 9
Ġsim ples
Ġgra Ã§a
Ġconf ess
Ġsab ia
Ġacab ou
Ġgos to
our ces
Ġliv ro
Ġmis sa
Ġdor m
Ġglo bal
Ġdic tion
Ġsoft ware
Ġcabra l
Ġprobl em
c oro
g n
k s
t ly
v an
Ġa do
Ġa gre
Ġc res
Ġm us
Ġs il
en der
ar ge
Ġde via
Ġv onta
Ġb ran
Ġw ant
ll o
Ġse t
Ġse pa
Ġse ja
Ġto o
Ġdo wn
Ġno ti
el e
ent ly
Ġpro c
ver sa
tra n
Ġvi ver
Ġam iga
Ġho ra
Ġor gan
Ġmo do
Ġter ra
Ġall ow
Ġbo a
pl ic
Ġesc rip
Ġhe l
gre gado
Ġti ve
Ġfic ou
Ġcompan y
Ġpon to
Ġlingu istic
Ġmin utos
Ġfre e
Ġag gregado
Ġningu em
e p
e ito
n as
Ġa tra
Ġc Ã¡
in ess
Ġs ci
or es
Ġf ei
Ġf ew
it ion
Ġv em
Ġv Ã¡
Ġw ere
Ġan no
Ġme di
Ġes se
Ġes sa
Ġj a
Ġy ah
ri os
Ġfor Ã§a
vi i
Ġdes c
Ġam b
Ġat ten
Ġr om
tr ou
Ġho ras
Ġmo Ã§a
Ġter ms
Ġfu g
Ġcomm ission
Ġped ir
Ġparec e
Ġexpl ica
hei ro
Ġhis tor
Ġtex t
Ġqual quer
Ġpla ce
Ġsoc i
Ġvoca Ã§Ã£o
Ġvonta de
_ ,
c y
d en
f ul
i ar
o ra
Ġa gra
Ġp al
Ġn ome
en Ã§a
Ġf ar
re u
Ġin di
im ento
Ġme dia
Ġto ol
Ġca ma
Ġcon ce
et y
Ġh on
ca va
Ġvi u
Ġam an
Ġam ig
ci al
Ġwor st
Ġfa vor
Ġso y
Ġap enas
Ġla do
Ġta ke
par ec
Ġtr iste
Ġpubl ic
Ġinst itu
Ġexpl ic
Ġfic ar
Ġsta tes
Ġliv ros
Ġop in
Ġreal mente
Ġuni versity
let ra
Ġdevelop ment
Ġcostu me
Ġsho w
Ġtw o
' ve
c as
g al
i dos
l ic
l and
z er
Ġa gu
Ġd Ã¡
Ġs m
Ġs ant
es ar
Ġf inal
Ġde i
it ou
Ġl en
Ġv ar
Ġv amos
im ent
Ġme do
Ġme zes
Ġcon se
Ġma jor
ul a
Ġh Ã¡
Ġac tiv
ver n
Ġha iti
Ġex ce
vi ii
Ġsu m
tar io
Ġfo ram
Ġcou sas
Ġest re
Ġfaz ia
Ġvol ta
Ġpl an
Ġfran ce
Ġinte ira
ton o
sel f
Ġsoci ety
! Â»
b il
c ts
j u
m es
n e
x t
Ã ²
Ġc la
Ġs tr
qu anto
en o
Ġqu anto
Ġde v
Ġb ig
Ġin cre
ta m
da tion
gu st
Ġg ir
Ġcon st
me dia
ri r
Ġna tional
il y
ei ro
Ġpro pos
Ġdes co
Ġdes ped
Ġco lle
Ġver sion
Ġr u
Ġres ources
iz ed
Ġdiz endo
ÃŃ a
Ġ2 000
Ġba ck
Ġfe el
inh os
Ġmultilingual ism
Ġcontra rio
Ġbus iness
Ġcur r
Ġfoun dation
Ġhum an
vall os
Ġhap pen
tono tario
. ,
d Ã£o
g os
i v
r om
t re
Ġe book
Ġd ou
Ġc ol
Ġo pera
Ġo rig
Ġs te
Ġs ites
ti do
ti ca
ll ow
ic k
ing o
Ġre tra
Ġno va
Ġcon ta
Ġcon tava
Ġh ard
tu res
Ġsa iu
Ġbe h
Ġvi va
ga va
di do
tr y
ion s
Ġfal ou
Ġare ia
Ġar tic
Ġpas se
Ġcou r
ava m
Ġhe ar
Ġne go
Ġgo vern
Ġti vesse
Ġta es
Ġnew s
Ġdist ribu
Ġrespon deu
Ġnum ber
Ġpossi ble
Ġpol it
Ġsystem s
Ġimport ant
Ġet c
Ġjane lla
Ġgir l
c ent
g as
i an
i ro
t is
t an
Ġe as
Ġe gu
Ġc idade
Ġc ump
Ġp in
es te
is hed
ar ies
Ġl ab
Ġv ag
Ġb re
ll os
Ġes pec
Ġg i
Ġcon versa
Ġj us
ve is
ch or
Ġvi via
mo ra
Ġun ited
Ġnos sas
Ġra pa
Ġgo od
Ġproj ects
Ġgra ves
Ġgran des
Ġau gust
Ġnet wor
Ġcommunica tion
Ġimag ina
Ġnenh um
Ġnenh uma
bers pace
Ġasso cia
Ġaman hÃ£
Ġsm all
g el
g ram
l ed
s ta
t ia
t em
u h
v endo
w er
y ing
Ġ 5
Ġe gre
Ġc all
Ġs he
Ġs Ã©
Ġs anto
Ġn on
an Ã§as
Ġde m
al f
Ġw a
Ġw ar
Ġin d
ll ec
Ã§ ou
va mos
ec ti
Ġdo cum
Ġdi ga
Ġna ture
Ġis su
ul os
Ġac on
Ġpro tonotario
am ento
Ġsa c
Ġex p
ca vallos
ch an
vi da
Ġfo llow
Ġle itor
Ġmor reu
ix Ã£o
Ġch Ã£o
Ġesc u
Ġk ind
Ġpos to
Ġia m
Ġad m
Ġmos tra
Ġref lex
Ġdig ital
Ġningu Ã©m
Ġbu il
Ġmem oria
min is
Ġcy berspace
Ġgre at
Ġclar o
Ġmata cavallos
Ġamig os
Ġbeh ind
a de
p ir
t le
Ġ 6
Ġa ma
Ġd ra
in es
Ġp ec
Ġs pecial
ra c
en g
en se
is ts
an ha
Ġl on
Ġl ag
om es
Ġb al
Ġin ten
Ġcom pa
de i
Ġpa ge
Ġre ally
Ġda y
Ġen trou
.. ..
Ġth ose
Ġal to
Ġsa me
Ġbe lla
Ġdes te
Ġinter es
Ġvi vo
Ġ1 8
Ġab or
Ġle ar
Ġte ll
Ġap pro
Ġla tim
Ġgu ar
Ġfu ll
Ġcomm er
Ġpos so
Ġpen sei
Ġother s
Ġro ad
Ġdon a
ii i
Ġcu ida
Ġpubl ish
Ġdiff ic
Ġsan ta
Ġcompan ies
Ġeuro pa
Ġcam inho
Ġprincip io
Ġsent ia
Ġeurope an
issim o
Ġbei j
Ġexam ple
Ġbi en
Ġke ep
Ġocc asi
Ġpapa e
Ġprova vel
Ġegre ja
' re
d esse
k y
o h
o ther
s er
t anto
v os
v ar
w h
w w
Ġ 4
Ġa y
Ġa de
Ġa ut
Ġa quelle
Ġt it
Ġe ter
Ġe dade
Ġe con
in t
Ġp ut
Ġs it
Ġs angu
en ces
or da
or ig
Ġf in
Ġde llas
Ġde lles
re ad
Ġl x
om a
Ġb ro
Ġan al
da des
im os
Ġof fer
Ġse gre
Ġg ive
Ġand ar
Ġi ria
Ġdo ce
el a
Ġca usa
et h
ce d
Ġal eg
Ġem bar
Ġsa y
Ġex c
Ġell as
Ġper to
Ġper der
Ġper nas
Ġsu g
Ġser Ã¡
Ġres ol
ci do
Ġintern ation
Ġpu de
Ġsen sa
Ġman duca
Ġar re
Ġpas so
Ġesc ol
ur so
00 1
Ġche guei
Ġsol u
Ġob ri
ĠpÃ© s
Ġwebs ites
Ġjan tar
Ġcomputer s
Ġcontinu ou
Ġbon ito
Ġprop ria
Ġwrit ing
way s
Ġgen eral
Ġpequen o
Ġescre ver
Ġsegun do
Ġves pera
Ġer gu
Ġfamil ia
Ġcorre dor
Ġacu di
Ġhel p
Ġcour se
Ġgovern ment
Ġecon om
orig inal
Ġinternation al
* *
a in
c ou
c ulo
e ver
g ando
i re
j ect
v ou
Ġ xx
Ġ right
Ġ xxx
Ġa me
Ġa way
Ġt y
Ġe du
Ġc i
Ġc xx
Ġc xxx
Ġp ente
en da
or e
is ta
is ten
it ei
Ġl xx
Ġl xxx
al mente
Ġw all
em a
em pl
te ly
Ġan other
Ġes ca
Ġpa ixÃ£o
Ġno vo
Ġen con
Ġdi re
Ġna me
ma is
Ġpro gram
Ġpor Ã©m
tu na
vi du
Ġdes t
Ġper o
ad or
Ġmu itos
Ġr osto
Ġab le
Ġmor rer
Ġpu r
Ġte ach
Ġman ag
Ġgu sta
Ġquer er
est os
Ġpra c
Ġide ias
Ġped iu
Ġacab ar
Ġprom o
Ġcabe llos
Ġinst antes
Ġprin t
Ġsenti do
Ġcrea ted
Ġbr inc
Ġlu z
Ġref l
Ġbra Ã§os
Ġson ho
Ġperson al
Ġpens ar
Ġwrit ten
Ġsegu inte
Ġcoun t
Ġouv ir
Ġquar to
Ġdese jo
Ġcin co
Ġdiction aries
Ġmedi um
Ġagra de
Ġindi vidu
Ġacon te
Ġsit ua
' ll
c rip
d ent
e ta
g Ã£o
h ia
i gh
l an
t ter
Ġd era
Ġo ld
Ġm er
Ġm oc
Ġp i
Ġs pea
Ġn or
Ġn ar
Ġf t
is a
Ġl ess
Ġl ast
al s
ti va
Ġme ta
ic s
Ġg estos
Ġre m
Ġre mo
Ġre fer
Ġre ach
Ġda quella
Ġcon cer
Ġma ch
ul y
Ġh ome
Ġem bo
Ġac har
Ġpro te
tu r
sa va
Ġdes con
Ġcap az
Ġam er
Ġam iz
Ġver so
Ġres pos
iz e
Ġab s
Ġfa cil
Ġho je
Ġap esar
Ġbo th
Ġmar ia
Ġpra zer
Ġcont ent
Ġbec ome
pres s
Ġparec ia
Ġjo Ã£o
Ġinst ante
Ġpass ou
Ġdef un
Ġsom eth
Ġtoda y
Ġah i
Ġfel ic
Ġpossi vel
Ġenten der
Ġdisc urso
Ġulti ma
Ġeff eito
Ġst and
Ġlic ense
Ġsegun da
Ġacha va
rim as
Ġexac tly
Ġsil en
Ġproc ess
Ġtool s
Ġinstitu te
Ã² r
Ġorig inal
Ġretra to
Ġnetwor k
Ġlag rimas
Ġoccasi Ã£o
Ġembo ra
" ]
' d
a tro
b el
b ras
e ter
f im
g y
g io
i ous
n i
p ul
v in
Ã ł
Ġ rio
Ġa di
Ġe ar
Ġe log
Ġc ut
Ġc ust
Ġc ima
Ġs w
es ias
or do
ar do
Ġde ci
Ġde vo
Ġb ri
Ġb ol
de l
de ira
Ġse pt
Ġpa g
Ġas pec
Ġdo es
Ġcon tei
Ġen s
ent ar
Ġth ing
Ġal ive
Ġal read
tu al
Ġex ten
Ġex empl
th ia
Ġdis sim
Ġper m
un d
um es
Ġtu r
Ġpo bre
Ġab a
tr ic
Ġpu ra
Ġpu ro
Ġpu desse
Ġap pr
Ġalgu em
Ġolh ar
Ġmar ido
tic al
Ġwork ing
Ġus ers
Ġvel ha
Ġvol tar
Ġdeix ou
Ġdeix ei
Ġcha m
ros s
Ġprom et
par is
Ġgos tava
Ġaf inal
Ġdom ingo
Ġlingu a
Ġrep la
Ġprop rio
Ġlit er
Ġlit tle
we en
Ġbet ween
Ġach ou
Ġinclu ding
Ġquin tal
Ġrel ig
Ġauthor s
Ġcem eter
Ġagre ement
Ġhistor ia
Ġopin iÃ£o
Ġhappen ed
Ġpec cado
Ġdiffic ul
Ġcount ries
Ġsometh ing
Ġfelic idade
Ġsept ember
Ġalread y
" ,
b i
c ando
d ente
d endo
e k
e x
m er
n ec
n et
r is
x u
z inho
Ġ ran
Ġ âĢ
Ġt ou
Ġt ira
Ġo lhe
Ġm om
ra do
Ġf er
Ġf ol
on s
an ta
Ġde l
Ġde mais
Ġl er
Ġl ar
ou ro
om pan
Ġv inte
Ġb il
Ġb ad
Ġw ww
Ġan im
Ġme dic
Ġse cre
Ġes pa
Ġi ll
Ġou via
Ġno vamente
Ġca et
Ġda quelle
Ġma ga
ri as
Ġen vol
Ġna quelle
Ġh igh
Ġal ter
Ġfor tuna
Ġex chan
vi do
Ġdes ta
Ġinter est
Ġver sos
Ġmu itas
Ġr indo
Ġpar e
Ġwor ds
Ġpo de
Ġ1 9
Ġlo gar
Ġcomp le
Ġle va
Ġor den
Ġpe da
Ġte u
Ġap osto
Ġmo der
Ġter ce
Ġar ch
Ġfu r
Ġch arge
Ġest as
Ġcor po
tor s
si der
Ġvis ta
Ġvel oso
Ġad minis
Ġcer tain
Ġcha rac
Ġsab en
Ġacab ava
Ġesper ar
rib ut
Ġprecis a
Ġcul ture
Ġqui ero
Ġcent re
Ġesp ir
Ġlemb rou
Ġtre m
Ġstar t
Ġprodu cts
Ġlink s
Ġfi gu
Ġgrou p
Ġbran ca
Ġja pan
Ġamb os
Ġactiv ity
Ġinteira mente
Ġdesco b
chor us
Ġaleg ria
Ġbrinc ando
Ġamiz ade
Ġsilen cio
Ġliter ary
Ġmaga z
. "
b ro
f ar
g ing
h ou
m ur
r ico
t Ã£o
y rico
Ġ Ãł
Ġa in
Ġa qu
Ġe c
Ġc ir
Ġn este
or s
it er
Ġl os
Ġl oc
Ġl ist
Ġthe atro
om m
Ġv Ã£o
Ġb l
Ġw on
ti l
ti vo
te l
ta da
Ġes s
Ġg r
Ġg er
Ġou ro
Ġno thing
Ġca tal
Ġda qui
Ġcon sider
ma mÃ£e
Ġh ere
Ġth ings
Ġal c
Ġal ways
Ġem quanto
sa ca
Ġfor ma
Ġsa ÃŃ
Ġinter rom
Ġper io
Ġsu per
ber to
que lles
ess em
Ġcas as
Ġres saca
ci encia
Ġpar ed
ras se
Ġle ast
Ġfal a
Ġte ve
Ġim pos
Ġsen Ã£o
du z
Ġar ran
Ġla w
Ġolh ando
vel y
Ġmy s
ant as
lo w
Ġcar ro
Ġcor ri
Ġpel os
Ġcos tas
Ġche ia
Ġche gou
Ġ2 0
cl esias
Ġsol id
Ġvis itas
Ġad d
Ġel se
Ġcha mava
Ġpergun tei
Ġ* **
Ġentre i
Ġau di
Ġcr er
Ġcal or
Ġknow led
Ġx l
Ġpassa do
Ġbas ta
Ġrep et
Ġson hos
Ġconhe cia
Ġprovi de
Ġsor riu
Ġulti mo
Ġlemb ran
eg yrico
Ġconsul t
Ġanti ga
Ġqua tro
Ġlet tra
Ġmater ial
Ġimper ador
Ġdin heiro
Ġdata b
Ġatra z
Ġincre as
Ġabor re
Ġtit ulo
Ġci umes
Ġdefun cto
Ġstand ard
Ġmedic ina
Ġadminis tra
Ġcatal o
Ġknowled ge
! )
b r
b us
c he
f ia
g in
g er
g ed
k es
l ess
p ha
Ġa z
Ġt ele
Ġd er
Ġc hora
Ġo pen
Ġm ic
Ġp an
Ġp ho
Ġs cre
Ġs ign
es per
en deu
as s
os a
Ġqu ick
Ġf Ã©
Ġf aria
Ġf ound
on a
Ġde c
Ġde ad
re d
Ġv Ãª
Ġb es
Ġw ind
Ġan s
Ġse x
Ġse ar
Ġse ver
Ġto tal
Ġes pecial
Ġand ando
Ġre as
Ġj ura
Ġen ough
Ġen xu
Ġac tu
Ġac ompan
Ġex cl
Ġbe gin
Ġdes f
Ġdes ign
po z
Ġat t
Ġcas e
Ġcas ar
Ġr ia
Ġpo p
Ġwh ile
ica tions
Ġho pe
Ġpe guei
Ġfal l
Ġim pro
Ġsen do
Ġdiz em
Ġar ound
Ġtra vel
Ġesc on
Ġesc ola
Ġne ver
Ġne lla
Ġcor res
tor io
and ra
Ġdia bo
Ġpra ia
Ġche ga
Ġgo ing
Ġdu vi
Ġmal andra
ment s
ida des
Ġcu rios
Ġprom p
Ġtr y
Ġpubl ished
Ġcr isto
âĢ Ķ
Ġouvi u
Ġbr in
Ġval e
Ġsy m
Ġaf ter
Ġbon ita
Ġnum ero
Ġfica va
book s
Ġsec tion
Ġjun tos
vent u
Ġquin ze
Ġconclu iu
bil ity
Ġcurr ently
Ġartic les
Ġdona tions
Ġedu ardo
Ġmach ine
Ġrespos ta
Ġmagaz ine
Ġec clesias
a inda
b res
c ho
d ir
e go
f a
f ica
h ando
l ig
m ento
n ia
n ed
p ect
r on
t in
u c
u e
Ġ za
Ġt ri
Ġt endo
Ġe v
Ġd en
Ġd im
in tro
Ġm ol
er es
Ġs pan
ra se
qu ei
as o
Ġqu es
Ġqu is
Ġqu ase
ar k
Ġde ante
Ġde mora
Ġl h
Ġv im
Ġw o
Ġw al
ha do
Ġin de
Ġin cl
Ġin alf
ti ra
ti co
te xt
Ġan jo
Ġcom nos
da do
ic i
Ġpa de
ter ior
Ġre me
Ġca val
Ġy et
ent os
Ġna quella
ma do
Ġh es
Ġal i
Ġal mo
ei ras
Ġpro x
Ġpro per
Ġpara graph
Ġsa i
Ġdis pla
ran te
un cia
Ã§a va
Ġmu d
Ġmu r
Ġpar ti
Ġpo int
Ġlo t
Ġlo ca
Ġfa ce
Ġfal ta
Ġfal ando
ill o
Ġte im
Ġap parec
Ġmo v
Ġter n
Ġla ws
Ġtam b
Ġpre fer
Ġra p
Ġcar e
Ġtinha m
Ġfaz el
Ġia mos
rou x
Ġmen ina
Ġ2 001
Ġrec on
Ġmulti media
one y
Ġvis ita
Ġacc res
Ġvol tando
Ġ199 6
Ġti ver
na es
Ġped ia
Ġfe ito
Ġconf ir
Ġsab es
Ġquiz esse
olog ia
Ġcome Ã§ou
Ġpodia m
itu al
Ġesqu er
Ġcontinu e
Ġvia gem
dem ark
Ġread ing
Ġread ers
Ġsup port
Ġmem or
Ġju ram
Ġeff ecti
Ġlic Ã§Ã£o
tiv os
Ġesquec er
Ġcy ber
issim a
hi p
Ġcx l
Ġhou ve
Ġbet ter
Ġnecess idade
Ġmater ia
Ġenter ro
Ġsepa raÃ§Ã£o
Ġnoti cia
Ġhear t
Ġnature za
Ġinten Ã§Ã£o
Ġsangu e
Ġsegre do
Ġtou ch
Ġpare de
Ġaposto l
Ġloc al
Ġmys ter
Ġpho to
Ġsear ch
Ġsever al
Ġza ac
Ġcomnos co
b ab
c tion
f Ã©
i ght
m Ã£
n al
r ist
r gel
s pea
Ġ Ã³
Ġ ras
Ġa us
Ġa ve
Ġc Ã³
Ġm Ã¡
Ġs tra
Ġn omes
os as
os tu
Ġqu ite
is as
on ia
Ġde al
Ġde dos
Ġde pen
it ive
al e
Ġv ento
Ġb er
Ġin ve
Ġin vol
em ente
Ġcom ec
Ġcom mo
Ġof f
Ã© ras
Ġme d
Ġse is
Ġes que
Ġg as
Ġg ol
ec to
Ġi d
Ġno vel
Ġca t
Ġca fÃ©
Ġcon c
Ġcon nec
Ġdi v
Ġis n
Ġh y
Ġh and
Ġem o
Ġem fim
ei Ã§Ã£o
Ġac ostu
ver se
ca ra
Ã³ n
Ġdes cer
ag e
Ġdis far
Ġvi eram
Ġpr Ã©
Ġam ong
... Â»
Ġco llec
Ġmu ro
st and
ut ar
Ġr us
Ġr un
Ġres t
Ġ1 0
for m
Ġle a
Ġwh ose
gh ts
Ġmor to
Ġfa ct
Ġcan ta
Ġpe gou
Ġun ico
Ġter min
Ġman eira
Ġgu rgel
Ġfu tu
Ġolh ou
Ġtra demark
be de
Ġpre to
no t
Ġcre anÃ§a
Ġne lle
Ġcar re
Ġhow ever
Ġpel as
Ġche io
Ġche gar
Ġba ixo
Ġvel has
Ġpou cos
ba do
Ġbec ky
por tu
Ġprimei ros
Ġped i
Ġdeix a
Ġdeix ar
Ġestava m
Ġcer ta
Ġpergun tar
pres sÃ£o
Ġparec eu
Ġquiz er
Ġentre tanto
Ġgos ta
âĢ Ŀ
Ġsta te
Ġway s
Ġprofess or
Ġfiz esse
Ġfiz eram
Ġrece ive
Ġop portu
Ġph ys
Ġph rase
Ġfl Ã²r
Ġdom ain
Ġrespon di
Ġsus pe
Ġcommunica tions
Ġfre ely
Ġpol ic
Ġinf in
Ġpens ando
Ġsoc ial
Ġrela ti
Ġrela tions
Ġcent ral
Ġpequen a
Ġoffic ial
Ġris o
Ġstar ted
Ġreg is
Ġhou vesse
Ġqua es
Ġdirec tor
Ġsau dades
Ġimper ial
Ġcem iter
Ġvirtu al
Ġmarket ing
Ġallow s
Ġvar ious
iment os
Ġexce ll
Ġcla ra
Ġdev Ã©ras
Ġgirl s
Ġespec ie
Ġadm ira
Ġreflex Ã£o
Ġprovavel mente
wh ere
Ġsug ges
Ġobri ga
Ġprac tical
Ġindividu al
Ġamer ic
Ġexempl o
Ġcaet ano
Ġarch ive
ribut ing
Ġlembran Ã§a
Ġconsult ant
Ġscre en
Ġcorres pon
Ġspan ish
spea king
Ġcemiter io
" .
a u
c ol
c ce
c ul
e o
f u
f for
f ac
g est
i ed
i for
i das
i des
j ar
j us
k en
t t
t ina
u p
y eah
Ġa im
Ġa ge
Ġt el
Ġt roux
Ġe duca
Ġe ffor
Ġd ito
Ġc ri
Ġc oc
Ġo m
Ġo bra
Ġo bede
Ġp ri
Ġs p
Ġs tor
Ġs one
Ġs we
ra y
es tro
qu em
Ġn isto
en ho
Ġqu Ã©
Ġf undo
is so
on y
Ġde va
it s
it ava
re y
Ġl as
Ġl arge
ou tro
Ġb row
Ġb ene
ha va
Ġin ti
Ġin tim
Ġu pon
te x
Ġan terior
da mente
Ġse ll
Ġse ge
Ġto w
Ġto car
Ġes ten
Ġes pan
Ġum as
Ġg ab
Ġpa y
Ġpa gar
Ġpa ulo
Ġre co
Ġre pro
Ġre plic
Ġdo ente
Ġno ites
Ġca ir
Ġda ys
Ġma tter
Ġj or
tion ary
Ġh er
Ġh or
Ġh im
Ġal u
Ġal v
Ġal ta
Ġem p
Ġac aso
ir os
Ġit self
Ġpara r
ente i
Ġsa tis
ch es
vi ous
Ġdes p
Ġinter ro
Ġdis pos
Ġper f
Ġper al
Ġper do
Ġper deu
un ha
Ġsu cc
Ġsu cce
Ã§a do
Ġser vi
ber t
Ġtu a
Ġwor d
Ãª s
tar ia
Ġpo Ã§o
Ġpo eta
Ġfo ra
Ġab ra
Ġle ad
Ġle gal
Ġso zinho
Ġpu x
Ġnos sos
Ġmes sa
Ġmes mos
Ġdiz el
Ġmo ral
Ġter ia
ix a
Ġcomm on
Ġpre par
ant ou
lo ad
Ġhe i
Ġne ar
Ġne xt
Ġpen sa
Ġmen or
Ġtal k
Ġrec omm
Ġdu ra
Ġvol un
Ġide as
Ġ199 5
Ġcons enti
Ġro Ã§a
Ġseminar ista
Ġpres s
Ġhom ens
pan egyrico
Ġjo ven
Ġcl i
ios o
Ġcr y
our ce
Ġcrea te
Ġcrea ting
iqu es
Ġtransla ted
dit ional
Ġpl ano
Ġbeca me
Ġfran ca
Ġtex to
Ġtex ts
Ġlev ou
Ġmon th
Ġdig it
Ġsub s
Ġesti vesse
Ġprovi ding
Ġqui eres
Ġgen era
Ġst one
Ġprincip al
Ġmain tain
Ġjun e
Ġevery thing
Ġvinha m
Ġanda va
Ġlim ited
Ġdin di
Ġdefin ition
Ġlou ca
Ġedit or
Ġconfess ar
Ġconfess ou
Ġdorm ir
Ġmus ica
Ġsci enti
Ġfei o
Ġpropos ito
Ġeas y
Ġegu al
Ġdocum ents
Ġissu e
Ġfollow ing
pir ou
Ġinteres ted
Ġlear ning
Ġdest ino
Ġmer ec
Ġft press
Ġabs ol
Ġcust om
Ġaspec ts
ĠâĢ ľ
Ġfortuna ta
Ġterce iro
Ġger man
Ġsolid Ã£o
Ġincreas ing
Ġans wer
Ġcaval lo
Ġproper ty
Ġtern ura
Ġopportu n
ifor nia
Ġsone to
Ġswe et
Ġdeva gar
' ,
? Â»
a Ã§Ã£o
c em
c ri
c Ã§Ã£o
c ted
d ou
g et
i fic
j os
l u
l ho
n ica
o pa
p y
p ly
p ira
r or
s se
v ir
Ġ 7
Ġa ti
Ġt v
Ġt in
Ġt esta
Ġe is
Ġe th
in ou
Ġm Ã´
Ġm oney
Ġp all
Ġs po
Ġs pe
Ġs pace
ra da
Ġn esse
Ġqu Ãª
or ity
Ġf ra
Ġf oc
Ġf ina
is ation
ar io
it ing
it ando
re h
Ġv endo
Ġb it
Ġb ras
Ġw an
Ġw indo
ha ps
te u
Ġcom si
da te
da va
gu a
Ġto a
Ġes sas
to y
Ġg ros
Ġre le
ec a
ec d
Ġi l
el h
Ġca bo
Ġma king
us try
Ġj uly
Ġy es
Ġen er
Ġen ch
Ġen co
Ġdi r
Ġdi ria
res s
Ġh ar
Ġh ist
Ġem pre
Ġac ho
am en
Ġha ving
Ġsa ys
Ġex tra
Ġex iste
Ġbe llas
ca das
Ã³ ria
Ġdes esper
Ġinter esse
Ġdis so
Ġper haps
ran da
Ġvi ew
um b
Ġco isas
que llas
st an
ci os
Ġcomp et
Ġcomp reh
Ġab ri
di da
Ġle p
Ġle is
Ġso on
Ġtem os
Ġcan ada
Ġpe ito
Ġap pe
ina va
Ġun a
pe u
Ġmes a
Ġmo Ã§o
Ġmo del
ĠsÃ³ s
du ra
Ġar te
Ġch or
Ġch ron
Ġesc ra
ÃŃ to
est ia
Ġra to
Ġra ther
Ġcar tas
Ġcor rer
Ġpen so
Ġcont ou
Ġmen ino
Ġba tal
Ġrec u
Ġrec orda
Ġir Ã¡
Ġvis inho
pon te
Ġfe bre
Ġconf er
Ġconf us
Ġcons er
Ġdeix e
Ġvo y
inh anÃ§a
Ġsab bado
Ġpergun tava
Ġpres ent
Ġten ha
Ġesper anÃ§a
Ġcr u
Ġob ser
Ġexper ts
Ġcal ifornia
Ġsenti r
Ġdist inc
Ġaff ir
Ġri r
Ġri ver
Ġsin to
Ġbus car
Ġmet ter
Ġlev ar
Ġbra Ã§o
Ġlembra r
Ġdisc us
Ġju ro
li ver
Ġoffic e
Ġcoun try
les c
Ġbel ie
Ġunder stand
Ġbar ri
Ġhead st
Ġado lesc
Ġcres cer
Ġorgan ization
Ġlinguistic s
Ġexplic ar
Ġlen Ã§o
Ġstr ong
Ġconst ant
Ġnego cio
Ġjus ti
Ġrapa z
Ġcall ed
Ġind ustry
Ġissu es
Ġsac rist
Ġexp and
Ġaut or
Ġanal ys
Ġsensa Ã§Ã£o
Ġeconom ic
isten cia
Ġencon tra
Ġspea k
Ġadi v
Ġleva va
Ġcharac ter
Ġjapan ese
Ġimpos si
Ġlettra s
Ġbegin ning
Ġpop ular
Ġtamb Ã©m
Ġesquer da
Ġapostol ico
Ġphoto graph
Ġid enti
Ġcollec tion
Ġfutu ro
Ġcarre ira
Ġreco gn
Ġreplic ou
Ġsucc ess
ĠmÃ´ nica
Ġcomsi go
Ġhist Ã³ria
1 99
a ir
c endo
c hed
d on
d ica
d ist
g l
g on
j am
l anguag
m m
m aria
n em
o f
u Ã§Ã£o
u ary
w ide
y al
â ģ
Ġ )
Ġ 8
Ġa ga
Ġa gar
Ġa ju
Ġt on
Ġt an
Ġe d
Ġd out
Ġc Ã©
Ġc ed
Ġc Ã´r
Ġo ecd
Ġm inu
Ġs to
Ġs ing
Ġs ir
Ġs co
Ġs tic
Ġs pec
Ġs hor
Ġs ound
qu es
Ġn essa
en cias
as sem
Ġqu ad
or dar
Ġf ed
Ġf rio
is ed
is tir
on es
an as
an da
re dit
Ġl angu
Ġl ine
al o
Ġb en
Ġb ill
Ġin do
Ġin qui
Ġin ven
Ġin fer
Ġu so
ti es
ti go
te za
Ġcom b
da y
Ġof ten
Ġme an
Ġme ia
Ġme et
Ġse l
va Ã§Ã£o
Ġpa u
Ġpa pe
Ġre z
Ġre gu
Ġre vel
Ġre qui
Ġre pres
ec er
ho l
el ic
Ġcon vi
me d
us tra
Ġj ard
ri e
Ġen c
ent al
ve u
ve il
Ġal e
Ġal tar
Ġal one
il ity
Ġac redit
Ġfor th
Ġex ec
Ġex pan
Ġbe ll
Ġwe ek
ca p
Ġdes sas
Ġdes ap
Ġdis tra
Ġper dÃ£o
Ġat re
Ġat al
... )
Ġwith in
Ġcas mur
Ġr ou
Ġres ul
ci da
Ġpar ei
Ġli ber
Ġpo ten
Ġab an
di os
Ġle g
Ġle ve
Ġfa Ã§a
Ġfa Ã§o
Ġor d
Ġtem pos
mos t
Ġte am
Ġim pe
Ġim por
Ġim itar
Ġlong er
Ġcomm um
Ġbo ys
Ġquer endo
ant os
est Ã¡
Ġra dio
Ġest Ã£o
ine te
ita do
Ġcar ta
Ġcar di
Ġcor rec
Ġfaz endo
Ġva idade
Ġpos su
Ġuse ful
Ġus er
Ġrec ol
Ġvis inhanÃ§a
Ġvel hos
Ġad ver
Ġvol tou
Ġmal uma
ment os
Â» ,
Ġta x
Ġfe e
id ar
Ġcu ando
Ġany one
sion s
Ġworld wide
Ġjo hn
Ġpubl ico
Ġesper a
Ġfic Ã¡mos
Ġjan uary
Ġentra da
Ġcrea tura
Ġsta t
Ġtransla tors
pr im
pr Ã©
Ġaff lic
Ġaff lig
Ġaff air
Ġfiz era
Ġtechn olog
Ġtechn ical
ide z
Ġce veil
Ġwr ite
Ġx c
Ġx ci
dic tionary
Ġfl or
Ġfl amen
Ġbas ed
Ġass ump
Ġmet ho
Ġref und
Ġtraz er
com o
Ġmin ority
Ġsus pirou
Ġsub ject
Ġcommunica te
Ġesti ver
Ġins crip
Ġinte llec
Ġget ting
Ġinf ancia
Ġtom ar
Ġpens amento
Ġga elic
Ġoffic io
Ġamar res
Ġservic e
Ġcostu mes
Ġtorn ou
Ġtorn ei
Ġbel eza
Ġpoder ia
Ġolha va
Ġgrou ps
Ġtrabal ho
Ġdiction ary
Ġproblem s
Ġagre e
Ġmus ic
Ġviu va
Ġconse gu
Ġactiv ities
Ġhaiti an
Ġcurr ent
Ġeas ily
Ġbre ve
Ġjus tamente
Ġrapa zes
Ġimagina Ã§Ã£o
Ġassocia ted
Ġmostra r
Ġbuil d
eng lish
Ġbal vin
Ġcommer cial
Ġeter na
Ġexc la
Ġsensa Ã§Ãµes
Ġarre pen
Ġergu eu
Ġacudi u
Ġame a
Ġame i
Ġpente ado
Ġrefl ect
ni bus
Ġbol so
Ġperm ission
Ġappr ender
Ġcemeter y
Ġmom ento
Ġfigu ra
Ġforma t
Ġsuper la
Ġaudi ence
Ġsign al
Ġquick ly
Ġexcl us
Ġecclesias tica
Ġden uncia
Ġloca ted
Ġaccres cent
Ġjuram ento
Ġcomec ei
Ġrelations hip
fu lly
Ġintim idade
Ġgab inete
Ġvolun te
Ġfoc us
Ġsacrist Ã£o
Ġanalys is
âģ Ł
Ġaga in
Ġdout or
ĠcÃ© u
Ġstic k
Ġfed eral
Ġpape is
Ġflamen go
Ġassump to
. ]
a ram
b u
b ol
b lo
c or
c ulos
d om
d ents
f oun
f eira
h y
i ou
i ble
j Ã¡
m ando
p es
p ria
r indo
u al
Ġ ÃŃ
Ġt ez
Ġt Ã´
Ġe qui
Ġd an
Ġd Ã£o
Ġd all
Ġc us
Ġc ala
Ġc ria
Ġc ross
Ġo bl
Ġm ill
Ġm ira
er em
Ġs r
Ġs ha
Ġs ong
Ġs low
Ġs ource
en a
en om
as es
or g
Ġf ri
Ġf ast
is sa
is mos
Ġde mo
it amente
re mos
Ġl an
Ġv ent
Ġv indo
Ġb is
Ġw ro
ia go
ia mos
ha el
Ġin val
im o
gu tenberg
Ġme ias
Ġme tal
Ġme lan
ic amente
de o
Ġse em
Ġse con
Ġse jam
Ġto cava
Ġg ar
Ġg am
Ġpa id
ter n
Ġre par
Ġre pu
Ġre je
Ġre tur
Ġdo ing
Ġno ta
Ġno vas
Ġca ras
Ġda do
Ġcon to
Ġcon cl
Ġcon ven
Ġma il
Ġma tar
us h
Ġj our
Ġen fi
Ġdi vi
ent Ã£o
Ġna tura
Ġna mora
ma Ã§Ã£o
Ġh os
Ġh alf
Ġal he
Ġal th
Ġal most
ei gn
Ġac to
Ġac Ã§Ã£o
tu m
Ġit al
sa ÃŃ
Ġfor eign
Ġsa pa
Ġsa ida
Ġsa id
Ġsa cu
Ġsa ÃŃa
Ġex pen
Ã³ de
Ġinter ess
Ġinter ior
Ġper de
ran ce
co va
ez as
ith er
Ġsem elh
Ġco ll
ess as
ut es
pa e
Ġli bras
Ġ1 4
Ġ1 5
Ġlo ja
ga da
Ġcomp l
Ġcomp ly
Ġcomp rim
Ġcomp lex
di u
Ġle vel
ica ra
Ġho e
Ġcan ap
Ġcan not
Ġim pa
Ġim media
Ġim pul
Ġap r
Ġap ag
Ġap Ã³s
Ġmes mas
Ġmo d
ĠsÃ³ mente
Ġman dar
Ġman eiras
Ġla p
Ġgu y
Ġgu ard
Ġgu ide
Ġfu ego
Ġtra v
Ġbo ca
Ġch in
Ġch icara
Ġquer iam
Ġpre m
Ġmar ch
Ġyour dictionary
Ġcre an
Ġfaz em
Ġva ra
Ġva randa
Ġpen a
Ġrec us
Ġrec ord
Ġir m
Ġdu e
Ġdu rante
pre ad
Ġvol ver
Ġ199 4
bo dy
Ġeng enho
Ġbec omes
ist as
Ġprimei ras
Ġsim ply
Ġgra ve
Ġped ra
Ġsome one
Ġvo zes
Ġdon de
Ġcer tamente
Ġcha mar
Ġcu ide
era ture
ard s
Ġparec er
Ġparec iam
Ġfos sem
fe ito
Ġesper anÃ§as
Ġexpl iquei
Ġob s
our s
Ġnas ceu
Ġcompan hia
Ġbr ing
tei ro
dit ion
Ġdist ancia
Ġdist ributing
Ġaff ec
Ġrece io
Ġrece ber
Ġrece be
itu de
Ġlu gar
Ġph one
Ġbas ic
Ġass ist
Ġmet ti
Ġrep ente
Ġmon itor
Ġrespon der
ru p
Ġnum er
Ġven ez
Ġven cer
vis ion
Ġconhe cer
Ġsup pon
Ġinf o
Ġcul tural
Ġinterview s
Ġrela Ã§Ãµes
Ġuni vers
Ġulti mos
Ġga to
Ġneed s
Ġparticular ly
Ġevery one
Ġves tido
Ġanti go
Ġprodu ct
Ġfamil iar
Ġfoun der
Ġouv il
Ġacce p
Ġnecess ary
Ġve x
Ġsau de
Ġsau dade
Ġestu dos
Ġdiss esse
Ġjane llas
Ġvirtu des
Ġmi ght
Ġedit ions
Ġbar b
van ta
Ġnoti cias
Ġescrip tura
Ġatten Ã§Ã£o
Ġsant os
Ġsant iago
Ġconse qu
Ġexce pt
Ġsum mar
Ġconst ru
Ġcolle gio
Ġartic le
Ġpolit ical
Ġlab ios
Ġvag ar
Ġassocia tion
Ġsac ri
Ġadm it
Ġdra gÃ£o
Ġspecial ized
Ġcuida dos
Ġembar gos
Ġesca p
Ġdire ita
Ġpur pos
Ġteach ing
Ġsitua tion
Ġsitua Ã§Ã£o
Ġmoc idade
Ġprocess ing
Ġdissim ul
Ġdifficul dade
Ġbil he
Ġenvol ver
Ġexchan ges
Ġespir ito
ĠÃł s
Ġdatab ase
Ġcatalo gue
Ġmic hael
Ġespecial ly
Ġques tion
Ġeffecti vamente
Ġinvol ved
Ġemo Ã§Ã£o
Ġtermin ology
Ġpolic y
Ġrelati ves
Ġom nibus
rey ol
Ġalv oro
Ġconsenti u
Ġil usÃ£o
Ġener gy
Ġextra ord
Ġchron iques
Ġbatal ha
Ġinfer no
Ġcasmur ro
Ġpoten ti
Ġintellec tual
foun der
Ġdall i
Ġwro te
Ġmelan col
Ġsecon d
Ġjour nal
Ġalth ough
saÃŃ da
Ġcanap Ã©
) ;
a k
a gu
b an
c le
c Ãª
c amente
g en
g am
g asse
i f
i va
m ou
n d
o t
r ich
s emos
t asse
u ras
v emos
y l
y on
Ã ¨
Ġ Ã§a
Ġa da
Ġa Ã§a
Ġa ber
Ġa vis
Ġt Ã¡
Ġt est
Ġe qu
Ġe mail
Ġe ither
Ġd ando
Ġd Ãª
Ġd one
Ġd aria
Ġc d
Ġc ele
Ġo tro
in ed
Ġp ic
Ġp un
Ġs ig
Ġs har
es ti
es so
os s
he iros
is s
is ing
is sÃ£o
Ġde ve
Ġde ver
Ġde lic
Ġde dica
it able
Ġque de
Ġl ines
Ġthe ologia
al th
Ġv as
Ġb ast
Ġw ish
Ġw ide
ia va
ia Ã§Ã£o
Ġin v
Ġin ves
Ġin com
Ġin tran
ti re
ti me
te g
te ad
Ġan de
Ġcom er
ta Ã§Ã£o
Ġme x
ic as
ic os
Ġto p
Ġto cha
Ġto ada
Ġes for
to wn
Ġg em
Ġg anha
Ġpa in
Ġpa es
ter ed
Ġre b
Ġre tor
Ġre port
ec tive
Ġdo is
Ġdo enÃ§a
ho ol
Ġou ts
Ġno v
Ġno te
Ġno ve
el s
el hos
Ġca ÃŃ
Ġcon vers
Ġcon tain
Ġma e
me i
Ġj e
Ġj az
Ġy um
ri ed
Ġen fia
Ġen tire
Ġdi ver
res se
Ġh Ã£o
Ġth re
Ġal Ã©m
Ġem ba
il ar
Ġera mos
tu do
tu ras
Ġon ce
Ġha b
Ġha go
Ġha vendo
Ġex er
Ġex ist
ca da
Ġdes pe
Ġdes ig
Ġdis pen
Ġper re
Ġper form
Ġvi ol
Ġvi deo
Ġser io
Ġser iam
Ġser vir
Ġsem ana
... ?
Ġco ra
Ġco ch
lh es
Ġcas amento
Ġr ound
Ġres pec
Ġres tric
Ġres pect
pa pae
ci dos
Ġpar is
Ġpar ts
Ġlo ter
Ġcomp ri
di Ã£
ab ility
Ġle ito
ica tion
Ġho t
Ġcan to
Ġcan ce
Ġfr on
Ġpe Ã§o
Ġpe gar
Ġfal e
Ġfal ei
ill ustra
Ġte us
Ġmes tre
Ġman da
Ġla un
Ġch u
Ġmy self
Ġesc ura
Ġpre pa
Ġpre dic
Ġmar Ã§o
tic as
tic ally
Ġhe y
est Ã£o
Ġcre anÃ§as
Ġcar ry
Ġtinha mos
and s
Ġcos t
Ġpen na
Ġcont ribu
Ġche gando
Ġgo es
Ġmen tion
Ġmen tir
Ġmen tira
si ve
Ġtal ks
pos t
pos iÃ§Ã£o
Ġvis to
Ġvol tava
Ġvol tei
Ġsim ple
Ġped ro
Ġfe ita
Ġcons um
Ġcons ola
Ġro yal
Ġdon o
Ġcha cara
Ġsab or
Ġany thing
Ġpergun ta
Ġpres er
Ġpres il
Ġpres id
ante i
cis co
Ġjo b
Ġjo gar
Ġtr u
Ġbook st
Ġcome Ã§ar
Ġesper ando
Ġesper ava
Ġverdade ira
Ġcr im
Ġouvi ra
Ġouvi dos
Ġsta y
Ġdef es
Ġtar des
Ġdist ance
Ġrece b
Ġfran cisco
Ġri ghts
asi er
Ġlu ar
Ġpassa va
Ġpassa gem
Ġph enom
Ġbas tava
Ġcam inh
Ġbus c
Ġlev asse
Ġlev antou
com mer
Ġcur ta
Ġcur ves
Ġdiffer enÃ§a
Ġsus to
Ġsus pen
Ġbra z
Ġven ha
Ġpla y
Ġins tead
Ġinte gra
Ġprovi des
Ġprovi ded
Ġcul pa
Ġcul tures
Ġqui et
Ġmain ly
Ġanti gas
Ġer ro
sel ho
Ġmulher es
Ġve jo
Ġbei jo
Ġstu dents
Ġz an
Ġz um
Ġfec hando
Ġvirtu de
Ġaper tar
Ġdez ese
Ġlou vor
Ġsc hool
Ġlook ing
Ġtrabal har
Ġtoo th
Ġdown load
tran d
Ġescrip to
Ġsci ence
Ġfug ir
Ġexplica Ã§Ã£o
Ġconce pt
Ġexplic ou
Ġfinal mente
tam bem
Ġste p
Ġconta ct
Ġpasse io
Ġdistribu tion
Ġcump rir
Ġespec ta
Ġgi ven
Ġwa ter
Ġwa ters
Ġbuil ding
Ġdra ma
Ġlear n
Ġguar diÃ£
Ġpublish ing
Ġaut oma
Ġsolu tions
Ġmanag ement
Ġnar iz
Ġpag inas
Ġperm it
Ġcemeter ies
Ġolhe i
Ġbil ingual
Ġill usÃ£o
Ġinterest ing
Ġpeda Ã§o
Ġfur ther
Ġcertain ly
Ġcir cum
Ġess enti
Ġperio dic
Ġpared es
Ġaz ul
Ġbes ouro
Ġwind ing
Ġreas ons
Ġdesf az
Ġdesign ed
Ġduvi das
Ġpromp to
Ġsym pa
uc ture
Ġdispla y
Ġber trand
Ġmed ico
ĠprÃ© gÃ£o
Ġinfin ito
Ġameric an
Ġstor ies
estro fe
Ġperal ta
Ġmessa ge
Ġcli ents
Ġsubs cri
Ġscienti fic
Ġcustom ers
Ġeth n
Ġspo ken
Ġbras il
Ġdesesper o
Ġmodel s
Ġconfer ence
Ġjusti Ã§a
Ġjard im
Ġdesap parec
ĠÃŃ mÃ£
Ġcala do
Ġsapa tos
Ġcuide i
Ġvenez u
Ġextraord inar
ĠaÃ§a ÃŃ
Ġintran et
Ġouts ide
illustra tion
2 001
b as
b ri
c el
c Ãº
c ur
c ola
c ement
c imentos
d ando
d um
d encia
d isse
j as
j ava
l er
l ar
m p
m u
m ing
n g
n er
n thia
o per
p ol
p adas
p Ã³de
r um
s an
s ou
u ries
v ant
w a
x o
z o
z ia
Ã ±
Ġ Ãª
Ġa ta
Ġa fr
Ġa utos
Ġa mava
Ġt um
Ġe asier
Ġd al
Ġd eram
Ġc en
in ei
in ando
in ted
Ġm ind
Ġm id
Ġm Ã¡s
Ġp c
Ġp is
Ġp le
Ġs cis
Ġs ize
Ġs pread
ra es
qu a
qu ando
Ġn ight
Ġn isso
os os
he ad
he ther
he ceu
Ġqu o
Ġqu estÃ£o
Ġf res
is le
is ted
ar ily
an ho
Ġde ter
re m
re am
Ġl is
Ġl Ãº
Ġl inda
Ġl indo
ou ght
om ing
al ing
Ġv os
Ġv an
Ġv ic
Ġv ad
Ġb or
Ġb umb
Ġw in
Ġw hether
ia do
ha dos
Ġin e
Ġin u
Ġin da
Ġin ci
em bra
Ġu sava
ti vamente
te ch
Ġan n
ll ig
ro pe
ta tion
ic ia
de lo
Ã§ am
Ġse te
Ġse pul
Ġes ses
Ġas k
Ã¡ rio
Ġre ma
Ġre log
Ġi pan
Ġdo bra
Ġou ve
el o
el ho
Ġca b
Ġca u
Ġda ma
Ġcon tigo
Ġcon selho
Ġma g
Ġj ul
Ġj ur
Ġj ac
Ġen fer
Ġdi e
Ġdi vida
Ġna m
Ġna mo
Ġh mm
Ġth us
Ġth ous
Ġth ough
Ġal gar
Ġal ain
Ġal pha
Ġem en
Ġ( ...)
Ġac ross
Ġpro fer
Ġpro bab
ver ed
go ra
Ġon es
Ġha ven
Ġha cem
le y
Ġyou ng
Ġfor tal
Ġsa indo
Ġsa tan
Ġex t
Ġbe gan
ca use
Ġdes se
Ġdes tr
Ġinter ac
Ġdis to
Ġdis co
Ġper di
Ġper man
un da
Ġvi esse
Ġpr Ã³
po inted
Ã§a da
Ġser Ã¡s
Ġam are
ez ar
ad em
Ġco t
st ru
lh as
Ġcas es
Ġr en
Ġr ul
Ġr um
Ġres pe
ten do
Ġli ves
Ġpo vo
Ġ1 7
Ġab riu
di es
Ġle val
gh ted
Ġmor ning
Ġho l
Ġso ce
Ġso fr
Ġpe Ã§a
tes t
Ġim ita
Ġim pressÃ£o
Ġap on
Ġap an
Ġap al
Ġap ro
Ġap pl
Ġap par
ina tion
ina Ã§Ã£o
Ġun ica
Ġare as
Ġdiz iam
Ġar t
Ġla va
Ġla ter
Ġbo as
Ġquer ido
Ġmy ke
Ġcasa da
Ġpre tex
ÃŃ s
Ġhe alth
est as
Ġcre dit
Ġwork ed
Ġcar o
Ġfaz iam
Ġpos sa
Ġpen sava
si de
Ġ2 3
Ġcop ies
Ġcop ied
nos sos
Ġba t
Ġsol o
Ġad oro
Ġeng an
Ġesta mos
mas ter
Ġtran Ã§as
Ġbec oming
olo gue
Ġcopy ing
Ġcopy ri
ja ja
Ġgra v
Ġgra dua
Ġconf esso
Ġcons ciencia
Ġdeix ava
Ġestava mos
Ġcha ma
Ġcu cur
Ġsab endo
Ġseminar istas
con s
Ġany where
Ġpres ta
Ġacab ei
Ġprom essas
era Ã§Ã£o
Ġparec endo
Ġquiz era
Ġjo y
Ġten or
fic io
ĠpÃ³ dem
Ġkno wn
Ġob j
Ġob tain
Ġprin ted
Ġouvi do
Ġjan eiro
Ġamor es
Ġwho le
Ġtransla te
Ġsom ma
pr ima
pr ising
pu ta
Ġval er
Ġval or
Ġwhere ver
Ġrece i
Ġrece bi
Ġop us
Ġfran camente
Ġri u
Ġsin cer
Ġlu ck
Ġcontinu ei
Ġpon tas
Ġah ÃŃ
Ġfl u
Ġnet gl
Ġlingu ist
Ġass om
Ġass us
Ġbon s
Ġlev an
Ġmon ica
Ġqual ity
Ġqual idades
Ġgrow ing
Ġchan ged
ru cu
Ġsub st
Ġesti ma
mar ias
vis ta
Ġins ist
Ġinte llig
Ġsup por
Ġsup plic
Ġimag ine
vol ver
Ġinf lu
Ġprovi der
Ġmem bers
su re
Ġdeba ixo
Ġcent uries
Ġpequen os
ĠmanhÃ£ s
istic s
Ġcy nthia
Ġconsul tan
Ġves ti
Ġcho rando
Ġhou se
Ġlet ters
Ġve ja
Ġinclu ded
Ġpoder Ã¡
Ġquar enta
Ġdirec tly
Ġlim ites
Ġtro ca
Ġestu dar
Ġdiss eram
fi ed
Ġclar os
Ġmarket s
Ġmaior es
Ġsepa ra
Ġdown town
Ġproc ura
Ġcommission er
Ġtriste za
land s
Ġagu a
iment al
ula Ã§Ã£o
Ġstr ucture
Ġdesped ir
Ġversion s
Ġru as
Ġebook s
Ġpolit ica
cent re
Ġcump ri
Ġkind s
Ġreflex Ãµes
Ġgreat ly
Ġappro x
wh ich
Ġade ante
Ġbro ad
Ġsug gest
Ġresol uÃ§Ã£o
Ġpropria mente
Ġty pe
Ġpromo ting
Ġrefl ecti
Ġnar raÃ§Ã£o
Ġmeta p
Ġmeta de
Ġear ly
Ġcut ter
Ġdoes n
Ġdifficul t
Ġtira r
Ġdel isle
Ġlar go
Ġespa Ã§o
Ġaqu illo
Ġalc an
Ġdatab ases
Ġadministra dor
ĠfÃ© rias
Ġreas on
Ġenxu gou
Ġfall in
Ġlh es
Ġwo od
Ġreme dio
Ġalmo Ã§o
Ġmud anÃ§a
Ġesque Ã§a
Ġdiv ina
Ġsugges tions
Ġtroux e
Ġtow ers
Ġrepro duz
Ġinterro ga
Ġfranca ise
Ġmonth s
Ġabsol u
Ġwan ted
Ġwindo ws
Ġappe ar
Ġphotograph ia
199 8
Ġminu to
Ġsing le
Ġshor t
Ġben Ã§Ã£o
Ġale gre
Ġbell eza
cap it
Ġstat us
Ġaccrescent ou
Ġcus ta
Ġobl iqu
Ġbis po
Ġinval idos
Ġseem s
Ġconcl usÃ£o
Ġchin ese
vanta ge
Ġalvoro Ã§o
Ġsig naes
Ġmae jor
Ġje an
Ġloter ia
Ġlaun ched
Ġdefes a
commer ce
Ġethn ologue
Ġvenezu ela
ĠÃª ta
ĠlÃº cia
Ġbumb um
Ġipan ema
Ġalgar ismos
Ġprobab ly
Ġhacem o
Ġsofr er
Ġcucur rucu
Ġnetgl os
Ġcucurrucu cÃº
. )
a ta
a me
a th
a tor
a gora
b esse
b ados
c an
c ing
c ente
c ome
c tor
d le
f it
g i
h h
h al
h ic
h Ãµes
i ent
l ia
l ink
m i
m en
m ore
n do
o to
p Ã©
p tion
p rio
r ing
s ing
t Ã¡mos
u b
w ith
z as
Ð µ
Ġ 9
Ġa v
Ġa vo
Ġa quelles
Ġt rec
Ġt anta
Ġt entei
Ġe p
Ġe ventu
Ġd ro
Ġd Ã©
Ġd ur
Ġc it
Ġc hat
Ġc um
Ġc esar
Ġo l
Ġo cto
Ġo oh
in s
in ing
in ts
in formation
Ġm t
Ġm iu
Ġp Ã´r
Ġs ix
Ġs inh
Ġs ky
ra vel
ra hy
qu est
en di
or k
or inhas
Ġf ly
Ġf esta
Ġf inas
Ġf antas
is es
is mo
ar ou
an e
Ġde cis
Ġde par
Ġde itar
Ġde liver
Ġde ath
it ura
it avam
re et
re la
Ġl l
Ġl ia
Ġl ua
Ġl ance
Ġl ados
om ia
al ity
Ġv in
Ġv ast
Ġb rou
Ġb ordo
ha da
Ġin c
Ġin it
Ġin vent
Ġin ex
em ica
Ġu sa
ti que
ti vely
te is
te ve
te ur
Ġcom es
ta ble
gu as
Ġme z
ic on
Ã§ al
Ã§ ando
Ġse en
Ġto ile
Ġes tra
Ġes tes
Ġes pos
Ġg ram
Ġg eo
va te
Ġpa i
Ġpa blo
Ġand orinhas
Ġas ci
Ġre i
Ġre t
Ġre gar
Ġre vol
Ġre minis
Ġre quest
ec e
ec h
ec eu
Ġi do
ho ras
-- Â«
el d
Ġca chor
Ġca deira
Ġda vam
Ġda ily
Ġda quelles
Ġda quellas
Ġma c
Ġma t
Ġma kes
Ġj eito
Ġen or
Ġen vic
Ġen sure
Ġdi versity
ent ina
ent emente
et as
res ses
ul as
Ġth om
Ġem pres
Ġem end
Ġem enda
il ho
Ġac tion
Ġac adem
Ġpro poz
Ġpor tal
tra ns
ente d
Ġfor te
Ġfor um
Ġsa ia
Ġex pres
Ġex tran
Ġex tre
Ġbe yon
ch inha
Ġdes a
Ġdes vi
Ġdis cre
Ġper s
Ġper igo
un ications
Ġvi d
Ġsu re
Ġsu bl
la im
la va
ith me
Ġsem anas
Ġver ti
Ġmu y
Ġmu da
Ġmu dar
Ġcas os
Ġcas te
Ġres ta
pa ra
pa do
ci on
Ġpar ou
Ġpar tes
Ġpar enta
Ġpar entes
Ãª n
tar y
Ġpo d
Ġpo eira
Ġpo wer
Ġ1 2
Ġ1 00
Ġlo ts
Ġcomp li
Ġab ro
Ġab ria
Ġab rir
di ga
Ġwh y
tr os
Ġmor ta
Ġso pro
ion ally
Ġor der
Ġor dem
Ġcan tar
Ġcan dida
Ġfr ente
Ġpe or
Ġpe de
Ġfal ado
Ġap anha
Ġsen d
Ġare a
Ġmo da
Ġmo Ã§as
Ġmo tivo
Ġmo tivos
Ġter mo
Ġter mos
Ġter ror
Ġall opa
Ġman a
Ġman de
du ced
Ġar ithme
Ġpas sei
ff ic
Ġgu er
Ġgu stan
Ġfu lly
Ġcomm ent
Ġtra tava
Ġtra ditional
pl ica
Ġch ar
Ġch Ã¡
Ġpre vious
Ġmar gar
Ġmar tin
ur y
ur rei
esse d
das se
Ãµ e
Ġk reyol
ita tion
ita Ã§Ã£o
Ġcar ried
bl ished
Ġcor te
Ġcor ria
tor ia
tor ze
Ġpos ted
Ġpos itive
vo gado
Ġcos ts
Ġcont ando
Ġproj ecto
Ġ2 5
Ġwas n
Ġrec re
Ġrec ent
Ġir re
Ġvis it
Ġvis inha
Ġvis itor
Ġpad res
Ġacc ent
Ġacc ender
Ġad ditional
Ġad vogado
Ġmal u
Ġ199 7
oun t
Ġesta do
Ġpou ca
ba t
Ġti que
Ġta ca
Ġta kes
na tional
Ġgra va
Ġgra Ã§as
Ġped indo
Ġfe es
Ġconf i
Ġcons ol
Ġdeix asse
Ġro ll
Ġcer im
Ġcer teza
id s
Ġcu idar
Ġsab bados
ros o
Ġprom ise
Ġtrans fer
Ġhom ero
Ġparec ido
Ġtr uly
Ġten go
Ġcl ick
Ġmos trou
Ġgos tou
Ġpubl ications
Ġpubl ication
ns yl
Ġinst rum
Ġcr ise
Ġob se
Ġob st
Ġob vious
Ġtim es
Ġcal Ã§as
Ġpass os
Ġsenti mento
iqu emos
Ġnas cer
Ġbr ray
Ġsom bra
ie dade
Ġval em
Ġval ley
Ġop pos
dor es
Ġprecis ava
Ġpon ta
Ġfir me
Ġph il
Ġcam pa
Ġbus cava
Ġmet tia
Ġmon um
Ġprop rios
Ġchan ging
Ġsub i
vis Ã£o
Ġpol emica
Ġconhe cido
Ġsup p
Ġimag em
Ġlembra va
Ġag gra
Ġbu ll
Ġfica ram
Ġwrit er
Ġmem ber
Ġsor rindo
Ġrela ted
Ġqui ere
gue is
Ġdent es
tim es
Ġdevelop ed
Ġlic enÃ§a
Ġesquec e
Ġesquec eu
ord ou
tir te
Ġescre vendo
Ġprincip almente
Ġparticular mente
Ġsec ulos
Ġthrough out
Ġacha do
Ġris on
Ġsal es
Ġglo ws
Ġsur prising
Ġdic e
Ġgre a
Ġfalava m
hi ps
Ġcho cola
Ġanda rahy
Ġreg res
Ġtorn ava
vent ura
Ġqua torze
Ġouv indo
Ġacce ito
pi re
the llo
Ġinclu de
Ġinclu des
Ġown er
Ġdirec tion
Ġfeliz es
Ġpassar os
Ġstu dy
Ġstu mp
Ġdiss er
Ġcould n
Ġz ero
Ġbi bl
Ġdefin iti
Ġdefin iÃ§Ã£o
Ġaper tou
Ġmi rando
Ġrepeti u
Ġrepeti Ã§Ã£o
van ia
Ġcres cendo
Ġsil icon
Ġorgan isation
Ġdesc an
Ġrom a
Ġexplica do
Ġhistor y
parec e
Ġagu entar
Ġsant issimo
Ġsum mer
Ġdev em
Ġincre ase
Ġdesped ida
Ġcolle ge
Ġste aling
Ġnews let
Ġdistribu te
Ġdistribu ted
Ġcump ria
Ġgi ves
Ġconversa Ã§Ã£o
Ġwar ran
Ġind ica
Ġlon ga
Ġcompa raÃ§Ã£o
Ġbella que
Ġinteres a
Ġ18 5
Ġpublish ers
Ġbeij ar
Ġade us
Ġput ting
Ġsangu ine
Ġbro ther
Ġbro tou
Ġresol ver
Ġescol her
Ġacudi ram
Ġesca da
Ġdire ito
Ġdest ina
Ġteach ers
Ġindividu als
Ġpi ano
Ġrem ember
Ġprote cted
Ġamer ica
Ġsw it
Ġaspec to
Ġcham ou
Ġrepla ce
Ġrelig ios
Ġespa da
Ġ19 8
Ġcharac ters
Ġespir itual
Ġlos t
Ġadd resses
Ġaudi encia
Ġrepet ia
Ġdec ember
Ġatt ribu
Ġcurios idades
âĢĶ ,
Ġsym bol
fa ce
Ġdispla ying
Ġtiver am
Ġcyber ie
Ġmyster ios
Ġaus encia
Ġstra teg
Ġinve ja
Ġgol d
Ġconc ordou
Ġconnec ted
Ġhy po
Ġhand le
Ġreceive d
Ġsuspe ita
Ġexcell ent
Ġadmira Ã§Ã£o
Ġobriga Ã§Ã£o
Ġeffor t
Ġeffor ts
Ġcoc he
Ġcoc heiro
Ġinti ma
Ġespan tado
Ġjor naes
Ġalu gueis
Ġsucce deu
Ġlead er
Ġnear ly
Ġrecomm enda
Ġopportun ity
Ġpall io
Ġdistinc Ã§Ã£o
Ġriver ban
Ġunderstand ing
Ġbarri er
Ġheadst one
Ġadiv inha
Ġimpossi vel
gon ha
languag e
Ġton gue
Ġlangu e
Ġatal hou
Ġimpor ta
Ġafflic Ã§Ã£o
Ġtechnolog ies
Ġvolunte ers
Ġmill ion
erem ias
Ġenfi ei
Ġalhe ias
Ġimpul so
Ġguard ar
Ġirm Ã£o
Ġobs cu
Ġmonitor ing
Ġaccep ted
Ġsacri fic
Ġpurpos e
Ġbilhe te
Ġpotenti al
Ġpic tures
Ġbast ante
Ġinves ti
Ġleito ra
Ġpresid ent
Ġbookst ore
Ġbraz il
Ġsubscri bers
Ġine v
Ġsepul tura
Ġrelog io
Ġjac ques
Ġnam oro
Ġthous ands
Ġsatan az
Ġext ent
Ġhol der
Ġpretex to
Ġopus culo
Ġluck y
Ġtrec ho
Ġeventu ally
Ġocto ber
Ġdepar t
Ġbrou ght
Ġespos a
Ġasci i
Ġcachor ro
Ġenvic ia
Ġbeyon d
Ġmargar ida
nsyl vania
Ġriverban k
7 0
a es
a ted
b y
b ru
b ile
c all
c ture
c ular
c imento
d f
d inha
d inhos
e da
f y
g le
g lo
g ment
g ens
g ress
h ere
i ras
i ram
i ano
i ps
j ou
k no
l oc
l ong
m on
n an
n ess
n ew
n idade
n ers
o y
o ds
p he
p et
p ts
r endo
s y
s en
u ll
u ta
u me
v y
v Ã£o
v essem
w r
w ise
Ġa i
Ġa res
Ġa ventu
Ġa jus
Ġt as
Ġt os
Ġt ir
Ġe vi
Ġe vo
Ġd un
Ġd Ã´r
Ġc ere
Ġo le
Ġo thello
in os
Ġm r
Ġp ul
Ġp il
Ġs is
Ġs ul
Ġs am
Ġs na
Ġs ido
Ġs pir
ra me
ra ria
es cobar
qu is
qu ia
qu io
qu eiro
Ġn i
Ġn Ã©
Ġn esta
en dia
os sa
os op
or n
or ou
Ġf as
Ġf om
Ġf ul
Ġf Ãº
Ġf our
Ġf Ã´r
Ġf Ã²
Ġf estas
is sem
ar ias
ar ios
on de
an cial
an ger
Ġde le
Ġde cl
Ġde gra
Ġde gre
it ica
re w
re gra
Ġque im
Ġque ira
Ġl in
Ġl ec
Ġl am
Ġl endo
Ġl ord
Ġl ists
Ġl utar
om s
om ina
om be
al to
Ġv ul
Ġv ence
Ġv aria
Ġb lo
Ġb ur
Ġb ah
Ġb ound
Ġb esta
Ġw ire
ia dos
ha vam
Ġin tro
Ġin dic
em pre
em bro
Ġu h
Ġu r
Ġu ly
ti u
ti er
ti Ã§Ã£o
ti fic
te o
te te
Ġan ci
Ġan jos
ll ei
Ġcom ba
ta das
gu i
gu m
gu lho
ic es
Ã§ ol
Ġse a
Ġse quer
Ġes tran
Ġg e
Ġg on
Ġg al
va e
Ġpa ta
Ġpa ciencia
Ġas tron
Ġas king
Ġre pa
Ġre ac
Ġre dist
ec imento
Ġi x
Ġdo ces
Ġno tar
Ġca us
Ġca vall
Ġda te
Ġda hi
Ġcon tes
Ġcon vic
Ġcon tado
Ġcon cil
Ġcon text
Ġma d
me u
me di
us o
us crip
Ġj eremias
Ġy ork
Ġen tro
Ġen car
Ġen cy
Ġdi fer
Ġdi vers
Ġdi rei
ol e
Ġna tive
Ġna mes
Ġis p
Ġh und
Ġth ought
Ġal cova
Ġem pl
Ġem br
il s
ed itor
Ġac tos
Ġac anha
Ġpro por
Ġpro var
am ou
Ġpor tu
Ġpor tas
ir ia
Ġha y
Ġha ce
tra ct
Ġfor ces
Ġfor Ã§as
Ġsa e
Ġsa isse
Ġex isten
Ġex pressÃ£o
Ġex istencia
Ġex posiÃ§Ã£o
Ġex quis
Ġbe ber
Ġbe lly
ca dos
ch as
ch ar
vi u
vi dade
vi das
Ġdes tes
Ġdes tas
Ġdes dem
Ġdes van
th ese
ag ens
ag iar
Ġper ra
Ġper su
Ġvi gar
Ġsu je
Ġser ei
Ġser via
co py
um o
la p
Ġco isa
Ġco cadas
Ġver s
Ġver Ã£o
Ġver te
Ġmu e
lh os
ut al
Ġr eno
Ġres pira
pa va
iz o
iz ing
ĠÃ¡ gua
ĠÃ¡ guas
ci ente
ci pa
ci vel
Ġpar ce
Ġli do
Ġli ve
Ġli gas
Ġpo z
Ġpo dendo
Ġ1 1
Ġlo g
Ġintern o
ga ÃŃto
Ġweb master
Ġcomp os
Ġcomp osto
di Ã§Ã£o
di das
Ġle x
Ġle bert
tr ina
Ġmor o
Ġmor tos
Ġfa ir
Ġfa ith
Ġfa ctor
Ġso b
Ġcan ad
Ġcan tos
Ġcan tando
Ġpu p
Ġpu z
Ġpu esta
Ġfal tar
Ġfal aria
Ġim prim
sim o
Ġap os
Ġap plic
Ġap ezar
Ġun til
Ġun less
Ġmo vi
Ġmo dos
Ġmo des
Ġmo rava
Ġmo bile
Ġmo eda
Ġter m
Ġall e
Ġall iados
Ġman ha
Ġman dei
Ġman uscrip
Ġar g
Ġar ri
Ġar ma
Ġar ris
Ġpas t
Ġpas teur
Ġla c
Ġla t
Ġla tin
cia m
Ġcomm it
Ġtra g
Ġtra dition
Ġbo dies
pl iquei
Ġtam anho
ĠvocÃª s
Ġesc rup
Ġpre Ã§o
ig an
Ġmar ie
Ġmar cha
ur os
Ġprim ary
ÃŃ cio
est ou
Ġra ro
Ġra za
Ġne ga
Ġk ings
ah i
Ġcar n
Ġcar inho
Ġcar idade
Ġcor rig
Ġhas ta
ay y
Ġcos ta
Ġcont as
Ġcont ente
rou nd
Ġche ck
Ġfil m
Ġgo al
Ġba ja
Ġba jo
Ġba tia
Ġrec ente
Ġrec usa
Ġrec ently
Ġrec ordar
Ġdu vida
Ġsol d
Ġsol ic
Ġvis se
Ġvel a
Ġacc or
Ġacc om
Ġacc ura
Ġvol tas
Ġother wise
ial s
Ġeng ines
Ġtran qu
ment al
Ġta king
na da
Ġfe itas
Ġfe bres
Ġconf usÃ£o
Ġproject os
Ġdeix Ã¡ra
Ġsome times
Ġro de
Ġro bert
pen d
Ġcu ra
Ġcu ri
Ġcu ido
Ġpergun tas
Ġpres as
Ġpres enÃ§a
Ġthere fore
Ġacab asse
Ġjo ias
Ġjo elhos
Ġtr ombe
Ġau dio
fe itamente
Ġcl ou
Ġcl ub
Ġcome Ã§
Ġcome Ã§ava
Ã´ l
Ã´ res
Ġsi de
Ġesper ou
Ġesper ei
ive d
our se
pro ject
Ġtim idez
Ġentra va
Ġpass es
Ġpass ando
inter net
Ġsan chinha
rib ilho
Ġsenti mentos
Ġcrea tive
Ġcrea turas
Ġknow ing
Ġsta ff
Ġnas cido
Ġvir Ã¡
Ġbr on
Ġsom ew
Ġprofess ionally
pu z
Ġpl um
Ġpl agiar
Ġval ia
Ġval ue
Ġaff eiÃ§Ã£o
Ġwhere as
cha do
ph one
Ġgl ass
Ġcontra cto
Ġmis sion
Ġfran text
Ġri val
Ġwr ites
Ġpassa vam
Ġcontinu ava
Ġpon ho
Ġsou be
Ġsou besse
Ġfir m
her lands
Ġph ras
Ġfl Ã´r
Ġfl ores
Ġtex tos
Ġaf im
Ġaf for
Ġnet s
Ġbon dade
Ġrep entina
Ġtraz iam
com m
Ġmin is
Ġmin utes
Ġmon o
Ġdiffer ente
Ġdiffer ences
Ġsus s
Ġsus pi
Ġsub ir
Ġcommunica ting
Ġfind ing
Ġesti ve
Ġpla ces
Ġconhe ci
Ġbu y
Ġresearch ers
Ġmost rei
Ġaccess ible
Ġsor t
Ġsor te
Ġsor ris
Ġdisc laim
Ġdisc ourse
Ġcent ro
Ġsegu iu
li v
Ġora Ã§Ãµes
Ġst reet
Ġlic Ã§Ãµes
Ġesp al
Ġlemb ro
ord ina
Ġescre vi
ĠfÃ³ r
Ġestar ia
Ġlibra ri
Ġlit erature
Ġsec tions
Ġjun tas
Ġamar re
Ġevery day
Ġsal vo
Ġstar s
Ġanti gos
Ġprodu ced
Ġsur da
we b
Ġend anger
Ġcho ice
Ġreg imental
Ġfamil y
Ġ3 0
Ġach asse
Ġacce pt
Ġacce itei
pi er
Ġve hic
Ġbel ow
Ġimport ante
Ġimport ance
Ġlink ing
Ġbei Ã§os
Ġcorre u
Ġhaver ia
Ġexac to
ap pointed
man da
Ġtro car
Ġstu dent
Ġban al
Ġban ana
Ġdiss era
fi que
Ġfi ght
Ġfec har
Ġfec hava
Ġocc or
Ġform ula
Ġedit ion
Ġcada ver
Ġhap py
Ġdorm ia
Ġado ec
Ġsepa rar
Ġorgan isa
Ġallow ing
Ġsci ences
Ġfei Ã§Ãµes
Ġmedi da
Ġdesc rib
Ġamb as
Ġrom an
Ġpal oma
Ġhon ra
Ġhon tem
Ġamig as
Ġdevelopment s
Ġmajor ity
Ġestre m
Ġestre llas
bil idade
Ġstr eng
Ġru im
Ġfeel ings
tre al
Ġdou trina
Ġhard ly
Ġnego cios
Ġegu almente
Ġpin tura
Ġlab our
Ġbre ak
Ġgi ving
Ġescu ro
Ġama i
Ġlon ely
Ġcommer ce
Ġcuida va
Ġade qu
Ġoffer ing
Ġescol ha
Ġsolu tion
Ġsolu Ã§Ã£o
Ġprogram mes
Ġprogram ming
Ġmanag er
Ġpromo te
Ġagrade ceu
Ġaconte cer
Ġaconte ceu
lan g
Ġold est
Ġspea king
Ġrem or
Ġrem em
Ġremo ved
Ġrefer i
Ġconcer ned
Ġhome opa
Ġdescon fi
Ġelog ios
Ġcut ters
Ġcust ou
Ġsw iss
Ġdeci diu
Ġens inou
Ġdissim ulaÃ§Ã£o
Ġtur n
Ġappr endeu
Ġrepla cement
Ġrelig ioso
Ġran ge
Ġmom ent
Ġfol he
Ġfol has
Ġanim o
Ġsecre ta
Ġsecre tary
Ġexchan ge
Ġcomple ta
Ġcomple tely
Ġterce ira
Ġdescob rir
mur ou
Ġaqu ÃŃ
Ġbl ind
Ġgr ingo
Ġinterrom p
Ġinterrom peu
Ġelse where
Ġmaterial s
Ġaborre cido
Ġadministra Ã§Ã£o
Ġsex o
Ġexcl amou
fica tion
Ġev itar
Ġques tions
Ġwal k
Ġinde x
Ġali Ã¡s
Ġprox imo
Ġsai ram
Ġmur murou
Ġrecon cil
Ġmemor ias
Ġmyster io
bab y
Ġinve jas
Ġcat tete
Ġdiv ino
Ġhy per
Ġrus sos
Ġphys ical
jus tamente
Ġtel ec
Ġeduca tion
Ġeduca tional
Ġcri anÃ§a
Ġpri vate
Ġbene ficio
Ġhim self
ches ter
Ġdesp ezas
Ġperf eiÃ§Ã£o
Ġperdo a
Ġprepar ed
Ġmerec e
Ġincreasing ly
get her
Ġtin ta
Ġrele vant
Ġcompreh en
Ġlep ra
ĠsÃ³s inho
Ġchor ou
Ġrecorda Ã§Ãµes
Ġconser va
Ġbelie ve
Ġheadst ones
Ġadolesc encia
Ġimpossi ble
Ġrecogn ition
Ġaju dar
Ġced er
Ġsto ck
Ġsco tt
Ġmean ing
Ġrequi re
Ġexpan ded
Ġweek ly
Ġrou pa
Ġresul t
Ġliber dade
Ġimpe de
Ġimpe to
Ġpossu ia
Ġadver tis
Ġmetho d
Ġestiver a
Ġexcla maÃ§Ã£o
Ġamea Ã§a
Ġexclus i
Ġagain st
Ġequi p
Ġvent ura
Ġgam Ã£o
Ġrepar tiÃ§Ã£o
Ġrepu gn
Ġretur n
Ġnatura lly
Ġital iano
Ġinteress ante
Ġmod estia
Ġtrav lang
Ġrecebe u
Ġunivers al
Ġbarb eiro
Ġsummar ization
Ġdissimul ada
Ġmelancol ia
Ġaber tos
Ġdelic ios
Ġdedica ted
Ġreb olo
Ġretor qui
Ġnov ember
Ġthre e
Ġemba ixo
Ġhab itual
Ġperre ÃŃto
Ġrespec ted
Ġcance lla
Ġintegra ted
Ġdezese te
Ġlouvor es
Ġschool s
Ġautoma ted
Ġcircum stan
Ġessenti al
Ġsympa thia
Ġdesapparec eu
oper ation
Ã± o
Ġafr ica
Ġcen ter
Ġinda gar
Ġrema in
Ġperman ent
stru cture
Ġrul es
Ġapro ve
Ġlevan tar
Ġsubst itu
Ġintellig ence
Ġabsolu tamente
capit Ãº
Ġobliqu a
rela ted
Ġgram mar
Ġret rie
Ġreminis c
Ġmat ters
Ġvid ro
Ġsubl im
Ġverti gem
Ġcompli ance
Ġarithme ticas
Ġguer ra
Ġvisitor s
Ġcerim onia
Ġobse quio
Ġobst ante
Ġphil osop
Ġchocola te
Ġnewslet ter
Ġhypo these
Ġsacrific e
Ġinev itable
mon treal
Ġtir ou
Ġdun lap
Ġcere bro
Ġole os
Ġfom os
ĠfÃº ria
Ġdegre e
Ġbah ia
Ġconvic Ã§Ã£o
Ġexisten ce
Ġvigar io
Ġescrup ulo
Ġtrombe ta
Ġendanger ed
Ġorganisa tions
Ġstreng th
5 0
7 1
a ca
a ded
a tures
b et
b ul
b ur
b ria
b ble
b ase
b rance
c al
c ca
c lo
c esse
c ers
d g
d ly
d ito
d ge
d ante
d entes
d imento
e e
e to
e lle
f s
f ing
f ri
f il
f eld
g ia
g ido
g Ã¡mos
g ados
g adas
g ene
h Ã£o
i p
i que
i vel
i Ã§Ãµes
i ans
i rie
j un
j ere
k am
l en
l it
l im
l inas
m b
m or
m it
m ul
m ous
m enti
n r
n ect
n els
o te
o ver
o bri
p p
p as
r ene
s in
s or
s ia
s angu
s net
t ha
t te
t ho
t inu
t rei
u es
u ar
u re
u tion
u wer
v il
v ando
v ess
v asse
w ar
w ard
y m
y ah
z ando
Ã ¢
Ġa vi
Ġa po
Ġa Ã§o
Ġa hora
Ġa berto
Ġa onde
Ġt es
Ġt ab
Ġt entar
Ġt antas
Ġt antos
Ġe se
Ġe go
Ġe vol
Ġe ase
Ġe van
Ġd ri
Ġd ry
Ġd ream
Ġc ra
Ġc di
Ġc ig
Ġc iu
Ġc ros
Ġc ens
Ġc iv
Ġo k
Ġo re
Ġo ri
Ġo ito
in i
in ta
in st
in op
in ua
Ġm ando
Ġm ouro
Ġp et
Ġp one
Ġp ist
Ġp ido
Ġp ide
Ġp sy
er t
Ġs un
Ġs ina
Ġs pr
Ġs let
Ġs liver
Ġs pend
ra mos
ra ge
ra structure
es h
es as
es ia
es ter
Ġn u
en es
en ri
en ds
en cy
as Ã£o
os t
os hi
Ġqu ant
Ġqu antas
Ġqu antos
Ġf ing
Ġf Ã¡
Ġf la
Ġf ere
Ġf ix
Ġf lo
Ġf ico
Ġf Ã´
Ġf itou
Ġf itava
Ġf ixa
is ar
is tes
ar es
ar ed
on to
on ies
Ã£ es
an ear
Ġde ta
Ġde ep
Ġde itei
Ġde itado
Ġde bu
it re
it ic
it ut
it ish
it ical
it ely
re ch
re ds
Ġque ix
Ġl inha
Ġl mb
Ġthe oria
Ġthe at
om et
Ġv ing
Ġv Ã¡s
Ġv anta
Ġv estia
Ġb ul
Ġb ed
Ġb oun
Ġb eira
Ġb low
Ġw ha
Ġw at
ia ted
do b
ha m
ha ar
ha dor
Ġin j
Ġin n
Ġin t
Ġin im
Ġin tu
Ġin cer
Ġin teiro
Ġin gen
Ġin side
em po
ti ce
ti ma
ti mo
te ver
Ġan te
Ġan ec
Ġan ima
Ġan gel
Ġan dei
Ġan ony
ll ed
Ġcom quanto
Ġcom poz
Ġcom tudo
ta i
ta dos
ta tional
ta bility
da ia
da ted
im as
Ã© a
Ġme ant
se d
se gu
de z
Ã§ Ã¡
Ġto ca
Ġto ok
Ġto wn
Ġto gether
Ġes to
Ġes ter
Ġes tr
Ġes pre
Ġes toy
Ġg an
Ġg ru
Ġg eito
Ġpa is
Ġpa ul
Ġpa ga
Ġpa ying
Ġas si
Ã¡ n
Ã¡ gua
Ġre ti
Ġre ver
Ġre for
Ġre por
Ġre ven
Ġre dar
Ġre itor
Ġre cado
Ġre duz
Ġre pliquei
Ġi i
Ġi rei
Ġi remos
Ġou Ã§o
Ġno bre
el ds
Ġca ther
Ġca bel
Ġda tas
Ġcon v
Ġcon ver
Ġcon tro
Ġcon ju
Ġcon ego
Ġcon nect
Ġma j
Ġma u
Ġma x
Ġma to
Ġma ma
Ġma estro
Ġma mi
me do
me ira
us ias
us ado
ĠÃ© s
Ġy oshi
ri l
ri us
ri dÃ£o
Ġen f
Ġen h
Ġen sa
Ġen th
Ġen cos
Ġen cou
Ġen che
Ġen rich
Ġen viu
Ġdi al
ent ou
et os
et ary
res earch
ce i
ce ption
Ġna tions
Ġna quelles
ul p
Ġh un
Ġh ers
Ġh ours
Ġh enri
Ġth r
Ġal go
Ġal ong
Ġal tura
Ġem er
Ġem bra
Ġem pire
il d
il o
Ġera s
ed s
Ġac o
Ġac t
Ġac Ã§Ãµes
Ġac red
Ġpro cu
ver si
ver age
Ġpor ia
Ġpor to
Ġpor quanto
Ġpor tÃ£o
ir ro
Ġit agu
Ġon ze
Ġha vel
Ġha cer
sa y
sa do
sa ch
le ar
Ġsa ias
Ġsa cer
Ġsa gra
Ġsa imos
Ġsa bat
Ġex ter
Ġex press
Ġbe at
Ġdes en
Ġdes sa
Ġdes Ã§o
Ġdes pre
Ġdes gra
Ġdes cre
Ġdes ast
Ġdes cu
Ġdes ire
Ġinter ven
Ġdis sem
Ġper n
Ġper dia
Ġper feito
un ci
un has
Ġvi ra
Ġvi veu
Ġsu ff
Ġsu gar
per feitamente
Ġpr ice
po int
oc ra
oc ente
Ãº s
Ġser Ã£o
Ġser ve
Ġser ver
Ġser ies
Ġser vers
Ġser eno
Ġam o
Ġam ant
co Ã§o
Ġat ordo
Ġat rope
Ġcapit al
ad ores
... _
Ġco g
Ġco queiro
Ġver gonha
que te
Ġmu er
Ġmu jere
Ġr Ã©
Ġr ico
Ġres istencia
pa ul
pa per
iz es
ci ante
ci Ã³n
Ġpar o
Ġpar tirte
ten haar
Ġpo or
Ġpo ema
Ġlo w
Ġintern al
mo do
ras s
Ġcomp e
Ġcomp il
Ġcomp rou
Ġcomp ens
Ġcomp rei
Ġcomp let
Ġcomp ared
Ġab re
ab a
tr ia
gh ter
Ġmor ria
Ġho vy
Ġor gulho
Ġtem per
Ġtem ores
Ġcan Ã§Ã£o
Ġcan Ã§a
Ġcan tava
Ġcan dy
Ġcan Ã§ado
Ġpu der
Ġfr ia
Ġpe ter
Ġpe go
Ġpe gava
Ġfal tava
Ġfal asse
ill as
tes se
Ġim ped
Ġap ar
Ġap re
Ġap res
Ġun icamente
Ġun cle
Ġsen ding
Ġlong os
Ġmo ther
Ġmo ving
Ġmo raes
Ġter Ã£o
Ġter ras
Ġman sa
Ġman gas
ts ie
Ġar ro
Ġar rene
Ġpas mado
Ġla ia
Ġla te
Ġla deira
Ġla test
Ġla daia
Ġgu n
Ġfu me
Ġtra p
Ġtra tar
Ġbo y
Ġbo ard
Ġbo dy
Ġch ita
Ġch all
Ġcasa do
Ġpre go
ant ing
tic os
tic ul
ur ia
Ġprim arily
ÃŃ n
est ribilho
ust re
Ġcre ia
Ġest ando
Ġk i
Ġk ing
Ġk ill
Ġk ids
ah y
ita da
Ġcar d
bl ish
Ġcor rendo
Ġva go
Ġva cca
Ġpos ition
Ġia go
Ġpra tica
via m
Ġcont os
Ġcont al
Ġche ios
Ġche gava
Ġfil es
si vo
Ġ2 6
ich igan
Ġba ix
Ġba pt
Ġba ile
Ġba ixa
Ġba char
Ġba irro
Ġrec or
Ġrec om
Ġir r
Ġir mÃ£
Ġsol ta
Ġsol ve
Ġacc ordo
Ġacc endeu
Ġad vent
Ġad dition
Ġad vantage
Ġmal icia
Ġide a
Ġide al
Ġeng ine
Ġel snet
Ġpou de
Ġpou pa
Ġpou cas
ba ra
Ġti rasse
por que
Ġta qua
Ġped ido
Ġfe ia
Ġfe ll
Ġfe atures
Ġconf un
Ġconf id
Ġconf essa
Ġconf issÃ£o
Ġdeix o
Ġvo ice
pec tiva
Ġro om
Ġro da
Ġro emos
ida mente
pen nsylvania
tas sem
Ġcha ves
Ġcha mado
Ġcha pÃ©
con tinu
Ġpergun te
Ġpergun to
Ġ* *
Ġpes coÃ§o
Ġpres ence
Ġtrans cre
Ġcabe llo
Ġjo gando
Ġtr end
Ġtr ying
Ġtr Ãªs
Ġtr inta
Ġtr istes
olog ical
fr ench
Ġau gment
fe itos
tos o
Ġcl os
Ġcl one
Ġcl ass
Ġmos es
Ġgos tei
Ġgos tando
Ġgos toso
Ġeste ve
cre io
Ġsi empre
Ġsi rius
Ġinst ance
Ġverdade iras
Ġexpl ico
ura l
âĢ ħ
Ġexper iment
Ġfic ando
Ġfic asse
use d
Ġentra ndo
Ġcal ou
Ġcal ix
Ġoutros im
Ġtec to
inter national
Ġsta tion
Ġcompu tational
Ġtransla ting
ck ne
Ġdef ine
anÃ§a do
Ġcompan heiro
Ġcompan heiros
ĠestÃ¡ s
Ġbr itish
Ġsom no
pu blished
Ġpl us
Ġpl anting
Ġval u
Ġval eu
Ġaff ei
Ġliv ing
Ġgl oss
Ġcontra ct
Ġce deu
Ġmis ta
Ġmis ter
Ġmis sing
Ġfran co
itu des
refr Ã¡n
Ġdar Ã¡
Ġcommun ity
Ġcommun ities
Ġlu zes
Ġpon te
Ġsou th
Ġsou ber
Ġfir ms
Ġfl ight
ance i
Ġbas tou
Ġbas taria
Ġcam inha
Ġtex tual
Ġdom in
Ġlingu ists
Ġmet teu
Ġlev antei
ada mente
Ġdiffer ence
Ġprop rias
Ġchan ges
Ġchan nels
Ġdig amos
Ġven ir
Ġpossi veis
vis ed
Ġtor na
Ġins inu
Ġins iste
Ġreal ity
Ġreal idade
Ġconhe ce
Ġconhe ceu
Ġag ents
Ġbu bble
Ġbu ckne
Ġinf rastructure
Ġtom o
Ġtom ei
Ġtom ando
ino is
Ġenten do
Ġenten da
Ġenten de
Ġenten di
Ġenten dido
Ġpens asse
Ġwrit ers
ped ia
Ġqui Ã§Ã¡
Ġdeba tes
gan ta
Ġulti mas
Ġsegu ra
Ġga me
Ġga ve
Ġga ther
Ġga uc
Ġgen io
Ġju rei
Ġeff ici
Ġeff ective
Ġesp elho
Ġpequen ino
Ġlemb rando
Ġesquec ido
Ġvei o
ima te
Ã¡s inha
Ġtre z
Ġtre padas
Ġlibra ries
esta de
Ġoffic ios
Ġsec tor
Ġamar issimo
Ġmil ag
Ġhavia mos
Ġris k
Ġraz Ãµes
Ġconsul tar
Ġconsul ting
Ġsal va
Ġves tir
Ġprodu cers
Ġsent ence
enta tion
ĠmÃŃ rame
Ġanda vam
sel ves
Ġreg ional
Ġtorn ar
Ġ3 1
Ġpart ners
pi Ã£o
Ġlet ras
Ġquar ta
Ġlink ed
Ġmater ias
Ġdirec tions
Ġexam inar
Ġdese j
Ġdese jos
mail s
Ġhaver Ã¡
Ġexac ta
Ġexac tamente
Ġimper io
Ġpassar inhos
Ġcin tura
Ġcin ema
Ġestu dante
Ġrel Ãª
Ġfi elds
Ġfec ha
pla in
pla ce
Ġaper tando
Ġmi kam
Ġsc an
Ġfun da
Ġconclu ir
Ġtrabal hava
Ġglobal ink
Ġado p
Ġado ravel
Ġmus ical
Ġtoo tsie
Ġnoti ce
Ġescrip ta
Ġhel en
Ġhel ps
Ġatra vess
Ġfei Ã§Ã£o
Ġrom p
Ġrom per
Ġfug ia
Ġexplica Ã§Ãµes
Ġfar Ã¡
Ġaman heceu
Ġinstitu tions
Ġopin ion
Ġlen tamente
Ġvar ias
Ġconse lhos
Ġestre la
Ġplan os
Ġdev oro
tam ento
Ġpropos als
Ġdesco ber
Ġdesped iu
Ġcolle ga
Ġru idos
Ġbusiness es
Ġhuman ity
Ġcol or
Ġcol um
Ġopera ting
Ġretra tos
Ġconta cts
Ġhard ware
Ġpasse d
Ġpasse ar
Ġvag a
Ġvag as
ĠsÃ© rio
Ġdem and
Ġdem ocra
Ġdocum entation
Ġexp ect
Ġescu tava
Ġdra w
Ġlon go
Ġinteres ts
Ġguar da
Ġcommer cio
Ġcuida do
Ġdiffic il
Ġbeij ava
Ġkeep ing
Ġeter nidade
Ġput Ã£o
Ġfin ancial
Ġanal y
Ġanal itica
Ġsegre dinhos
Ġembar que
Ġobri gado
Ġergu ia
Ġgovernment s
Ġty pes
Ġty ler
Ġencon trei
Ġprac tice
Ġagrade Ã§o
Ġnor te
Ġremo ve
Ġrefer ence
Ġrefer ences
Ġconcer ning
Ġdescon he
Ġdescon fia
Ġrespos tas
Ġfacil mente
Ġfacil idade
Ġfacil ities
Ġoriginal ly
Ġear th
Ġelog io
Ġdeci de
Ġdeci dir
Ġdevo raria
Ġbri lha
Ġbol as
Ġexten sion
Ġdissim ular
Ġaba f
Ġaba ixo
Ġcham bers
Ġpromet ti
Ġpromet to
Ġrepla ced
ex tract
ĠâĢ ¢
Ġfer ida
Ġanim ou
Ġcaet anear
Ġhigh ways
Ġalter n
Ġalter na
Ġorden ado
Ġpeda Ã§os
Ġfigu ras
Ġdescob ri
Ġdescob riu
Ġlos s
omm unications
Ġwon der
Ġgr ito
Ġger ar
ĠsaÃŃ am
Ġperio d
Ġadd ress
Ġrepet indo
Ġrepet iam
Ġaborre cer
Ġstandard s
Ġcatalo g
Ġaz as
Ġtele vision
Ġder re
Ġchora r
Ġmic ro
Ġpan egyrico
Ġpan cada
Ġsign ific
ass emos
Ġsex ta
Ġtotal ly
Ġjura r
Ġacompan har
Ġatt itude
Ġtravel ers
Ġduvi dar
Ġtry na
Ġbrin ca
Ġbrin car
Ġbrin cava
Ġev ents
Ġdim e
Ġmol esti
Ġquis er
Ġwo ah
Ġwal ks
Ġinde ed
Ġpade cer
Ġhes itou
Ġprox ima
Ġparti ally
Ġteim ava
Ġteim asse
Ġapparec ia
Ġapparec eu
Ġmov ement
Ġmov imento
Ġmov imentos
Ġprefer ia
Ġrap ido
Ġrap ida
Ġrap id
Ġcare fully
Ġconfir mou
Ġmemor ials
Ġsearch ing
ĠÃ³ dio
Ġras os
Ġras gos
ĠcÃ³ r
ĠcÃ³ mo
Ġstra in
Ġoff ers
Ġesque Ã§o
Ġcat hol
Ġemo Ã§Ãµes
Ġacostu ma
Ġdisfar Ã§a
Ġrus sia
Ġlea ve
Ġregis ter
Ġregis ters
Ġsugges ted
au thor
cul tural
Ġaim s
Ġobede ci
ĠquÃ© date
Ġbrow ser
Ġbene fit
tex ts
Ġtow ards
Ġrepro du
Ġhor ror
Ġperal tas
Ġservi Ã§o
Ġservi Ã§os
Ġmessa ges
Ġtalk in
Ġjoven s
Ġdigit ization
Ġdigit ized
Ġeditor ial
Ġopportun ities
Ġati rar
Ġspe ech
Ġfina do
Ġwindo w
Ġench ia
Ġenco berto
Ġdir Ã¡
Ġhar t
Ġcompet ition
Ġcompet itive
Ġabri l
Ġescra vos
Ġrecu ar
Ġrecorda Ã§Ã£o
Ġconfus o
Ġconfus as
Ġcru el
Ġobser vou
Ġdiscus sion
Ġdiscus sions
Ġconstant ly
Ġconstant inop
Ġautor idade
Ġencontra r
Ġadiv inh
languag es
Ġquad ro
Ġinven tion
Ġmeet ing
Ġregu la
Ġrevel ou
Ġacredit ar
Ġacredit ei
Ġliber al
Ġleg ally
Ġleve i
Ġord ens
Ġcorrec t
Ġtechnolog ical
Ġinscrip tion
Ġinscrip Ã§Ã£o
Ġconsegu i
Ġreflect ia
Ġreflect indo
Ġsuperla tivo
Ġsuperla tivos
Ġvolunte er
Ġsha ke
Ġfri ends
Ġlan ces
Ġgar ganta
Ġgam es
Ġconven ient
Ġnatura es
cova do
Ġsemelh anÃ§a
Ġcoll ab
Ġcompl ica
Ġimpa ciencia
Ġimpa ciente
Ġimmedia te
Ġapr ender
Ġapag ou
Ġlap idar
Ġsuppon ha
Ġconsequ encia
Ġescap ei
Ġjournal ist
Ġada p
Ġavis o
Ġtest em
Ġshar e
Ġwide ly
Ġesfor Ã§o
Ġesfor Ã§os
ĠcaÃŃ am
Ġjaz z
Ġentire ly
Ġdiver tir
resse cou
Ġdesig ns
Ġperform ance
Ġcompri do
Ġfron t
Ġchu va
Ġprepa raÃ§Ã£o
Ġpredic t
Ġconsum ers
Ġroyal ty
Ġpreser ving
Ġpresil ha
Ġpresil has
Ġphenom en
Ġphenom eno
Ġbusc asse
Ġespecta culo
Ġdesfaz er
bas ed
Ġmid dle
Ġple ase
Ġfres ca
Ġdeter min
Ġwin chester
Ġinci dente
Ġann uncia
Ġdama ges
Ġnamo rar
Ġalpha bet
Ġemen dar
Ġfortal eza
Ġdestr u
Ġdisco vered
ĠprÃ³ pria
Ġcot ton
Ġrum or
Ġapan har
Ġengan ar
Ġcopyri ghts
Ġgradua te
Ġassom bra
Ġinsist isse
Ġconsultan cy
Ġapprox im
Ġmetap hora
Ġreason able
ĠdÃ© sse
Ġcit iz
Ġcum pre
Ġempres ta
Ġacadem ic
Ġresta bel
Ġpod emos
Ġinstrum ental
Ġmonum ento
Ġbull et
Ġgrea ter
Ġbrother s
Ġreligios os
Ġstrateg ic
bru ary
kno wn
Ġdecl arou
Ġintro du
Ġastron omia
Ġcavall eiro
Ġency clo
Ġdifer ente
Ġhund reds
Ġempl oy
Ġembr ul
Ġportu gu
Ġdesdem ona
Ġdesvan ecimento
Ġpersu asÃ£o
Ġsuje ito
Ġparce iro
Ġcanad ians
Ġpup illas
Ġarris car
Ġlac un
Ġaccom mo
Ġcuri oso
Ġclou tier
Ġplagiar ism
Ġphras es
Ġsuss ur
Ġsorris o
pier re
Ġdescrib ed
Ġremor so
Ġremem brance
Ġtelec ommunications
Ġscott ish
Ġrequire ments
Ġretorqui u
Ġcircumstan cias
Ġgrammar s
Ġreminisc encias
gene va
lit erature
nr s
sangu ine
Ġevan gel
Ġciu me
Ġcros ses
Ġore lhas
inst itut
Ġpist on
Ġspr ing
Ġslet tenhaar
ĠfÃ¡ cil
Ġdebu xo
Ġtheat re
Ġvanta gem
Ġwha tever
Ġingen u
Ġanec do
Ġester linas
Ġcather ine
Ġenth usias
Ġenviu vou
Ġhers hey
Ġembra zando
Ġitagu ahy
Ġsacer do
Ġsabat ana
Ġdesast re
Ġinterven Ã§Ã£o
Ġdissem ination
Ġsuff ici
Ġbachar el
Ġtaqua ra
ĠchapÃ© o
Ġgloss ary
Ġbubble gum
Ġbuckne ll
Ġgauc hey
Ġmikam i
Ġmolesti as
Ġconstantinop la
! _
) :
. ).
0 70
1 4
1 8
1 9
5 7
: --
? "
? )
? ...
a o
a ic
a qui
b t
b os
b or
b ia
b ly
b ut
b ido
b ana
c ter
c di
c Ã§Ãµes
c ura
d al
d Ã¡
d Ãª
d ulo
d den
d ouro
d ona
e a
e f
e h
f o
f ra
f re
g or
g na
g indo
g osto
g ely
g get
g round
h in
h on
h inha
h Ã¡ra
i b
i gu
i ando
i versity
i vas
i Ã³n
i fied
j ando
j osÃ©
k a
k et
k ed
k ind
k ely
k ele
k reyol
l as
l ou
l ing
l idade
l ines
l embra
m is
m al
m ine
m ies
m ary
m ission
m ana
m ely
n Ã¡
n st
o im
o ffic
p to
p ri
p ei
p ito
p ido
p Ã³s
p Ã´r
p Ã´l
r us
r inho
r era
r Ã¡s
s r
s al
s te
s to
s ul
s ina
s ers
s ua
t to
t Ã¡
t inha
t ts
t Ã´
t ise
t land
u res
u ando
u ga
u fra
v em
v et
v io
v ement
w o
w ho
w hat
w ers
w ord
w eg
w uh
x e
x es
y n
y ou
y lo
y ram
z y
z z
z en
z em
z inha
z ero
Â ¡
Ġ ;
Ġ ]
Ġ ze
Ġ rib
Ġa ra
Ġa ri
Ġa ir
Ġa pa
Ġa ves
Ġa jo
Ġa ware
Ġa quellas
Ġa ventura
Ġa verage
Ġt us
Ġt Ãª
Ġt ard
Ġt rib
Ġt ours
Ġe y
Ġe val
Ġe gy
Ġd ul
Ġd itas
Ġd Ã´res
Ġd yn
Ġc ity
Ġc olo
Ġc ulo
Ġc unha
Ġc Ã£es
Ġc lear
Ġc nrs
Ġo x
Ġo ck
Ġo lho
in ning
in adas
Ġm ent
Ġm Ã³
Ġm um
Ġm oun
Ġm dg
Ġp it
Ġp Ã£o
Ġp ia
Ġp ir
Ġp io
Ġp ran
Ġp ant
Ġp ira
Ġp ous
Ġp Ã´
Ġp ush
Ġp Ãµe
Ġp iedade
Ġp df
Ġp yram
er ic
er po
er che
er blo
Ġs k
Ġs le
Ġs la
Ġs lo
Ġs igo
Ġs ources
Ġs ester
ra el
ra dos
ra uwer
es to
qu ec
qu ed
qu Ãª
qu eza
qu illo
qu ality
Ġn up
Ġn outro
Ġn ym
en ess
en cial
as h
as ure
he u
he ira
he cer
Ġqu it
Ġqu ente
Ġqu ie
or i
or y
or ei
Ġf on
Ġf us
Ġf io
Ġf ad
Ġf ish
Ġf ita
Ġf eira
Ġf ino
Ġf lex
Ġf itavam
Ġf iquemos
is i
is tiu
ar re
ar em
on os
on ing
on ly
on co
an y
an or
an hÃ£
Ġde do
Ġde mas
Ġde dic
Ġde vesse
Ġde li
Ġde teve
Ġde manda
Ġde feitos
it utes
re a
Ġque da
Ġque ixo
Ġl el
Ġl ed
Ġl ei
Ġl vi
Ġl Ãª
Ġl and
Ġl ind
Ġl entes
Ġl isten
Ġl ustre
ou tes
al and
al ities
Ġv ital
Ġv inc
Ġv ice
Ġb Ã¡
Ġb ir
Ġb and
Ġb igo
Ġb oss
Ġw i
Ġw id
Ġw are
ia da
ia mente
ia ble
do log
ha ha
ha ver
Ġin for
Ġin dia
Ġin con
Ġin esper
Ġin cor
Ġin cons
Ġin gle
em pla
em ora
Ġu k
Ġu til
ti o
ti dÃ£o
ti ane
ti fs
te e
te lle
Ġan do
Ġan to
Ġan ton
Ġan glo
Ġcom ia
Ġcom ing
Ġcom for
ta ram
ta gon
im en
im ente
im um
im ina
im ents
im min
Ã© n
Ã© vel
Ġme l
se t
ic ias
ic ally
ic king
ic ited
ic ks
de ada
Ã§ Ã³
Ġse la
Ġto co
Ġto ler
Ġto chas
Ġes o
Ġes pon
Ġg ro
Ġg all
Ġg era
Ġg az
Ġg eral
va gem
Ġpa z
Ġpa th
Ġpa iz
Ġpa ci
Ġpa ck
Ġpa ys
Ġpa zes
Ġpa tern
Ġpa quete
Ġand rew
Ġas t
Ġas ia
Ġas per
Ġas ÃŃ
Ġas sas
Ġas pect
Ġas haver
ter min
Ġre d
Ġre is
Ġre de
Ġre ch
Ġre du
Ġre forma
Ġre cl
Ġre pre
Ġre li
Ġre tros
ec tir
ec tric
Ġi da
Ġi lo
Ġi dent
Ġdo ia
Ġdo Ã§
Ġdo eu
Ġdo zen
ho je
Ġno ra
Ġno tion
Ġno tes
Ġno vos
Ġno body
Ġno vidade
Ġca use
Ġca oim
Ġda da
Ġcon te
Ġcon ve
Ġcon for
Ġcon du
Ġcon cent
Ġcon gress
Ġma tava
Ġma du
Ġma gn
me t
us os
us ion
ĠÃ© l
ĠÃ© ramos
Ġj er
Ġy ale
ri dade
ri dos
ri vel
ri ft
Ġen di
Ġen ab
Ġen tr
Ġen vel
Ġen fe
Ġen jo
Ġen vis
Ġen fim
Ġdi ed
Ġdi alo
ol ina
ol icited
ent as
et ano
ce ta
ce ano
ve iu
Ġna tion
Ġna dar
Ġna val
Ġna ufra
Ġis land
Ġis rael
ma y
ul e
ul ei
Ġh ind
Ġh oney
Ġh ull
Ġth ir
Ġal t
Ġal co
Ġal imente
Ġem pen
il es
il ame
Ġ( Â¡
ed ia
Ġac has
Ġpro vision
ver a
ver y
am o
am entos
am anhÃ£
Ġpor Ã§Ã£o
Ġpor tanto
Ġmas sin
ir ing
tu osas
go a
go ing
Ġon da
Ġon going
Ġha ja
Ġpara s
Ġpara do
Ġpara va
Ġpara ram
Ġpara nÃ¡
tra cts
Ġfor ce
Ġfor tes
Ġfor ever
Ġfor ward
Ġsa w
Ġsa io
Ġex al
Ġex ag
Ġex istir
Ġex prim
Ġbe b
Ġbe Ã§a
Ġbe be
Ġbe llo
Ġbe llos
ca vam
ca etano
ch os
ch ou
ch ia
vi al
vi ve
vi Ã§Ã£o
Ã³ is
Ġdes k
Ġdes l
Ġdes er
Ġdes le
Ġdes tro
Ġdes ses
Ġdes enho
Ġdes ciam
Ġdes menti
Ġdes gosto
Ġinter con
Ġinter ino
Ġinter rup
Ġinter loc
Ġinter veiu
th rough
ag a
ag es
ag em
Ġdis fr
Ġper da
Ġper for
Ġper eira
Ġper dido
Ġper pet
Ġper segu
un o
un iversity
Ġcap a
Ġcap e
Ġcap rich
Ġcap sul
Ġvi er
Ġvi ll
Ġvi ve
Ġvi vi
Ġvi ga
Ġvi ram
Ġvi vesse
Ġvi essem
Ġvi vemos
ly ing
Ġsu id
Ġsu eno
Ġsu dden
per son
per dÃ£o
per tise
Ġpr os
Ġpr ome
Ġpr ender
Ġpr endia
Ã§a dos
Ġser vo
Ġser ved
Ġser ious
Ġam pa
Ġam ua
Ġam ount
co tt
Ġat ou
Ġat ta
Ġat tra
Ġat lan
Ġat rÃ¡s
Ġcapit ulos
Ġcapit olina
um inar
Ġsem i
Ġco ca
Ġco berto
Ġco ordina
Ġco operation
Ġver m
Ġver de
Ġver Ã¡
Ġver mes
Ġmu i
Ġmu dado
Ġmu Ã©vel
st ancia
ess ment
ess emos
ess uras
lh ou
Ġcas ou
Ġcas ti
Ġcas ando
Ġcas ados
ut or
ut ing
ut rech
Ġr Ã£
Ġr ough
Ġres ource
Ġres urrei
Ġres umo
pa go
ci es
ci ous
ten ho
Ġli e
Ġli ght
Ġli bre
Ġli gado
Ġli vida
Ġtu as
tar uga
Ġpo ints
Ġpo esia
Ġ1 3
Ġ1 6
Ġfo go
Ġlo gra
Ġlo vely
Ġintern un
ga te
ga torio
Ġcomp or
Ġcomp on
Ġcomp rar
Ġcomp uting
Ġab oto
for d
for tuna
di Ã§o
di ers
anguag es
ab ly
Ġle vo
Ġle gado
Ġle ft
Ġle itura
Ġwh om
Ġmor re
Ġfa da
Ġfa cto
Ġfa cial
Ġho bl
Ġho tel
Ġso ou
Ġtem ente
Ġpu ll
Ġpe gam
Ġpe gasse
Ġpe gaÃŃto
Ġfal o
Ġfal tou
der s
Ġte lly
Ġte imos
dos o
Ġim pres
sim a
Ġap ol
Ġap onta
Ġap pla
Ġap ril
Ġun o
Ġun res
Ġun fortuna
pe bras
Ġsen eca
Ġsen horas
Ġmo ra
Ġmo di
Ġmo veis
Ġmo delo
Ġter Ã¡
Ġter Ã§a
Ġter iam
ix el
Ġman o
Ġman if
tava m
du as
Ġar gu
Ġar ras
Ġar mas
Ġar vor
Ġar chan
Ġar mies
Ġpas sion
Ġla pa
Ġla Ã§o
Ġla zer
Ġla tter
ff rey
Ġgu a
Ġcomm and
Ġtra ve
Ġtra ba
Ġtra fic
Ġtra tei
Ġtra tado
Ġtra ining
Ġtra ffic
Ġbo w
Ġbo tas
Ġbo telle
Ġbo ceta
pl ing
pl ied
vel anguages
Ġch ina
Ġch ine
Ġch ie
Ġch ance
Ġch oro
Ġch ris
ke o
Ġquer ida
Ġesc as
Ġesc an
Ġesc rava
Ġesc ulp
Ġent ity
ther n
Ġpre ten
Ġpre tas
Ġpre cip
Ġpre gui
lo aded
Ġmar es
Ġmar te
Ġmar cado
ur ou
ur ity
ur sos
ava ilable
no w
ÃŃ cia
ÃŃ vel
ÃŃ lia
Ġhe ld
est ina
Ġbut ton
Ġmul ata
ect os
Ġra b
Ġra ra
Ġra re
Ġra io
Ġra cio
Ġra ises
Ġra gget
Ġcre dor
Ġest al
Ġest ylo
Ġne g
Ġne gar
Ġne llas
Ġne gou
ria m
Ġk en
Ġk ni
Ġk rauwer
ira r
ira ble
ita Ã§Ãµes
op ol
Ġcar go
Ġcar ries
Ġcar ved
Ġcar ne
Ġcar icias
Ġcor e
Ġcor da
Ġcor covado
Ġnot as
tor ies
Ġva z
Ġva es
Ġva ras
Ġpos a
Ġpos s
Ġpos iti
Ġcos tura
Ġcos ido
Ġpra ta
Ġpra zo
Ġpen dente
Ġpen tagon
Ġcont asse
Ġcont inua
Ġcont empla
Ġche go
Ġche gue
Ġche ek
Ġche gam
Ġche gÃ¡mos
Ġfil e
Ġfil hos
Ġgo ods
ias se
Ġmen in
Ġmen inas
eu rope
si ghted
Ġtal ento
Ġtal king
Ġ2 8
Ġ2 9
Ġ2 00
Ġcop ia
Ġba ra
Ġba ter
Ġba ilar
Ġba tendo
Ġrec to
Ġmulti plic
Ġir ish
Ġdu ro
Ġdu zia
Ġsol tar
Ġsol ved
Ġsol dado
Ġsol diers
Ġvis te
Ġvis inhas
Ġvis itar
Ġvis inhos
Ġvis iting
ous ly
Ġvel h
Ġpad rinho
Ġacc ents
Ġacc ord
Ġacc orda
Ġacc ount
Ġvol tado
Ġvol tÃ¡mos
Ġ199 3
bo ard
Ġeng ano
oun ds
Ġti ro
Ġti rei
Ġti ju
Ġti empo
ist an
Â» ;
Ġta c
Ġta ken
na tural
na ile
pon Ãªs
Ġsim ilar
Ġgra ci
Ġfe itos
Ġfe bruary
Ġdeix al
Ġdeix ando
Ġdeix avam
Ġsome body
Ġvo id
Ġro le
Ġro berto
Ġdon naile
Ġcer tos
Ġcer rava
Ġcha ve
Ġcha mei
Ġcu jo
Ġcu ides
Ġcu erpo
Ġsab ido
con ce
Ġany time
ico graph
Ġpres o
Ġpres sa
Ġpres ente
Ġacab o
Ġacab ando
Ġacab ado
Ġcabe Ã§as
Ġcabe llei
pan has
cis o
cis es
Ġquiz essem
Ġjo go
Ġjo gava
Ġjo ined
Ġtr unca
Ġtr ue
Ġtr onco
ac ho
Ġten d
ces a
fr om
Ġmos aic
Ġgos tar
Ġmelhor es
Ġcome Ã§a
cre to
cre ator
Ġesper asse
Ġpodia mos
Ġinst ant
Ġinst itutes
Ġcr Ãª
ĠpÃ³ des
Ġexpl os
Ġexpl or
Ġexpl ora
ura i
Ġob ject
Ġprin ce
Ġprin cesa
Ġfic Ã¡ra
pro tonotario
use tts
Ġouvi ram
Ġwebs ter
Ġjan ela
Ġentra do
Ġentra ram
Ġcal ma
Ġcal ados
Ġcal culo
Ġcal cul
Ġsan gre
Ġsenti u
Ġsenti dos
Ġcrea Ã§Ã£o
Ġcrea tor
Ġknow s
Ġsta tions
ck en
Ġnas ci
Ġdef ect
Ġdef ective
Ġcompan heira
Ġtar dia
Ġvir ia
Ġvir gem
Ġbr ings
Ġbr isa
Ġbr uno
Ġsom os
Ġsom bras
ast y
Ġfalar Ã¡
pr r
pr u
pr ise
Ġpl ural
ie ve
Ġdist ingu
Ġfiz emos
cha ble
val ent
za do
Ġcontra ria
ide lidade
Ġop inar
Ġmis mo
Ġmis sas
Ġri dic
Ġx viii
Ġlu ci
Ġesqu ina
Ġsou l
Ġsou thern
Ġelectronic ally
Ġthem selves
Ġbas is
Ġbas tar
Ġcam ar
Ġcam panhas
Ġdom ina
Ġdom inava
Ġnet herlands
Ġbus to
Ġbus cando
Ġbus quei
Ġass isted
Ġass essment
Ġbon itas
Ġbon itos
Ġmet ta
Ġmet tido
Ġmet tel
Ġmet tesse
Ġref utal
Ġlev anta
Ġcur ou
Ġcur to
Ġcur tos
Ġmon tar
Ġmon toy
Ġvia jar
Ġvia gens
Ġrespon dia
Ġprop he
dem a
dem n
ru gada
Ġsus pira
Ġbra ile
Ġbra dava
Ġdig as
Ġdig am
Ġdig no
Ġven ho
Ġven eno
Ġsub ia
Ġson hei
Ġson etos
Ġfre qu
Ġwould n
Ġperson ally
Ġperson agens
Ġpossi bilidade
at ment
mar ket
vis simo
ens Ãµes
Ġins istir
Ġconhe Ã§o
Ġimag es
Ġimag inando
Ġlembra vam
Ġag onia
rei ro
Ġges ture
tain s
Ġresearch er
Ġmost ly
Ġprofessional s
Ġtom a
Ġtom am
Ġcul padas
Ġenten dia
Ġenten deu
Ġsor ria
Ġdisc rim
Ġuni que
Ġuni form
Ġcent ury
Ġover come
Ġsegu ir
Ġsegu ido
Ġga i
Ġga ined
Ġgen u
Ġgen ero
Ġju remos
Ġju izo
Ġdevelop ing
tiv ity
Ġesp anto
Ġesp iar
Ġesp iava
Ġlemb ras
Ġesquec era
Ġvei lle
Ġescre vel
Ġescre veu
Ġprincip le
Ġtre ze
Ġtre anor
Ġdor es
Ġestar Ã¡
Ġestar iam
Ġoffic ers
Ġsec ca
Ġsec ulo
Ġsec urity
Ġamar go
graph s
graph ic
Ġmil es
Ġmil har
Ġmil hÃµes
Ġhavia m
Ġconsul tou
Ġsal var
Ġstar ting
Ġsur fing
Ġsur vive
enta Ã§Ã£o
enta tions
Ġmade ira
Ġer ros
Ġer nst
Ġsho ck
Ġcara cter
Ġdid n
Ġcho via
Ġcho ose
Ġanda do
Ġreg ions
rig as
Ġcoun ter
Ġtorn ando
Ġtorn avam
Ġfamil ias
Ġouv imos
Ġach aria
Ġach ieve
Ġacce itar
Ġacce itou
Ġpart itura
Ġnecess aria
Ġnecess ario
Ġnecess arily
pi das
Ġlet ter
Ġve o
Ġbel gi
Ġrepe tir
Ġown s
Ġdirec Ã§Ã£o
Ġhum ana
Ġexam ples
Ġdese ja
Ġolha vam
Ġlim itation
Ġcontar ei
Ġenter tain
Ġuns olicited
Ġvoca bul
Ġpassar Ã¡
Ġtro cou
Ġdin heiros
isto la
Ġban ca
Ġban dido
Ġban ging
Ġrel embra
Ġdiss ol
dy ard
vocÃª s
Ġz eca
Ġfec hei
Ġfec hou
Ġdefin itely
Ġke y
Ġke en
Ġke pt
Ġaper tal
Ġlou va
Ġlou Ã§a
Ġform er
wor k
Ġedit ors
Ġsc ale
end esse
end endo
Ġfun dos
Ġfun ds
Ġfun ction
Ġgrou nd
Ġconclu o
Ġacu dir
Ġtrabal hador
Ġdorm i
Ġglobal isation
Ġbran co
Ġbran cos
Ġset ting
ele feld
Ġproc essed
Ġorgan ized
Ġterra Ã§o
Ġallow ed
Ġescrip tor
Ġescrip torio
Ġatra p
Ġfei os
Ġmedi ante
Ġessa ys
Ġja delo
Ġja ponÃªs
Ġdesc ul
Ġamb iÃ§Ã£o
Ġatten ta
Ġatten to
Ġfug indo
Ġfug iu
Ġfug iti
Ġfug isse
Ġexplica va
Ġhistor ias
Ġpal pebras
Ġfar iam
Ġindi an
Ġconce ived
Ġhon ras
Ġhon esto
Ġtriste zas
Ġinstitu tion
Ġexplic asse
Ġopin ou
cas ting
zer land
Ġagu as
Ġagu enta
Ġlen ha
Ġlen Ã§Ã³
Ġconse quen
ula te
Ġestre ita
Ġestre las
Ġestre pito
Ġplan ning
Ġplan alto
ju ro
ne ta
Ġcla im
Ġcla vet
Ġbig gest
Ġconst itu
Ġpropos ta
Ġdesped i
Ġdesped idas
Ġcolle agu
Ġru dyard
Ġback ground
Ġhuman as
rom s
Ġdou ble
Ġdou bt
Ġcol d
Ġcol era
Ġcol onies
Ġorig in
Ġorig ina
Ġste ad
Ġste ven
Ġcour ses
Ġnews paper
Ġpolit ico
Ġpolit ics
Ġegu a
Ġpin ta
Ġpin tado
Ġlab el
Ġlab ora
Ġvag amente
Ġconversa va
Ġconversa Ã§Ãµes
Ġvivia m
Ġnetwor ks
Ġassocia tes
Ġ5 00
Ġshe l
Ġdem ol
Ġdem ons
Ġwa it
Ġind ones
Ġdocum ento
Ġacon se
Ġfollow ed
Ġescu ras
Ġmostra va
Ġreflex o
Ġbuil t
Ġama m
Ġama da
Ġpec cados
Ġspecial ist
Ġlon don
Ġcompa q
Ġcompa ra
dei ras
Ġ18 6
Ġabor rec
Ġtell s
Ġappro va
Ġappro vaÃ§Ã£o
Ġappro pria
Ġguar dei
Ġguar dado
Ġdona te
Ġbeij os
Ġbeij ou
Ġbeij ei
Ġoccasi Ãµes
Ġtit le
Ġeter no
Ġfin ance
Ġfin land
Ġlx vi
Ġlx ii
Ġlx vii
Ġoffer ec
Ġiria mos
Ġaleg res
Ġembar car
Ġexc ess
Ġescol hi
Ġedu ard
Ġlxx i
Ġdire itos
Ġprogram me
Ġpur gatorio
Ġmanag ing
Ġpromo tion
Ġpromo ted
Ġrefl ectir
Ġcinco enta
Ġagrade cer
Ġaconte cia
Ġaconte cimentos
dent emente
Ġmoc et
Ġmoc inho
Ġspea ks
Ġnor th
Ġnor weg
Ġmeta des
Ġrefer ir
Ġreach ing
Ġconcer t
Ġprote ct
Ġprote ger
Ġabs tracts
Ġfacil ity
Ġdefun c
Ġultima mente
Ġear n
Ġsw immin
Ġdeci ded
Ġdevo ta
Ġbri lh
Ġbri gar
Ġbri ef
Ġpag ina
Ġpag amento
Ġens inar
Ġexten ding
Ġexten ded
Ġexten sive
Ġexempl ar
Ġtur quia
Ġaba tido
Ġappr en
Ġcham ando
Ġpromet tia
Ġrelig iÃ£o
ex pertise
Ġran k
Ġran dy
Ġtou ca
Ġlar gely
Ġbad ge
Ġsecre to
Ġhigh ly
Ġ19 71
Ġcomple ted
Ġorden ou
Ġorden aÃ§Ã£o
Ġpeda c
Ġmoder n
Ġarch it
Ġfur tifs
ribut ors
Ġtrem ulo
Ġtrem end
Ġlist ing
Ġbl ue
Ġess encia
Ġess encial
Ġconsider able
Ġalc anÃ§a
Ġforma m
Ġinterrom per
Ġinterrom pi
duz ido
Ġarran java
Ġlembran Ã§as
Ġincreas ed
Ġaborre cida
Ġstandard ization
bus to
Ġtele f
Ġtele visÃ£o
Ġder iva
Ġpan no
ĠvÃª m
Ġbes ides
Ġans wers
Ġsex y
Ġjura va
Ġenxu guei
Ġdesf ec
Ġatt itudes
Ġescon der
Ġescon dido
Ġchega ra
Ġchega ram
Ġcurios a
Ġpromp ta
fica do
fica Ã§Ã£o
Ġtri ed
Ġdim inu
Ġdim ensÃµes
Ġmol hados
Ġwal king
Ġincl ina
Ġincl inei
Ġincl inaÃ§Ã£o
Ġreme te
Ġhes itar
Ġhes itaÃ§Ã£o
Ġalmo Ã§ar
Ġprox imos
Ġparagraph s
Ġsai ba
Ġmur ray
Ġmur mu
Ġface is
illo t
Ġteim ou
Ġtiver a
Ġesquer do
Ġmemor y
Ġeffecti vo
Ġapostol os
Ġlocal ization
Ġaus tra
ĠcÃ³ ros
Ġdepen d
Ġdepen ds
Ġber Ã§o
Ġcommo vido
Ġgas ta
Ġgas tar
Ġgol pe
Ġnovel s
Ġconnec tion
Ġacostu mado
Ġdescer am
Ġdisfar Ã§ar
Ġrun ning
Ġlea ving
Ġlea keo
Ġunico de
Ġregis tered
Ġexcell ente
Ġexcell ence
Ġameric ans
Ġcorrespon d
Ġcorrespon dente
Ġsp ent
Ġsp inning
Ġbrow se
Ġbrow sers
Ġanterior es
Ġsell ing
Ġesten der
Ġesten deu
Ġespan tada
Ġpay ments
Ġjor ge
Ġjor nal
Ġher nan
Ġalv itre
Ġalta vista
Ġemp ina
Ġemp ur
Ġsatis feito
Ġinterro gar
Ġdispos to
Ġdispos iÃ§Ã£o
Ġperf ect
Ġperdo e
Ġabra Ã§ou
Ġpux ar
Ġprepar e
Ġnear est
Ġrecomm en
Ġrecomm end
Ġgenera tion
Ġscienti fique
Ġabsol viÃ§Ã£o
Ġgerman y
pira Ã§Ã£o
Ġtesta mento
Ġpall ida
Ġfra g
Ġbras ÃŃlia
Ġgros so
Ġgros sos
Ġench eram
Ġenco br
Ġdir Ã£o
Ġdir ty
Ġempre go
Ġempre guei
Ġchor ei
Ġescra vo
Ġrecu ei
Ġobser va
Ġaffir ma
Ġbelie ving
Ġbarri ers
Ġadolesc ente
Ġadolesc entes
Ġexpand ing
Ġspeak ers
Ġpopular ization
Ġidenti fication
Ġrecogn ize
Ġsuccess os
Ġsuccess ful
Ġagar rei
Ġton to
Ġed vantage
Ġsto p
Ġsing ing
Ġsco tland
Ġspec ific
Ġspec imen
Ġshor e
Ġlangu es
Ġinqui eto
Ġsel f
Ġsel vagem
Ġrez ar
Ġrez ei
Ġregu lar
Ġrequi red
Ġrepres ented
Ġconvi dar
Ġconvi vas
Ġenc anto
Ġexec u
Ġdistra h
Ġatre vidas
Ġaban e
Ġaban ou
Ġaban ava
Ġleg it
Ġleg iÃ£o
Ġord inar
Ġord ene
Ġrecol hi
Ġadver ti
Ġstat istics
Ġafflig ir
Ġmetho dolog
Ġconsegu iu
Ġarrepen dimento
Ġdan ger
Ġcria do
Ġmira l
Ġmira r
Ġslow ly
Ġdemo rar
Ġreje itou
Ġenfi ou
Ġdivi dir
Ġnamora da
Ġnamora dos
Ġhos tia
Ġsacu di
Ġexpen se
Ġexpen ses
Ġsemelh anÃ§as
Ġcomply ing
Ġcomprim entar
Ġcomplex ity
Ġimmedia tely
Ġimpul sos
Ġapag ar
Ġmod alities
Ġguard al
Ġtrav essuras
Ġprem io
Ġcrean Ã§ol
Ġrecus ou
Ġrecord ando
Ġirm Ã£os
Ġbring ing
Ġaffec ted
Ġaffec tuosas
Ġassist ance
Ġmetti da
Ġunivers idade
Ġfamiliar es
Ġvex ame
Ġbarb onos
Ġconsequ ence
Ġconstru ction
Ġescap ou
Ġpurpos es
Ġbilhe tes
Ġpotenti ally
if ico
Ġada gio
Ġtest ing
Ġcele bre
Ġcele bres
Ġdeve dor
Ġvas to
Ġinv est
Ġincom pa
Ġincom modo
Ġtop ics
Ġpain ting
Ġnov embro
Ġconvers ando
Ġcontain s
Ġcontain ing
Ġenfia do
Ġenfia dos
Ġexer cises
Ġdespe ito
Ġdesig na
Ġdispen sa
Ġperre ar
Ġperform ing
Ġcora Ã§Ãµes
Ġrestric tions
Ġpredic Ã§Ã£o
Ġcontribu te
Ġroyal ties
Ġpreser ve
Ġtru th
Ġverdadeira mente
Ġcrim e
Ġreceb endo
Ġbusc al
Ġvenha mos
Ġzan gado
Ġzan gava
Ġdezese is
Ġpermit tia
Ġcircum stancia
Ġessenti ally
Ġperiodic al
Ġperiodic als
Ġsympa th
Ġdisplay ed
Ġextraordinar io
Ġextraordinar iamente
Ġpis cando
Ġscis mando
Ġvan ish
Ġvic tima
Ġinu til
Ġinu teis
Ġask ed
Ġcab ia
Ġcau tel
Ġmag ro
Ġenfer ma
Ġenfer meira
Ġalpha be
Ġprofer i
Ġdisco ver
ĠprÃ³ prio
Ġamare llas
Ġcot res
Ġrespe ito
Ġsoce gado
Ġimita Ã§Ãµes
Ġapon tando
Ġapal pei
Ġappl ications
Ġappar encia
Ġlava douro
Ġhealth y
Ġcopyri ghted
Ġobj ecto
Ġobtain ing
Ġsincer a
Ġflu ido
Ġsuppor ting
Ġinflu ence
Ġsepara te
Ġsepara dos
Ġbroad casting
Ġalcan Ã§ar
can tico
Ġavo id
Ġdro ga
Ġdur ing
Ġsinh Ã¡sinha
Ġsky e
Ġlia bility
Ġinc enti
Ġinit iated
Ġestra da
Ġgeo ffrey
Ġregar d
Ġenor me
Ġenor mous
Ġemend ou
Ġforum s
Ġexpres sions
Ġextran ho
Ġextre mely
Ġcaste lo
Ãªn cia
Ġpower ful
Ġabro ad
Ġallopa thia
Ġcomment ary
Ġrecre ios
Ġmalu qu
Ġgrava ta
Ġconfi anÃ§a
Ġobvious ly
Ġcampa ign
Ġrison ho
Ġregres so
Ġdisser tation
Ġdefiniti va
Ġwarran ties
Ġindica te
Ġbellaque o
Ġbellaque ar
Ġdestina do
Ġdestina da
Ġswit ch
Ġswit zerland
Ġsymbol s
Ġrecommenda Ã§Ãµes
Ġinvesti dura
Ġdepart ment
Ġdepart ments
sen hor
Ġaventu ras
Ġtos se
Ġevi dentemente
Ġevo cava
Ġsam ba
Ġsna il
Ġspir it
Ġful gu
ĠfÃ² ro
Ġlin dos
Ġlam piÃ£o
Ġvul gar
Ġvence u
Ġblo od
Ġur bana
Ġuly sse
tific ial
Ġanci oso
Ġestran ha
Ġredist ribu
Ġcaus as
Ġmad rugada
Ġexquis ita
Ġlex icograph
Ġimprim il
Ġapplic able
Ġmovi es
Ġmodes ta
Ġmanuscrip to
Ġarri val
Ġarma zem
Ġlat ino
Ġcommit tee
Ġtrag ico
Ġkings cott
Ġcarn es
Ġaccor dei
Ġaccura te
Ġsomew hat
Ġmono graphs
Ġsuspi rando
Ġdisclaim er
ĠfÃ³r ma
Ġlibrari ans
Ġvehic le
Ġfight ing
Ġestrem ecer
Ġinterromp ida
Ġreconcil iaÃ§Ã£o
Ġhyper link
Ġexclusi vamente
Ġequip ment
Ġsubstitu to
Ġretrie val
Ġsublim e
len ine
mor reu
obri gado
Ġcig ana
Ġori gem
Ġpsy cho
Ġfing er
Ġbul ha
Ġwat ch
Ġinj uria
Ġinn ocente
Ġincer to
Ġrefor mar
Ġrepor ts
Ġredar gu
Ġcabel o
Ġcontro l
Ġmaj estade
Ġenh ance
Ġencou rage
Ġemer ge
Ġacred ita
sach usetts
Ġexter no
Ġexpress Ãµes
Ġdespre zo
unci ou
Ġatordo ado
Ġatrope llo
Ġmuer do
Ġarro deada
Ġfume teo
ticul tural
Ġki pling
Ġbaix inho
Ġconfun dem
Ġconfid encia
Ġ** --
Ġexperiment ar
Ġsouber am
Ġvenir te
Ġinsinu ou
Ġeffici ent
Ġmilag re
Ġcolum n
Ġdemocra cy
Ġwonder ful
Ġsignific ant
Ġbrinca deira
Ġrapid ly
Ġadivinh ando
Ġcollab ora
Ġtestem unhas
Ġbullet in
Ġencyclo pedia
Ġportugu ese
Ġanecdo ta
Ġsacerdo te
Ġsuffici ente
fo i
kele y
Ġze aland
Ġajo el
Ġeval ua
Ġcunha dinha
Ġock erblo
Ġpant y
Ġpyram ides
Ġsle ep
Ġnym pha
Ġquit anda
Ġfus co
ĠbÃ¡ ilame
Ġinfor outes
Ġingle z
Ġanton io
Ġtoler ava
Ġespon tan
Ġpaci fic
Ġashaver us
Ġrech erche
Ġrepre h
Ġretros pectiva
Ġilo velanguages
Ġident ity
Ġcaoim hin
Ġendi re
Ġenvis age
Ġnaufra gio
Ġmassin issa
Ġexag eraÃ§Ã£o
Ġdestro y
Ġintercon nec
Ġcapsul eo
ĠmuÃ©vel o
utrech t
Ġlibre tto
Ġhobl er
Ġteimos os
Ġunfortuna tely
Ġmanif esta
Ġarchan jo
Ġbotelle o
Ġchine llas
Ġchie f
Ġchris tiane
Ġesculp tor
Ġracio c
Ġragget t
europe an
Ġtiju ca
Ġtrunca do
Ġobject os
Ġmontoy a
Ġbelgi um
Ġvocabul ary
Ġjadelo t
ĠlenÃ§Ã³ es
Ġcolleagu es
Ġindones ian
Ġappropria te
Ġnorweg ian
Ġderiva tive
Ġhernan dez
Ġmethodolog y
ĠcreanÃ§ol as
Ġockerblo om
! "
! --
' âĢĶ,
, "
, Â»
. âĢĿ
0 1
1 6
2 0
3 0
3 2
4 1
4 8
5 2
6 2
7 00
9 2
9 00
? _
a i
a te
a to
a per
a ut
a ten
a ther
a ur
a Ã§Ãµes
a ting
a ventura
a Ã±o
b m
b n
b s
b om
b ic
b ed
b io
b ig
b ros
b ios
b ura
b iqu
b rios
b rir
c d
c r
c te
c am
c tu
c ina
c est
c olo
c ting
c emos
c ru
c itas
c Ã¡mos
d d
d is
d il
d Ã³
d iz
d ity
d ita
d inho
d and
d indo
d aria
d essem
d dle
e es
e as
e ia
e do
e te
e ven
e amente
e lles
f l
f ess
f ur
f ies
f az
f rance
g th
g la
g no
g ence
g amente
g rando
g Ã¡rio
h is
h om
h Ã¡
h endo
h Ã´
h uh
h ull
i res
i ente
i vo
i ence
i jo
i encia
i bility
j ul
j ust
j amos
j isa
k ers
l in
l os
l on
l am
l ings
m y
m ity
m asse
m ichigan
m pago
n or
n ou
n el
n us
n iz
n inho
n and
n ds
n unca
o as
o go
o ito
o tes
o ting
o aÃ§Ã£o
p k
p in
p ic
p us
p ando
p ran
p ad
p ut
p asse
p son
p itar
p rias
p alo
p idez
p tation
r Ã£o
r te
r ic
r ente
r ens
r Ã¡ra
r dy
r ice
s c
s he
s ar
s ol
s ch
s Ã³
s um
s ix
s inho
s asse
s enta
s ses
s pecial
s pace
s ources
s anta
s tico
s ÃŃvel
t m
t res
t ch
t Ãº
t inho
t indo
t Ã¡ra
t inas
t inhos
u d
u g
u da
u de
u po
u ge
u tions
u cto
u eta
u dir
u tionary
u med
u diu
u ghter
v Ã¡
v Ãª
v ÃŃ
v our
v ance
v Ã¡ra
w k
w id
x as
x ava
y o
y ers
y ale
z os
z ol
z iu
z Ã³n
z ech
Â ¿
Ġ $
Ġ ,
Ġ ...
Ġ 00
Ġ Â»
Ġ Â¿
Ġa ro
Ġa dia
Ġa ÃŃ
Ġa ze
Ġa val
Ġa tado
Ġa vent
Ġa ula
Ġa tur
Ġa tira
Ġa head
Ġa ids
Ġa jun
Ġa war
Ġt ras
Ġt ies
Ġt all
Ġt rip
Ġt onta
Ġt ough
Ġt Ã¨
Ġt asty
Ġe re
Ġe res
Ġe di
Ġe ast
Ġe rec
Ġe ru
Ġe vent
Ġe texts
Ġd r
Ġd ut
Ġd ica
Ġd ita
Ġd ja
Ġd ante
Ġd rip
Ġd ans
Ġd ÃŃa
Ġd Ã²r
Ġc s
Ġc v
Ġc Ã£o
Ġc el
Ġc vi
Ġc ix
Ġc lo
Ġc ine
Ġc ii
Ġc ds
Ġc essa
Ġc vii
Ġc viii
Ġc iii
Ġc Ã²r
Ġc ioso
Ġc mu
Ġc zech
Ġo ÃŃ
Ġo des
Ġo dio
Ġo ak
Ġo ceano
Ġo dd
in er
in it
in de
in tes
in idade
in asse
in hei
in ently
in ian
in aba
Ġm m
Ġm it
Ġm ou
Ġm Ã©
Ġm un
Ġm ere
Ġm ina
Ġm Ãªs
Ġm ental
Ġm Ãºs
Ġm ichigan
Ġm cken
Ġp Ã¡
Ġp ei
Ġp ando
Ġp ras
Ġp ity
Ġp ida
Ġp ana
Ġp ixel
er y
er os
er ved
er vos
Ġs ar
Ġs Ã£
Ġs Ã¡
Ġs mo
Ġs pl
Ġs tro
Ġs ting
Ġs pi
Ġs tran
Ġs hado
Ġs ounds
Ġs lings
ra te
ra das
ra ry
ra Ã§ar
ra tch
es us
es ma
es tar
es ome
qu ar
qu iz
qu ero
qu eira
qu iring
Ġn ic
Ġn Ã³
Ġn un
Ġn ine
Ġn ero
Ġn inhos
Ġn ela
Ġn essas
Ġn ervos
en er
en ing
en sa
en Ã§Ã£o
en tava
en ge
en das
en Ã§o
en sion
en tado
en adas
en cho
en cing
en cies
as ed
as phe
os en
os amente
he l
he Ã§o
Ġqu an
or dia
or Ã§o
or ough
Ġf it
Ġf um
Ġf ab
Ġf ill
Ġf ome
Ġf ive
Ġf ie
Ġf itar
Ġf este
Ġf rias
Ġf low
Ġf itando
Ġf idelidade
is o
is ava
is ba
is ado
is land
ar i
ar s
ar t
ar ma
ar tificial
on io
on ias
on ardo
Ã£ s
an ed
an Ã§o
an ation
Ġde co
Ġde tes
Ġde du
Ġde pu
Ġde itou
Ġde als
it ten
it ant
it asse
it ous
it era
it aria
it ados
it issimo
it ics
re mo
re za
re land
Ġque do
Ġque dar
Ġl v
Ġl ente
Ġl ut
Ġl anÃ§a
Ġl inhas
Ġl enta
Ġl ump
Ġl vii
ou vi
ou ras
Ġthe ft
Ġthe tis
Ġthe ory
om bo
Ġv inho
Ġv ind
Ġv iam
Ġv Ã³s
Ġv Ã£os
Ġv imos
Ġv ÃŃcio
Ġb os
Ġb am
Ġb ite
Ġb one
Ġb ento
Ġb rio
Ġb ens
Ġb ord
Ġb ump
Ġb eng
Ġb orda
Ġb ossa
Ġw ing
Ġw ent
Ġw est
Ġw ides
ia es
ia de
ia mo
ia veis
ha b
ha h
ha ra
ha mos
ha ble
ha wa
Ġin tr
Ġin si
Ġin fr
Ġin cu
Ġin cum
Ġin ici
Ġin ÃŃcio
Ġin ception
em o
em ed
em ento
em pt
em ne
Ġu teis
Ġu biqu
ti as
ti da
ti gu
ti dade
ti vel
ti ria
ti ble
ti ens
ti ful
te la
te ach
te llo
te gy
Ġan th
Ġan cia
Ġan ges
Ġan cest
Ġan zol
ll or
ll on
ll ion
ll eza
ll iÃ£o
ro t
ro ra
ro la
ro pol
Ġcom i
Ġcom endo
Ġcom tanto
Ġcom met
ta ca
ta wa
da mos
da ble
im port
im itar
im onio
gu ez
gu eira
gu sto
Ġme lo
Ġme ios
Ġme llon
se y
se ll
se cou
ic t
ic ar
ic iste
ic ons
de e
de iros
de ixa
de zas
Ã§ Ã£
Ġse da
Ġse ts
Ġse par
Ġse cc
Ġse xu
Ġto e
Ġto cado
Ġto cando
Ġto dito
Ġes a
Ġes pe
Ġes qui
Ġes gar
Ġes ante
Ġes gan
Ġes bel
Ġes bura
to p
Ġg or
Ġg ri
Ġg le
Ġg la
Ġg one
Ġg our
Ġg ast
Ġg Ã³s
Ġg rim
Ġg ordo
Ġg yal
Ġg anho
va i
Ġpa ir
Ġpa gou
Ġpa gem
Ġpa ÃŃs
Ġpa teo
Ġand Ã©
Ġand asse
Ġand aria
Ġand assem
Ġas mo
Ġas ian
ing os
ing ir
Ã¡ mo
Ã¡ vel
ter a
ter ial
Ġre y
Ġre ga
Ġre tic
Ġre pos
Ġre gra
Ġre tal
Ġre tir
Ġre tido
Ġre ject
Ġre tira
Ġre inou
Ġre capit
Ġre duced
Ġre dob
Ġre vised
ec as
ec ta
ec ted
Ġi v
Ġi ra
Ġi ber
Ġi ba
Ġi ii
Ġi lha
Ġi gn
Ġi rac
Ġi rem
Ġi lhas
Ġi bm
Ġi gno
Ġi reland
Ġdo er
Ġdo tes
Ġdo esse
Ġdo ze
Ġdo entes
ho t
ho w
ho Ã§a
ho ld
ho lic
Ġou Ã§a
Ġno j
Ġno tei
Ġno ches
el era
el ectric
Ġca e
Ġca va
Ġca me
Ġca co
Ġca ber
Ġca der
Ġca ix
Ġca tas
Ġca ble
Ġca tei
Ġca ÃŃa
Ġca ixÃ£o
Ġca var
Ġca ixa
Ġca teg
Ġca iram
Ġda ve
Ġda mas
Ġda ba
Ġcon tido
Ġcon vida
Ġcon vin
Ġcon diÃ§Ã£o
Ġcon creto
Ġcon demn
Ġcon tigu
Ġma te
Ġma io
Ġma tr
Ġma ture
Ġma tal
Ġma ps
Ġma taria
Ġma dura
Ġma mm
Ġma chado
us c
us es
us to
Ġ-- ...
Ġj am
Ġj ava
Ġj ump
Ġj antei
Ġj arre
Ġj esus
ri al
ri do
ri veis
ri etary
Ġen re
Ġen ver
Ġen ca
Ġen for
Ġen du
Ġen lo
Ġen ven
Ġen ds
Ġen quanto
Ġen xo
Ġdi os
Ġdi di
Ġdi ary
Ġdi vin
Ġdi verse
Ġdi visÃ£o
ol as
ol ha
ol ir
ol ingual
ol ation
ent y
ent re
ent ists
ent inian
et s
et ou
et Ã©
et hora
res pec
res sem
ce gas
ve ill
ve ja
ve au
Ġna il
Ġna vi
Ġna quellas
Ġis i
Ġis ola
Ġis lands
Ġis bn
Ġis olation
ma tic
ma king
ma cy
ul ou
ul so
ul tan
Ġh it
Ġh ence
Ġh id
Ġh its
Ġh uge
Ġh iciste
Ġth era
Ġth row
Ġth read
Ġth eres
Ġth umb
Ġth orn
Ġth orough
Ġal b
Ġal is
Ġal ar
Ġal va
Ġal um
Ġal right
Ġal tos
Ġal ju
Ġal bu
Ġal Ã§ada
Ġem pa
Ġem be
Ġem ph
Ġem pha
il i
il ha
il ing
il ed
il ando
il ita
il ities
il Ãł
Ġos sos
Ġos culo
Ġ( +
ed as
ed or
Ġac er
Ġac al
Ġac ci
Ġac tor
Ġac tive
Ġac ima
Ġac orda
Ġac tual
Ġac Ã³de
Ġac tively
Ġac quiring
Ġpro vis
Ġpro gress
ver am
ver gence
Ġpor co
Ġpor quÃª
Ġmas sachusetts
ir man
go th
go vern
go gy
Ġon to
Ġon elo
Ġha ha
Ġha ck
Ġha ines
Ġha vido
Ġha vemos
Ġha cemos
Ġha wk
Ġpara ll
Ġpara ndo
tra r
tra ined
tra ints
so on
so ci
so ever
le go
le vant
Ġfor mos
Ġsa po
Ġsa bem
Ġsa ido
Ġsa dly
Ġsa zÃ³n
Ġex ig
Ġex pon
Ġex pec
Ġex port
Ġex pi
Ġex ists
Ġex tin
Ġex terior
Ġex isted
Ġex plain
Ġex ato
Ġex empt
Ġbe e
Ġbe ar
Ġbe am
Ġbe ard
Ġbe bel
Ġbe au
Ġwe ather
ca Ã§Ã£o
ca pe
vi dar
vi dÃ£o
Ã³ i
Ã³ rio
Ġdes al
Ġdes va
Ġdes ce
Ġdes un
Ġdes per
Ġdes ci
Ġdes for
Ġdes via
Ġdes ment
Ġdes com
Ġdes at
Ġdes ceu
Ġdes tem
Ġdes eng
Ġdes lig
Ġdes Ã¡gua
Ġinter ina
Ġinter pre
Ġinter val
Ġinter vallos
Ġinter face
Ġinter medi
Ġinter inidade
th is
th ink
th icas
th place
ag er
ag Ã£o
ag ou
ag ed
Ġdis e
Ġdis per
Ġdis ci
Ġdis pon
Ġdis ses
Ġdis ap
Ġdis poz
Ġdis may
Ġper ce
Ġper ten
Ġper na
Ġper fe
Ġper ola
Ġper versa
Ġper dendo
Ġper dida
Ġper cor
ran nos
ran cel
un k
un less
un taria
Ġcap im
Ġcap tiva
Ġcap ability
Ġcap ote
Ġvi i
Ġvi ii
Ġvi era
Ġvi emos
Ġvi ola
Ġvi Ã§os
Ġvi vendo
Ġvi gÃ¡rio
Ġsu pre
Ġsu issa
Ġpr osa
Ġpr iamo
po ra
oc upo
Ãº de
Ġser ra
Ġser mos
Ġser ves
Ġser enas
Ġser vil
Ġser eia
Ġam of
Ġam igu
co itado
Ġat ar
Ġat tal
Ġat tem
Ġat inava
um bra
um ph
la in
ber n
ber keley
ad es
ad inha
ad ir
Ġco de
Ġco va
Ġco po
Ġco bra
Ġco ast
Ġco ding
Ġco llo
Ġco Ã§ava
Ġco vered
Ġco cegas
Ġver bo
Ġver emos
Ġver ne
Ġver ific
Ġver niz
Ġmu do
Ġmu cho
st ro
Ġcas h
Ġcas al
Ġcas ta
Ġcas ca
Ġcas tan
Ġcas ual
Ġcas uar
ut ia
Ġr in
Ġr os
Ġr he
Ġr ing
Ġr Ã¡
Ġr ender
Ġr enda
Ġr endeu
Ġr itual
Ġr hy
Ġres tr
Ġres ting
Ġres id
Ġres enti
Ġres istir
Ġres sources
Ġres secou
pa ck
iz on
ĠÃ¡ quelle
ĠÃ¡ rea
ci dade
ci pan
ci entemente
ten s
ten ed
ten Ã§Ã£o
Ġli i
Ġli x
Ġli gar
Ġli eu
Ġli ii
Ġli gal
Ġli ghter
Ġli kely
Ġtu bar
Ġpo et
Ġpo dem
Ġpo dido
Ġpo pul
Ġpo esias
Ġpo bres
Ġpo etas
Ġfo x
Ġfo tos
Ġfo ot
Ġlo an
Ġlo pes
ga e
ga ram
ga Ã§Ãµes
mo ther
Ġcomp as
Ġcomp rado
Ġab alo
Ġab ility
Ġab rindo
Ġab omina
Ġab enÃ§o
di as
di go
di rec
Ġle ia
Ġle ite
Ġle onardo
ong e
Ġmor ou
Ġmor tal
Ġmor deu
Ġmor eno
Ġmor dendo
Ġmor resse
Ġmor ressem
Ġfa ti
Ġfa vel
Ġfa ces
Ġfa ced
Ġfa vour
Ġho ld
Ġho ped
Ġho lly
Ġso g
Ġso ber
Ġso ff
Ġso bras
Ġso bres
Ġso fri
Ġso zinha
Ġso pran
ion ario
Ġor g
Ġor ph
Ġor ches
Ġor tho
Ġtem er
Ġtem or
Ġtem ia
Ġtem endo
Ġcan on
Ġcan Ã§ou
Ġcan oas
Ġpu er
Ġpu ras
Ġpu dessem
Ġpu edo
Ġpu reza
Ġfr ene
Ġfr ucto
Ġpe Ã§as
Ġpe gado
Ġpe ores
Ġpe gando
Ġfal am
Ġfal sas
Ġfal emos
Ġfal Ã¡ra
Ġfal Ã¡mos
Ġfal amos
Ġfal tando
Ġfal tam
Ġfal tasse
der ou
der ic
ill a
ill s
ill es
ill inois
Ġim p
Ġim ital
Ġim plic
Ġim men
Ġim plied
Ġim pru
Ġap e
Ġap pre
Ġap hor
Ġun re
Ġun ion
Ġun des
Ġun indo
Ġun tou
Ġun has
Ġun gido
Ġun lim
pe fac
pe gaÃŃto
Ġsen se
Ġsen ado
Ġsen tado
Ġsen tada
Ġsen tados
Ġlong amente
Ġalgu Ã©m
Ġmo ve
Ġmo ver
Ġmo ram
Ġmo Ã§os
Ġmo rar
Ġmo rando
Ġmo bil
Ġmo tiva
Ġmo ham
Ġmo lleza
Ġmo edas
Ġter em
Ġter nos
Ġter na
Ġter Ã¡s
Ġter riveis
ix on
Ġall usÃ£o
Ġall uc
Ġman dem
Ġman dasse
tava mos
du ally
Ġar en
Ġar co
Ġar der
Ġar dia
Ġar dor
Ġar ru
Ġar let
Ġar tis
Ġar oma
Ġar che
Ġpas e
Ġpas sas
Ġla y
Ġla ma
Ġla id
Ġla tely
Ġla goa
cia es
cia mos
ff er
Ġgu ess
Ġgu est
Ġfu ria
Ġfu rios
Ġcou ple
Ġolh Ã¡mos
Ġcomm entar
Ġcomm emora
Ġtra de
Ġtra ria
Ġtra gar
Ġtra id
Ġtra tal
Ġtra ves
Ġtra ck
Ġtra vesse
Ġtra tamento
Ġbo tar
Ġbo tÃ£o
Ġbo ards
Ġbo ost
Ġbo iade
pl an
pl ina
pl ement
pl ique
tro phe
Ġch ico
Ġch iste
Ġch rist
Ġch ips
Ġch ild
Ġch osen
Ġtam anha
Ġtam bi
be an
be llo
Ġquer y
Ġquer es
Ġquer em
ge ted
Ġesc ar
Ġesc utar
Ġesc uros
Ġwill ing
Ġcasa es
Ġpre ta
Ġpre ce
Ġpre ench
Ġpre ju
Ġpre dom
Ġpre ocupo
ant asse
lo at
ig os
Ġmar u
Ġmar idos
Ġmar col
Ġmar cel
Ġmar more
ur ing
ur ring
ur bios
Ġprim o
ram ento
Ġwhat soever
no ti
ÃŃ via
Ġhe ard
Ġhe ft
das sem
bra da
bra irie
Ã§o ando
Ġmul e
Ġmul ticultural
ust os
Ġra w
Ġra iz
Ġra ras
Ġra ja
Ġra ros
Ġra dic
Ġra lha
Ġcre ation
Ġcre ole
Ġest oma
Ġne f
Ġne to
Ġne gando
Ġk in
Ġk at
Ġk ore
Ġk ush
op en
Ġcar ec
Ġcar ros
Ġcar ds
Ġcar ola
Ġcar inhos
Ġcar tÃ£o
Ġcar torio
Ġcar men
Ġcar ib
Ġcar pin
bl ed
Ġcor es
Ġcor tar
Ġcor ps
Ġcor tina
Ġcor neta
Ġcor oaÃ§Ã£o
Ġnot ou
Ġnot ÃŃcia
Ġfaz enda
tor y
tor ios
Ġva guei
Ġpos th
Ġpos ting
Ġpos iÃ§Ã£o
Ġpel e
Ġcos a
Ġpra ti
Ġpra Ã§a
Ġpra ga
Ġpra zos
Ġpen n
Ġpen et
Ġpen nsylvania
Ġpen dulo
Ġcont empl
Ġche iro
Ġche gasse
Ġche iram
Ġche aper
Ġfil ms
Ġfil hinha
all ed
all ide
Ġgo d
Ġmen ti
Ġmen inos
Ġmen digo
Ġmore over
eu x
si an
Ġtal e
Ġtempo rary
Ġ2 2
Ġ2 4
Ġoh h
Ġoh hh
cl es
Ġus c
Ġus ual
Ġba iÃ£o
Ġba tt
Ġba teu
Ġba iles
Ġwas p
Ġrec itou
Ġrec urso
Ġrec itei
Ġrec itando
Ġir onia
pos so
Ġdu z
Ġdu raÃ§Ã£o
Ġdu rar
Ġdu elo
Ġsol a
Ġsol te
Ġsol da
Ġsol to
Ġsol ely
Ġsol itude
Ġsol tÃ¡mos
Ġsol emne
Ġvis Ã£o
Ġvis ion
Ġvis Ãµes
Ġvis sem
Ġvel as
Ġacc us
Ġacc oun
Ġacc ompan
Ġacc essed
Ġacc esas
pre ciso
Ġad s
Ġad or
Ġad ds
Ġad ded
Ġad ventu
Ġad ulaÃ§Ã£o
Ġad rift
Ġad vance
Ġvol to
Ġvol tÃ¡ra
cer t
Ġmal dade
Ġ199 2
bo a
bo x
bo th
ial ly
Ġeng ana
Ġeng land
Ġel es
Ġel ite
Ġel imina
Ġesta dos
Ġesta bel
Ġesta blished
Ġesta blish
mas sem
Ġtran sa
Ġtran st
Ġpou r
ba ck
Ġti j
Ġti rando
Ġti ene
Ġti vemos
Ġti enes
Ġbec co
Â» .
Ġta o
Ġta pir
Ġgra in
Ġgra te
Ġgra ce
Ġgra des
Ġgra ph
Ġgra vissimo
Ġgra dually
Ġped il
Ġped ÃŃ
Ġped iam
Ġped isse
Ġfe itor
Ġfe itic
ven ho
Ġconf lic
Ġconf iou
Ġconf unda
Ġcons or
Ġcons ti
Ġcons ists
Ġcons tern
Ġdeix aria
Ġdeix emos
Ġvo ce
Ġro ido
Ġro ck
Ġro idos
Ġro tina
Ġro lar
Ġro lava
Ġro busto
Ġro xas
Ġcer n
Ġcer em
Ġcer ca
Ġcer tas
Ġgran gi
Ġcha irman
Ġcha massem
id ou
tal vez
Ġcu tello
Ġcu idou
con tra
con vergence
ros a
Ġany way
Ġpergun tando
Ġpes o
Ġpes ada
Ġpes ade
Ġpes quiz
Ġpres a
Ġpres sas
Ġpres sÃ£o
Ġpres entations
Ġacab a
Ġacab am
Ġacab assem
Ġacab aram
Ġprom ised
Ġprom inently
Ġtrans par
Ġtrans ition
Ġhom o
Ġhom bros
Ġparec ida
Ġparec idos
Ġjo e
Ġjo gado
Ġjo elho
Ġtr Ã¡s
Ġtr istan
Ġfos semos
olog ies
olog ias
olog ists
ac tu
wn ed
Ġbook ing
Ġbook ings
Ġbook sell
Ġten ded
Ġten has
Ġten taÃ§Ã£o
Ġentre gou
Ġau x
Ġau to
Ġau ge
Ġau rora
Ġau gusto
inal mente
Ġcl in
Ġcl Ã£
Ġcl us
Ġcl asse
Ġcl ero
Ġcl ose
Ġgos o
Ġgos taria
Ġgos tasse
Ġthink s
Ġcome Ã§as
Ġcome Ã§ado
cre ated
oria mente
Ġesper tar
Ġinst ru
Ġcr en
Ġcr iti
Ġcr entes
Ġcr ises
Ġexpl ore
Ġexpl iquemos
Ġexpl anation
Ġkno t
Ġob ter
Ġob ras
Ġob rig
Ġprin ts
Ġprin cipa
Ġprof it
Ġprof un
Ġexper imental
Ġfic assem
pro fit
pro duced
pro fess
Ġouvi da
Ġtim ida
ĠlÃ¡ cte
Ġjan ta
Ġentra n
Ġentra mos
Ġentra sse
Ġcal c
Ġcal ando
Ġcal asse
Ġcal adas
Ġcal Ã§ava
Ġcal culos
Ġcal Ã§ada
Ġcal cular
Ġamor osas
Ġpass am
Ġpass asse
Ġsan dia
Ġsan grando
Ġsenti da
Ġcrea do
Ġcrea tes
Ġsta in
Ġsta ke
Ġwho a
Ġtransla tions
ck ing
ck load
Ġnas ce
Ġnas ty
Ġnas cem
Ġnas cidos
Ġdef endendo
ys ica
Ġtar get
Ġtar taruga
Ġtar geted
Ġvir ou
Ġvir iam
Ġbr ush
Ġbr icks
Ġsom ente
Ġsom nos
Ġsom mar
Ġsom mando
Ġsom brios
pr omet
pu ter
pu ente
pu blish
Ġpl utar
Ġpl antei
Ġpl ethora
clu b
Ġcomputer ized
ie ties
Ġval ha
Ġval ei
Ġval sa
Ġup da
Ġup gra
Ġup date
Ġup dated
Ġdist antes
Ġaff li
Ġaff ecto
Ġliv re
cha rac
ph ysica
Ġrece bem
Ġrece ioso
Ġrece iava
Ġcontra st
Ġcontra ry
Ġcontra ste
Ġce de
Ġce ei
Ġop as
Ġop timo
Ġmis s
Ġmis iÃ³n
Ġmis eric
Ġfran queza
itu iu
Ġri jo
Ġri gor
Ġri ddle
Ġeuro call
Ġprecis os
ding s
Ġx i
Ġx v
Ġx vi
Ġx ix
Ġx ii
Ġx ero
Ġx li
Ġx vii
Ġx iv
Ġx iii
Ġx liv
Ġsin o
Ġlu ta
Ġlu iz
Ġlu tam
Ġpassa dos
Ġpassa vamos
Ġpassa gens
Ġcontinu es
Ġcontinu ed
Ġcontinu am
Ġcontinu ando
Ġcontinu asse
Ġcontinu Ã¡mos
Ġpon derou
Ġsou za
Ġexperi ences
dic e
Ġph y
Ġph arma
Ġfl Ã´res
Ġfl esh
Ġfl ash
rec t
Ġcam po
Ġcam Ãµes
Ġcam inhos
Ġcam isas
Ġcam inhei
Ġaf as
Ġaf Ã£
Ġaf roux
Ġaf rance
Ġaf aga
Ġaf loat
Ġdom es
Ġdom ingos
Ġlingu agem
Ġass is
Ġass em
Ġass ust
Ġass ento
Ġass ign
Ġass istir
Ġbon dades
Ġmet te
Ġref az
Ġrep ou
Ġrep el
Ġrep ul
Ġrep ito
Ġlev ando
Ġlev emente
ada ble
com puter
Ġcur so
Ġcur tido
Ġmin eira
Ġmon te
Ġmon tan
Ġmon olingual
Ġrespon se
Ġrespon si
Ġrespon dendo
Ġqual idade
Ġqual ms
Ġprop unha
Ġprop rietary
Ġporta dor
Ġsus pect
enti al
Ġbra dar
Ġbra dou
Ġbra dando
Ġdig na
Ġdig nas
Ġdig ni
sem pre
Ġnum bers
Ġven der
Ġven dia
Ġven dendo
Ġven cel
Ġven eraÃ§Ã£o
Ġsub urbios
Ġson hando
Ġson hÃ¡ra
vic e
Ġfre quen
Ġfre guez
Ġfre deric
itor io
Ġesti mava
Ġesti rado
Ġesti cadas
Ġesti mei
Ġesti vessem
Ġperson nel
Ġpossi bility
Ġpossi bly
at Ã©
mar ina
vis ual
Ġtor re
Ġtor no
Ġtor onto
Ġpol and
Ġpol idez
Ġpla t
Ġpla cer
Ġpla ys
Ġpla tÃ£o
Ġpla cida
ens Ã£o
Ġins er
Ġins ul
Ġins istencia
Ġins piraÃ§Ã£o
Ġget s
Ġreal ised
Ġread y
Ġread er
Ġconhe cesse
Ġsup pos
Ġsup puz
Ġsup plement
Ġimag en
Ġimag inar
Ġimag inei
Ġlembra do
Ġag ent
Ġag encies
Ġges tes
Ġges tures
Ġsenhor es
Ġbu eno
Ġbu ried
Ġbu zz
Ġinf el
Ġinf ecta
Ġmost re
Ġtom ava
Ġtom Ã¡ra
Ġout ta
Ġout put
Ġenten dem
Ġpens amentos
Ġsor ve
Ġsor tes
Ġsor rir
Ġsoc io
Ġsoc iedade
Ġsoc ieties
Ġdevel oper
Ġrela ta
Ġrela tive
Ġdisc ursos
Ġuni versi
ped arias
Ġqui era
ton ia
ton gue
Ġover all
Ġover load
tim ento
tim ony
Ġsegu ro
Ġsegu ida
Ġsegu intes
Ġgen e
Ġju ran
Ġju gar
Ġju ventu
li brairie
Ġeff ect
Ġora l
Ġora dor
Ġora torio
Ġora torios
Ġst rip
Ġst yl
Ġst ream
Ġbom ba
tiv as
Ġesp inho
Ġesp antou
Ġesp elh
Ġesp elhos
Ġpequen as
Ġesquec ia
Ġesquec endo
Ġesquec imentos
Ġesquec idas
Ġsh all
Ġsh ips
Ġescre ve
Ġescre vo
Ġescre via
Ġescre vesse
Ġpessoa es
Ġtre vas
Ġtre atment
Ġlibra irie
Ġneed le
eg ie
Ġsec co
Ġjun to
Ġjun tando
Ġbeing s
graph y
graph ia
Ġevery body
Ġmil e
Ġsegun dos
Ġacha m
Ġacha ram
Ġacha vam
Ġris e
Ġris que
Ġris ks
Ġris cava
Ġris cando
Ġris quei
Ġconsul tei
Ġsal e
Ġsal tou
Ġsal vaÃ§Ã£o
Ġstar tu
Ġglo w
Ġmay be
Ġprodu ce
Ġprodu ction
Ġsur dos
Ġsur fer
Ġalli vio
we ek
Ġdic en
Ġdic cion
Ġsent ou
Ġsent indo
Ġbest as
Ġcostu mava
.Â» --Â«
Ġer rei
Ġsho t
Ġsho ws
issim as
issim os
Ġbab ies
Ġgre w
Ġgre go
Ġgre ek
Ġfalava mos
Ġcx i
Ġcx v
Ġcx vi
Ġcx ix
Ġcx ii
Ġcx li
Ġcx vii
Ġcx viii
Ġcx iv
Ġcx iii
Ġcx liv
Ġcho os
Ġcho ve
Ġcho vendo
Ġcho rasse
Ġcho ices
ĠmÃŃ stico
Ġboc he
Ġanda m
Ġreg iments
Ġreg gae
Ġhou ver
Ġhou vessem
Ġcoun ts
Ġcoun ting
ign e
Ġmark ed
Ġtorn aria
Ġqua il
Ġfoun ded
onta ine
Ġach al
Ġach ando
Ġach Ã¡ra
Ġach illes
Ġacce ital
Ġacce itando
Ġpart y
Ġpart ia
Ġpart ly
Ġnecess ity
Ġnecess Ã¡rio
pi endo
the ir
Ġve llei
Ġbel o
Ġbel ong
Ġimport ancia
cil iaveis
Ġquin to
Ġquar tel
Ġquar esma
Ġmater na
Ġdirec t
Ġhum ano
Ġhum idos
Ġexam inei
Ġdese jar
Ġcorre io
Ġlim pas
Ġcontar ia
Ġenter a
Ġenter rado
Ġenter prise
mail ing
Ġsau dos
Ġvoca tional
Ġpassar o
Ġtw enty
Ġtro Ã§a
Ġtro pel
Ġtro cara
Ġtro vÃ£o
Ġdin ossa
Ġcin ta
Ġcin za
Ġstu ck
Ġstu rdy
Ġban k
Ġban da
Ġestu do
Ġestu dando
Ġestu pido
Ġestu pefac
Ġrel Ã¢
Ġrel iable
Ġdiss erem
Ġdifferent es
Ġfi que
Ġfi eld
Ġfec hal
Ġpapel inho
Ġdefin ici
pla ys
Ġaper tava
Ġaper tei
Ġaper tado
Ġaper tada
Ġocc ur
Ġmi randa
Ġdez eno
Ġdez oito
Ġlou var
Ġform ulei
Ġunder min
Ġrepeti ria
wor ld
inas sem
Ġsc enas
Ġsc ore
Ġsc ena
Ġsc ratch
end ente
Ġfun das
Ġfun ding
Ġfun didas
Ġbar ra
Ġbar bara
Ġconclu i
Ġacu dia
Ġacu disse
Ġlook s
Ġhead s
Ġsimples mente
Ġconfess ando
Ġconfess asse
Ġdorm indo
Ġdorm iu
Ġdorm iam
Ġdorm isse
Ġproblem a
Ġado ra
Ġado pt
Ġagre ed
Ġcres ce
Ġcres cia
Ġcres cidos
Ġcres cente
Ġcres cei
Ġmus ico
Ġmus culos
Ġsil ence
Ġsil very
Ġdevia mos
Ġset t
Ġdown loaded
Ġviver a
Ġorgan iz
Ġescrip tos
Ġatra i
Ġatra ves
Ġsci encia
Ġsci entists
Ġfei j
Ġfei xe
Ġja mais
Ġdesc anÃ§a
Ġdesc rip
Ġatten tion
Ġatten der
Ġatten dia
Ġatten deu
Ġrom peu
Ġrom piendo
Ġfug i
Ġpedir ia
ora rios
Ġagra do
Ġagra dar
Ġpal mo
Ġpal mas
Ġpal pitar
Ġpal hoÃ§a
Ġindi gna
Ġmedia tors
Ġconce ito
Ġconce der
Ġconce iÃ§Ã£o
Ġconce pts
Ġconce bido
Ġhon esti
Ġhon orarios
Ġviu vo
Ġfavor es
Ġexplic am
Ġficar Ã¡
Ġopin ions
Ġagu lha
ĠdÃ¡ rte
Ġfinal ly
Ġlen Ã§ol
Ġlen gth
Ġvar i
Ġvar iar
ula ted
Ġsum ma
Ġsum mary
Ġestre itas
Ġvolta da
Ġvolta ram
Ġplan e
Ġplan et
Ġplan ned
Ġfrance z
Ġcla ras
Ġstr ict
Ġdev ils
Ġincre d
Ġdesco rado
Ġdesco berto
Ġback pack
Ġfeel s
Ġfeel ing
Ġhappen s
iv os
Ġdou rado
Ġcol cha
Ġopera tes
Ġste ps
Ġcontava m
Ġbeh rens
Ġpasse ios
Ġpasse adores
Ġnego ciante
Ġpolit icos
cent ury
Ġeas tern
Ġegu aes
Ġcump riu
Ġpin tar
Ġpin tou
Ġpin turas
Ġlab els
Ġvag os
Ġbre ves
Ġbre ach
Ġgi ft
Ġconversa vam
Ġjus to
Ġrapa da
Ġnetwor king
Ġimagina tion
Ġsmall er
gel o
Ġ5 8
Ġ5 57
Ġ5 48
ĠsÃ© ria
ĠsÃ© stro
Ġnon pro
Ġdem orei
Ġdocum ent
Ġdocum entos
Ġsac ramento
Ġescu te
Ġescu ta
Ġescu tai
Ġescu ridÃ£o
Ġmostra vam
Ġmostra dor
Ġmostra sse
Ġ6 0
Ġ6 5
Ġ6 50
Ġama do
eng ing
Ġlon esome
Ġbal ance
Ġbal anÃ§ado
Ġbal anÃ§o
Ġinten s
Ġinten sos
Ġcompa ral
Ġcompa ravel
.... ?
.... Â»
Ġbella co
Ġ18 2
Ġlear ned
Ġtell ing
Ġguar de
Ġcommer ciante
Ġpublish er
Ġbeij al
ser Ã¡
ww w
Ġ4 00
Ġay y
Ġay ude
Ġtit les
Ġeter nos
Ġeter nas
Ġfin os
Ġfin der
Ġfin eza
Ġfin ezas
Ġlx i
Ġlx v
Ġlx ix
Ġlx iv
Ġanal ogo
Ġoffer eceu
Ġsegre dou
Ġembar go
Ġexc el
Ġperder a
Ġperder am
Ġresol vido
Ġarre gal
Ġescol as
Ġescol hia
Ġobri gou
Ġobri gava
Ġjantar es
Ġergu i
Ġergu er
Ġeconom ia
Ġeconom ias
Ġeconom ics
ire cer
Ġxx i
Ġxx v
Ġxx vi
Ġxx ix
Ġxx ii
Ġxx vii
Ġxx viii
Ġxx iv
Ġxx iii
Ġxxx i
Ġxxx v
Ġxxx vi
Ġxxx ix
Ġxxx ii
Ġxxx vii
Ġxxx viii
Ġxxx iv
Ġxxx iii
Ġty p
Ġty rannos
Ġcxx i
Ġcxx v
Ġcxx vi
Ġcxx ix
Ġcxx ii
Ġcxx vii
Ġcxx viii
Ġcxx iv
Ġcxx iii
Ġcxxx i
Ġcxxx v
Ġcxxx vi
Ġcxxx ix
Ġcxxx ii
Ġcxxx vii
Ġcxxx viii
Ġcxxx iv
Ġcxxx iii
Ġpente ar
Ġlxx v
Ġlxx vi
Ġlxx ix
Ġlxx ii
Ġlxx vii
Ġlxx viii
Ġlxx iv
Ġlxxx i
Ġlxxx v
Ġlxxx vi
Ġlxxx ix
Ġlxxx ii
Ġlxxx vii
Ġlxxx viii
Ġlxxx iv
Ġlxxx iii
Ġesca das
Ġesca pava
Ġencon tre
Ġprogram s
Ġdest inos
Ġpur se
Ġpur ch
Ġteach er
Ġmanag ers
Ġprac tically
Ġbrinc os
Ġagrade ci
Ġagrade cimentos
Ġagrade cimento
crip tion
tter y
Ġmer its
Ġpi ed
Ġpi que
Ġpi ece
Ġnor ms
Ġnor mal
Ġless ons
Ġmeta physica
Ġremo to
Ġremo val
Ġremo tely
Ġconcer tou
Ġmach u
Ġprote cÃ§Ã£o
Ġdescon f
Ġamiz ades
Ġabs or
Ġcontent ou
Ġentender am
Ġsilen cios
Ġnetwork ed
Ġadi ar
Ġadi emos
Ġear ns
Ġelog ia
Ġelog iar
Ġelog iou
Ġelog iado
Ġdevo Ã§Ã£o
Ġdevo tas
Ġdevo rar
Ġbri d
Ġbri an
Ġbol ÃŃvia
del aria
Ġpag asse
Ġens inassem
Ġexten sions
Ġexempl os
Ġtur ned
Ġtur vaÃ§Ã£o
Ġaba tida
Ġaba etÃ©
tric ted
Ġvoltar ia
Ġvoltar ete
Ġpromet te
Ġrepla cing
Ġrelig ion
bi ando
bi elefeld
ex ten
net herlands
Ġtira da
Ġtira va
Ġtira ram
Ġmom entos
Ġfer ro
Ġfer ry
Ġfer nand
Ġfol ia
Ġfol ha
Ġlar gar
Ġlar gos
Ġbad ges
Ġanim al
Ġanim adinha
Ġsecre t
Ġespa irecer
Ġill us
Ġill inois
Ġenvol via
Ġenvol vendo
Ġalter ar
Ġexchan ging
Ġpare Ã§a
Ġpode is
Ġlogar es
Ġleva do
Ġleva ram
Ġorden a
Ġorden ar
Ġpeda gogy
Ġaposto lo
Ġmoder no
Ġmoder aÃ§Ã£o
Ġmoder ator
Ġmoder ated
Ġfur to
Ġtrem ula
Ġdescob riam
Ġmagaz ines
Ġaqu ela
Ġcir cles
Ġbl oc
Ġbl ink
Ġbl asphe
Ġess ence
Ġgr Ã£o
Ġgr itar
Ġalc unha
Ġalc ancei
Ġperio do
Ġperio ds
Ġsuper ior
Ġfala ra
Ġimpos ed
Ġimpos sÃŃvel
Ġarran jar
Ġarran jou
Ġlaw yers
Ġmys tica
Ġsolid ar
Ġxl v
Ġxl vi
Ġxl ix
Ġxl ii
Ġxl vii
Ġxl viii
Ġxl iii
Ġconhecia mos
Ġaborre civel
Ġcatalo go
br ray
Ġaz ues
Ġtele graph
Ġtele phone
Ġder ra
Ġder ived
Ġchora va
Ġchora vam
Ġopen s
Ġopen ing
Ġmic roso
Ġpan cadas
Ġscre ens
ass ar
Ġfaria mos
Ġdec la
Ġdec orou
Ġbes ide
Ġenxu gava
Ġactu ally
Ġacompan hado
Ġacompan hava
Ġacompan hal
Ġfall en
Ġfall ec
Ġimpro ve
Ġimpro ving
Ġimpro ved
Ġimpro vement
Ġimpro prias
Ġescon didas
Ġchega da
Ġchega vam
Ġduvi doso
Ġcurios os
Ġcurios idade
Ġpromp tamente
Ġbrin qued
Ġecclesias tico
Ġecclesias ticos
fa Ã§Ã£o
Ġtri vial
Ġtri umph
Ġev il
Ġev oc
Ġden omina
Ġdim in
Ġdim ension
Ġmol e
Ġmol dura
Ġmol estia
Ġdemora do
Ġdemora da
Ġdemora damente
Ġwo ke
Ġincl inou
Ġincl inava
Ġpade cia
Ġpade cido
Ġpade cimentos
Ġreme dios
Ġcaval heiro
Ġali ke
Ġprox imas
rante e
Ġparti da
Ġparti cipa
Ġparti cipan
Ġteim arem
Ġapparec er
Ġtamb or
Ġprefer ably
Ġrap agÃ£o
Ġcare er
Ġrecon stru
Ġrecon hecer
Ġaccres c
Ġconfir ma
Ġconfir mava
Ġconfir maria
Ġjuram entos
Ġeffecti vely
Ġcyber media
Ġcxl v
Ġcxl vi
Ġcxl ii
Ġcxl vii
Ġcxl viii
Ġcxl iii
Ġphoto copy
Ġaus ente
ĠcÃ³ gelo
ĠmÃ¡ u
Ġstra tegy
Ġdeal t
Ġdeal ing
Ġdepen ding
Ġdepen dent
Ġinvol untaria
Ġcomec e
Ġcommo dity
Ġmed itaÃ§Ã£o
Ġgas taria
Ġgol e
Ġcat holic
Ġconc ordar
Ġconnec tions
Ġconnec tivity
Ġhand s
Ġacostu mar
Ġacostu mando
cara cas
Ġdisfar ce
utar te
Ġrus sian
Ġrun s
Ġrest ituiu
Ġcanta ba
Ġchegar emos
Ġgosta vas
Ġphys ics
Ġphys icas
Ġphys ically
Ġsuspe itas
Ġsuspe itar
Ġpolic ies
Ġrelati vamente
Ġrelati vely
Ġrelations hips
Ġregis tra
Ġclara mente
Ġsugges tion
Ġobriga da
Ġobriga Ã§Ãµes
Ġscreen plays
cul tures
fu jisa
fac es
fac ciÃ³n
fac ilita
Ġtroux esse
Ġtroux eram
Ġeduca Ã§Ã£o
Ġcri ou
Ġcri ei
Ġcri anÃ§as
Ġom is
Ġobede cia
Ġobede cesse
Ġpri ze
Ġsp am
Ġsp ite
Ġsp urring
Ġstor ed
ĠquÃ© da
Ġbrow sing
Ġinti mo
Ġinti mas
Ġintim ou
Ġtocar te
Ġtocar ei
Ġesten de
Ġesten dendo
Ġpagar ia
Ġhor se
Ġhor rivel
Ġhor izon
Ġalu gadas
Ġemp ino
Ġemp urrei
Ġemp allide
Ġsatis faz
Ġsatis faÃ§Ã£o
Ġsatis facciÃ³n
Ġdesp ite
Ġdispos ta
Ġperf is
Ġperf il
Ġsucce der
Ġservi Ã§al
Ġabra Ã§al
Ġlead ing
Ġpux ou
Ġpux al
Ġpux ando
Ġprepar ing
Ġpensa do
ĠroÃ§a vam
Ġcli ff
Ġmonth ly
Ġgenera te
Ġgenera ted
Ġgenera tions
Ġmaintain s
Ġmerec es
Ġmerec em
Ġcustom er
Ġdevagar inho
?Â» --Â«
cri be
dou ble
Ġ7 0
Ġati rou
Ġati rava
Ġeth ics
Ġpall ido
Ġspo ke
Ġspe ar
Ġspe ed
Ġspe eds
Ġbit ter
Ġwan ts
Ġgros sas
Ġrele vaÃ§Ã£o
Ġil uminar
Ġhar m
Ġempre gou
Ġempre gue
Ġdesesper adamente
Ġview ing
Ġcompet ing
Ġcompreh ensÃ£o
Ġabri ra
Ġabri go
Ġlep ido
Ġlep ida
Ġappe al
peu tica
ĠsÃ³s inhos
Ġescra vas
Ġescra vidÃ£o
Ġrecu ou
Ġconfus os
Ġpresent ing
Ġcru z
Ġdistinc ta
Ġaffir mava
Ġaffir maÃ§Ã£o
Ġaffir mou
Ġmetter am
Ġdiscus s
Ġbarri ga
Ġjusti fy
Ġencontra ram
Ġspeak er
Ġcharacter istics
Ġidenti fy
Ġrecogn izing
don de
dist ance
Ġagar rou
Ġagar rar
Ġagar rava
Ġaju dava
Ġaju dal
Ġed f
Ġed ge
Ġced endo
Ġminu cias
Ġsco pe
Ġspec ified
Ġquad ra
Ġquad ros
Ġline ar
Ġbill s
Ġbill ion
Ġinqui eta
Ġinven civel
Ġcomb ination
Ġcomb orÃ§o
Ġrez as
Ġregu ero
Ġrequi res
Ġrepres enta
Ġenc am
Ġale gra
Ġexec utar
Ġexec uÃ§Ã£o
Ġexpan sion
Ġexpan sivo
Ġbell ezas
cap ital
Ġdesap pr
Ġdistra ÃŃ
Ġdistra cÃ§Ãµes
Ġatre via
Ġatal hei
Ġrou bar
Ġrou bo
Ġresul ts
Ġimpor tar
Ġcorrec Ã§Ã£o
Ġcorrec tions
Ġpossu e
Ġrecol her
Ġrecol heu
Ġjohn son
Ġafflic to
Ġafflig ia
Ġafflig iu
Ġxc v
Ġxc vi
Ġxc vii
Ġxc viii
Ġxci i
Ġxci v
Ġxci x
Ġxci ii
Ġinscrip tions
Ġconsegu ir
Ġcommercial ised
Ġexcla mava
Ġexcla mei
Ġarrepen di
Ġarrepen deu
Ġapprender ia
Ġexclus ive
Ġfocus es
Ġequi valent
Ġdan Ã§ar
Ġobl itera
Ġmill ions
Ġsha pe
Ġfri dge
issa ire
Ġdemo rando
Ġvent ures
Ġseem ed
Ġrepar ou
Ġreje itar
Ġreje itei
Ġretur ns
Ġnota ram
Ġconcl usion
Ġmail box
Ġdivi de
Ġnamora do
Ġhos ted
Ġhos pedarias
Ġalhe ia
Ġital ia
Ġital ian
Ġexpen sive
Ġinteress ar
Ġinteress antes
Ġcoll ar
Ġcompl emento
Ġcomprim arios
Ġapr endeu
Ġapr endi
Ġlap is
Ġguide lines
Ġchin s
Ġprem ios
Ġprem issa
Ġcrean ca
Ġcrean cas
Ġrecus ar
Ġrecus aria
Ġvolver Ã©
Ġaffec taÃ§Ã£o
Ġreceber a
Ġassist ia
Ġnumer os
Ġnumer ous
Ġnumer osa
Ġnumer osas
Ġconhecer am
Ġsuppon ho
Ġfamiliar idade
Ġvex ada
Ġvex ado
Ġconstru ir
Ġvagar oso
Ġadmit ia
Ġadmit te
Ġdissimul ou
Ġdissimul ado
ot tawa
Ġequ al
Ġequ ili
Ġpun hado
Ġshar ing
Ġshar ed
Ġdedica toria
Ġwish es
Ġinv ited
Ġinv ented
Ġmex ia
Ġmex ico
Ġtop ic
Ġgem ini
Ġganha va
Ġreb ola
Ġretor quia
Ġnove lle
ĠcaÃŃ do
Ġconvers ar
Ġjaz ia
resse d
Ġemba raÃ§ar
Ġhab itos
Ġexer c
Ġexist em
Ġexist ing
Ġviol Ã£o
Ġcora gem
Ġcoch ilar
Ġcoch ilando
Ġrestric t
Ġcompri das
Ġchu pado
Ġcarry ing
Ġcontribu ted
Ġcontribu tions
Ġmention ed
Ġvoltava m
Ġvoltava mos
Ġconsum er
Ġtru ckload
Ġbookst ores
Ġcrim Ã©a
Ġreceb edor
Ġcaminh ar
Ġcaminh ou
Ġcaminh ando
Ġsuspen sor
Ġsuspen damos
Ġbraz Ã£o
Ġintegra l
Ġculpa da
Ġdownload ing
Ġespecta dor
Ġbuilding s
Ġdrama tica
Ġdrama tur
Ġdrama tically
Ġautoma tically
Ġpermit ted
Ġdesfaz endo
Ġbrasil eiro
pol e
Ġata que
Ġata Ãºde
Ġafr ic
Ġcen ters
Ġpc s
Ġple asure
Ġscis mar
Ġspread ing
qua te
Ġquo te
Ġdeter mine
Ġvan illa
Ġvic ios
Ġvic toria
Ġvad io
Ġvad iaÃ§Ã£o
Ġvad rot
Ġbor ne
Ġwin ner
Ġinci dentes
tech n
tech ie
Ġann unciou
Ġdobra do
Ġdobra va
Ġcab isba
Ġcau tela
Ġdama ge
Ġmag ia
Ġjul es
Ġjul ga
Ġjur is
Ġjur ou
Ġjur Ã¡mos
Ġnamo rava
Ġthough ts
Ġemen dei
Ġprofer ir
Ġfortal ecer
Ġdestr Ã³i
Ġinterac ting
Ġamare llo
Ġren ew
Ġren das
Ġrespe itos
Ġsoce gada
Ġapon tou
Ġapan hou
Ġapal pava
Ġappl ied
Ġappar entemente
ÃŃs sima
Ġbat iam
Ġbat inas
Ġbat tle
jaja jaja
Ġgrav ura
Ġgrav emente
Ġgrav uras
Ġgradua Ã§Ã£o
Ġobj ec
Ġrecei pt
Ġrecei ving
Ġrecebi das
Ġsincer amente
Ġflu x
Ġassus ta
Ġassus tado
Ġassus tada
Ġlevan tava
Ġsubst ancia
Ġinsist ia
Ġsuppor ted
Ġsupplic es
Ġsupplic as
Ġprovider s
Ġmembers hip
Ġconsultan ts
Ġvesti dos
Ġprocura l
Ġcumpri das
Ġbroad en
Ġsuggest Ã£o
Ġreflecti u
Ġmetap horas
Ġalcan Ã§o
Ġalcan Ã§ou
Ġwood en
Ġreproduz iam
Ġinterroga Ã§Ã£o
Ġinterroga tivamente
Ġappear s
Ðµ n
Ġ9 0
Ġav Ã´
Ġep istola
Ġdro p
Ġol vido
Ġol vidar
Ġmiu do
Ġmiu dos
Ġmiu das
Ġsix ty
Ġsinh Ã´
Ġfly ing
Ġfantas ia
Ġdecis ion
Ġdecis iva
Ġdeliver ing
Ġdeliver ed
Ġll ene
Ġll ores
Ġinvent ou
Ġinex pen
Ġinex plica
Ġregar ds
Ġrevol ta
Ġrevol ution
Ġthom as
Ġthom az
Ġthom pson
Ġempres ario
Ġemend ando
Ġemenda dos
trans la
trans mit
Ġexpres sion
Ġextran hos
Ġextre mos
Ġdesvi ou
Ġdesvi ei
Ġdiscre to
Ġcaste llo
cion al
Ġparenta ge
Ġpod ridÃ£o
Ġ12 00
Ġapanha do
Ġapanha dos
Ġallopa tha
Ġprevious ly
Ġcorte jar
Ġrecre io
Ġirre medi
Ġirre versi
Ġirre levant
Ġaccent uando
Ġmalu ca
Ġgrava dor
Ġconsol ava
Ġoppos to
Ġoppos ed
Ġcampa inha
Ġsupp Ãµe
Ġaggra vou
Ġrison ha
Ġgrea test
Ġstudy ing
Ġbibl ia
Ġbibl io
Ġdefiniti vamente
Ġdescan Ã§o
Ġdescan Ã§ar
Ġwarran ty
Ġ185 7
Ġ185 8
Ġ185 9
Ġattribu o
Ġattribu ir
Ġmysterios a
Ġstrateg ies
Ġexcellent issima
Ġcoche ira
Ġadivinha do
Ġadivinha vam
Ġobscu ro
Ġobscu ridade
Ġinvesti ga
Ġbrazil ian
loc al
nan cy
sen eca
wr iting
wr itten
Ġajus te
Ġtas k
Ġtas te
Ġpul so
Ġpil her
Ġsis o
Ġsis ter
Ġsam urai
Ġsna ke
ĠnÃ© on
Ġfas ter
ĠfÃ² ra
Ġdegra u
Ġdegra us
Ġqueim ando
Ġlin das
Ġlec tures
Ġvence dor
Ġblo oms
Ġwire d
Ġwire less
Ġuly sses
Ġge opol
Ġpata mar
Ġpata illot
Ġrepa rava
Ġreac hed
Ġredist ributing
Ġcontes to
Ġconcil iar
Ġencar dido
Ġdivers Ã£o
Ġdivers Ãµes
Ġisp n
Ġacanha da
Ġacanha mento
Ġpropor tion
copy right
Ġvers ic
Ġmue va
Ġmue ve
Ġreno va
Ġrespira va
Ġrespira Ã§Ã£o
Ġlog ica
Ġlog ical
Ġcompos tura
Ġcompos iÃ§Ã£o
Ġlex icons
Ġsob rancel
Ġimprim ir
Ġmovi e
Ġalle gaÃ§Ãµes
Ġarg entinian
Ġnega tiva
Ġcorrig iu
Ġsolic it
Ġtranqu ill
Ġaudio visual
ĠcomeÃ§ amos
Ġsomew here
Ġrival idade
Ġaffor ded
Ġaffor dable
Ġnets cape
comm enda
comm unications
Ġminis tro
Ġmono tonia
Ġsuspi ro
Ġconheci das
ĠfÃ³r mas
Ġlibrari an
web master
Ġtrocar iam
Ġbanal idade
Ġadoec iam
Ġroman ces
Ġestrem ec
Ġbreak through
Ġadequ ada
Ġadequ adas
Ġhomeopa thia
Ġhomeopa tha
Ġdesconfi ar
Ġdesconfi anÃ§a
Ġfolhe ar
Ġfolhe to
Ġinterromp esse
Ġreconcil iar
Ġcomprehen de
Ġconserva torio
Ġadvertis ing
Ġadvertis ement
Ġrepugn ancia
Ġdelicios amente
Ġaprove itou
Ġaprove itei
Ġsublim es
Ġphilosop h
aca dem
bur gh
mit ted
mul her
pp ing
tho log
war ded
Ġapo io
ĠaÃ§o itar
Ġtes timony
Ġtab let
Ġdri ven
Ġdri ves
Ġcra zy
Ġciv il
Ġpet ropol
Ġsina is
Ġnu ca
Ġquant ia
Ġfla t
Ġfix ar
ĠfÃ´ ra
Ġdeta ils
Ġving asse
Ġving anÃ§a
Ġboun ded
Ġblow ing
dob bs
Ġint rigas
Ġinim igo
Ġinim igos
Ġintu ito
Ġanima Ã§Ã£o
Ġangel s
Ġangel es
Ġanony mity
Ġestr Ã©
Ġgan har
Ġgru po
Ġassi duas
Ġreti rou
Ġrever end
Ġreven ue
Ġconnect ing
Ġmax ima
Ġmax imum
Ġmama citas
Ġensa ios
Ġenrich ment
Ġdial ects
research er
Ġhun ch
Ġhun gar
Ġthr ust
Ġthr ush
Ġaco de
Ġaco dem
Ġprocu rei
Ġporto bello
Ġsagra do
Ġbeat les
Ġdesgra Ã§a
Ġdesgra Ã§ado
Ġdescre vem
Ġdescu ido
Ġpern adas
Ġamant issimo
Ġamant issima
Ġcog itei
ĠrÃ© veill
Ġparo chia
Ġcompe tir
Ġcompil ation
Ġcompens ar
aba ixo
ĠcanÃ§a das
Ġuncle ar
Ġarrene go
Ġarrene gar
Ġboy zinho
Ġchall enge
Ġchall enging
Ġking dom
Ġposition s
Ġbapt isado
Ġirr itada
Ġideal istic
Ġpoupa da
Ġconfessa va
Ġroda que
continu e
Ġtranscre ver
Ġaugment ar
Ġclos ely
Ġstation ery
Ġvalu ed
Ġvalu able
Ġaffei Ã§Ãµes
Ġaffei Ã§oando
Ġmista ke
Ġmista kes
Ġfranco is
Ġdomin ance
Ġtorna ram
Ġgather ing
Ġpartners hips
Ġdesej asse
Ġfecha das
Ġscan ned
Ġfunda ment
Ġfunda mental
Ġadop ting
Ġatravess ar
Ġdescober ta
Ġdescober tas
Ġruidos a
Ġcolor ido
Ġdemand ing
Ġguarda da
Ġdifficil mente
Ġanaly se
Ġanaly st
Ġdesconhe cida
Ġdesconfia do
Ġaltern ando
Ġalterna te
Ġderre ou
Ġderre tirte
Ġcathol ica
Ġcathol ico
Ġacostuma dos
Ġreprodu cÃ§Ã£o
Ġregula tions
Ġcomplica va
Ġphenomen on
Ġphenomen al
Ġdetermin ed
Ġannuncia do
Ġdestru ir
Ġassombra Ã§Ã£o
Ġcitiz en
Ġcitiz ens
Ġrestabel ec
Ġintrodu ction
Ġemploy ees
Ġembrul ho
Ġlacun a
Ġlacun as
Ġsussur rava
Ġevangel ho
Ġingenu idade
Ġenthusias mo
Ġenthusias mado
bos ton
dona te
fre e
hon hÃ´
mis sas
offic ial
wo od
Ġara bic
Ġapa ixon
ĠtÃª m
Ġtard ou
Ġtrib un
Ġegy pto
Ġdul cis
Ġdyn am
Ġox ford
Ġmum ps
Ġmoun tains
Ġpit angu
Ġpir ueta
Ġpran to
Ġpira tes
Ġpous ou
ĠpÃ´ z
Ġslo pe
Ġsester cio
quec es
Ġnup cial
Ġquie ta
Ġfad iga
Ġflex ible
Ġvinc ulo
Ġbir thplace
Ġband wid
Ġbigo de
Ġwi der
Ġwid est
Ġincon ciliaveis
Ġinesper ada
Ġincor pora
Ġincons cientemente
Ġutil idade
Ġanto ine
Ġanglo phone
Ġcomfor table
Ġgera do
Ġpaiz agens
Ġpack age
Ġpatern idade
Ġasper eza
Ġassas sina
termin ologies
Ġrede a
Ġredu ces
Ġrecl usÃ£o
Ġreli ed
ĠdoÃ§ ura
Ġconve ying
Ġconfor me
Ġcondu cted
Ġmadu ro
Ġmagn ifico
Ġjer sey
Ġenab led
Ġentr Ã¡mos
Ġenfe ite
Ġenjo y
Ġdialo go
Ġthir d
Ġalt itude
Ġalco hol
Ġempen ho
Ġbeb endo
Ġdesl umbra
Ġdeser to
Ġdesle al
Ġinterrup Ã§Ã£o
Ġinterloc utor
Ġdisfr utarte
Ġperfor med
Ġvill age
Ġviga ira
person al
Ġprome teu
Ġserious ly
Ġamua do
Ġatta ched
Ġcoordina tor
Ġcasti gada
Ġresurrei Ã§Ã£o
cious ness
Ġinternun cio
Ġimpres sion
Ġapol ice
Ġunres tricted
Ġmora vam
Ġargu mentos
Ġarras tado
Ġarvor es
Ġgua rantee
Ġcommand ante
Ġtrave lled
Ġtraba ja
Ġtrafic ante
Ġchance llor
Ġescas sa
Ġprecip itava
Ġpregui Ã§a
Ġbutton s
Ġrab eca
Ġken yon
Ġkni fe
Ġvaz io
Ġposs ess
Ġcontempla Ã§Ã£o
Ġmenin ice
Ġmultiplic ity
Ġvelh ice
Ġaccord ance
Ġaccorda do
Ġcabellei reiro
Ġinstant ane
Ġexplos ion
Ġexplora tion
Ġprince za
Ġsangre i
Ġridic ulas
Ġluci ano
Ġcamar ote
Ġdomina te
Ġsuspira va
market ing
Ġdiscrim inaba
Ġgai ola
Ġgenu ine
Ġmilhar es
Ġrelembra r
Ġkey board
Ġatrap al
Ġfugiti vos
Ġconsequen cias
Ġstead ily
Ġlabora tories
Ġshel ves
Ġdemol issem
Ġaconse lhou
Ġ186 0
Ġaborrec imento
Ġofferec ia
Ġmocet ona
Ġdefunc tos
Ġappren de
Ġpedac inho
Ġtremend ous
ĠalcanÃ§a vam
Ġarranjava mos
Ġtelef one
Ġdesfec ho
Ġdiminu ir
Ġmurmu rando
Ġaustra lia
Ġcorrespond ence
Ġrecommen ded
Ġfrag ile
Ġencobr indo
Ġstop ped
Ġregular ly
Ġexecu tada
Ġdistrah ido
Ġlegit imate
Ġvanish ing
Ġalphabe to
Ġincenti ve
Ġmaluqu ice
Ġredistribu tion
Ġredargu iu
Ġcolumn ist
Ġajoel havam
Ġevalua tion
Ġespontan eamente
Ġrepreh endeu
Ġinterconnec ted
aut oma
aventura dos
colo rado
dand y
fur tive
his toria
hom em
lon don
nou veau
she esh
Ġavent urou
Ġatur dido
Ġawar eness
ĠtÃ¨ m
Ġerec ted
Ġdut ch
Ġdica prio
Ġdja van
inde x
ĠmÃºs ica
Ġmcken na
Ġpando ra
Ġspl it
Ġstro ke
Ġspi ke
Ġshado ws
Ġslings hot
Ġnic he
Ġfie is
Ġdedu c
Ġdepu tado
Ġvind ouras
Ġbeng ala
Ġwides pread
hawa ii
Ġincu tir
Ġinici ou
Ġubiqu itous
teach ers
Ġancia va
Ġancest ors
import ant
Ġmelo dias
Ġsexu al
Ġesbura cando
Ġgri eux
Ġgle aned
Ġgast Ã¡mos
ĠgÃ³s to
Ġgrim es
Ġpair s
Ġasmo dee
Ġrepos itor
Ġretal hos
Ġretir ing
Ġredob rou
Ġign oro
Ġirac ema
electric ite
Ġcatas trophe
Ġcontigu os
Ġmatr imonio
Ġendu ring
Ġenlo queces
Ġenven enadas
Ġenxo val
Ġdidi er
Ġisola ted
matic s
Ġthera peutica
Ġtheres a
Ġalju be
Ġalbu quer
Ġemph as
Ġempha tico
Ġonelo ok
soci ological
Ġextin cto
Ġbeau tiful
Ġdesun iÃ£o
Ġdestem ido
Ġdeseng ano
Ġinterval lo
Ġintermedi aries
Ġdisci plina
Ġdisses te
Ġdisap pe
Ġperfe itissimo
Ġsupre macy
Ġattal i
Ġverific ar
Ġcasuar ina
Ġrhy me
Ġresenti mentos
Ġtubar Ã£o
Ġfavel a
Ġholly wood
Ġsobres alto
Ġsopran o
Ġorph Ã£o
Ġorches tra
Ġortho graphia
Ġimmen sa
Ġappre cia
Ġundes irable
Ġuntou chable
Ġunlim ited
Ġmotiva ciÃ³n
Ġmoham med
Ġalluc ina
Ġarlet te
Ġartis ta
Ġfurios as
Ġtraid or
Ġtravesse iro
Ġboiade iro
Ġchico te
Ġtambi Ã©n
Ġmarcol ini
Ġraja da
Ġralha va
Ġestoma go
Ġkat z
Ġkush al
Ġcarib bean
Ġcarpin teiro
Ġbatt les
Ġaccompan ying
Ġadventu res
Ġgraph ics
Ġgrangi er
Ġpesade lo
Ġtranspar ency
Ġcriti que
Ġprincipa es
ĠlÃ¡cte a
Ġplutar cho
charac ters
Ġmiseric ordia
Ġxero x
Ġpharma cia
Ġafroux ar
Ġafrance zado
Ġrefaz el
Ġmontan has
Ġbuzz ard
Ġdeveloper s
Ġuniversi dades
Ġjuventu de
Ġstream s
Ġespelh inho
Ġdiccion arios
Ġdinossa uros
Ġestupefac Ã§Ã£o
ĠrelÃ¢ mpago
Ġdefinici Ã³n
Ġdezeno ve
Ġindigna Ã§Ã£o
Ġhonesti dade
ĠdÃ¡rte lo
Ġ557 52
Ġ548 30
Ġtyrannos aur
Ġfernand es
Ġmicroso ft
Ġbrinqued os
Ġtriumph almente
Ġparticipan ts
fujisa wa
facilita tor
Ġsatisfaz er
Ġsuspensor ios
Ġcabisba ixo
Ġinexplica veis
Ġirremedi Ã¡vel
Ġirreversi ble
Ġpetropol is
ĠrÃ©veill on
Ġbandwid th
