{"<s>":0,"<pad>":1,"</s>":2,"<unk>":3,"<mask>":4,"!":5,"\"":6,"#":7,"$":8,"%":9,"&":10,"'":11,"(":12,")":13,"*":14,"+":15,",":16,"-":17,".":18,"/":19,"0":20,"1":21,"2":22,"3":23,"4":24,"5":25,"6":26,"7":27,"8":28,"9":29,":":30,";":31,"<":32,"=":33,">":34,"?":35,"@":36,"A":37,"B":38,"C":39,"D":40,"E":41,"F":42,"G":43,"H":44,"I":45,"J":46,"K":47,"L":48,"M":49,"N":50,"O":51,"P":52,"Q":53,"R":54,"S":55,"T":56,"U":57,"V":58,"W":59,"X":60,"Y":61,"Z":62,"[":63,"\\":64,"]":65,"^":66,"_":67,"`":68,"a":69,"b":70,"c":71,"d":72,"e":73,"f":74,"g":75,"h":76,"i":77,"j":78,"k":79,"l":80,"m":81,"n":82,"o":83,"p":84,"q":85,"r":86,"s":87,"t":88,"u":89,"v":90,"w":91,"x":92,"y":93,"z":94,"{":95,"|":96,"}":97,"~":98,"¡":99,"¢":100,"£":101,"¤":102,"¥":103,"¦":104,"§":105,"¨":106,"©":107,"ª":108,"«":109,"¬":110,"®":111,"¯":112,"°":113,"±":114,"²":115,"³":116,"´":117,"µ":118,"¶":119,"·":120,"¸":121,"¹":122,"º":123,"»":124,"¼":125,"½":126,"¾":127,"¿":128,"À":129,"Á":130,"Â":131,"Ã":132,"Ä":133,"Å":134,"Æ":135,"Ç":136,"È":137,"É":138,"Ê":139,"Ë":140,"Ì":141,"Í":142,"Î":143,"Ï":144,"Ð":145,"Ñ":146,"Ò":147,"Ó":148,"Ô":149,"Õ":150,"Ö":151,"×":152,"Ø":153,"Ù":154,"Ú":155,"Û":156,"Ü":157,"Ý":158,"Þ":159,"ß":160,"à":161,"á":162,"â":163,"ã":164,"ä":165,"å":166,"æ":167,"ç":168,"è":169,"é":170,"ê":171,"ë":172,"ì":173,"í":174,"î":175,"ï":176,"ð":177,"ñ":178,"ò":179,"ó":180,"ô":181,"õ":182,"ö":183,"÷":184,"ø":185,"ù":186,"ú":187,"û":188,"ü":189,"ý":190,"þ":191,"ÿ":192,"Ā":193,"ā":194,"Ă":195,"ă":196,"Ą":197,"ą":198,"Ć":199,"ć":200,"Ĉ":201,"ĉ":202,"Ċ":203,"ċ":204,"Č":205,"č":206,"Ď":207,"ď":208,"Đ":209,"đ":210,"Ē":211,"ē":212,"Ĕ":213,"ĕ":214,"Ė":215,"ė":216,"Ę":217,"ę":218,"Ě":219,"ě":220,"Ĝ":221,"ĝ":222,"Ğ":223,"ğ":224,"Ġ":225,"ġ":226,"Ģ":227,"ģ":228,"Ĥ":229,"ĥ":230,"Ħ":231,"ħ":232,"Ĩ":233,"ĩ":234,"Ī":235,"ī":236,"Ĭ":237,"ĭ":238,"Į":239,"į":240,"İ":241,"ı":242,"Ĳ":243,"ĳ":244,"Ĵ":245,"ĵ":246,"Ķ":247,"ķ":248,"ĸ":249,"Ĺ":250,"ĺ":251,"Ļ":252,"ļ":253,"Ľ":254,"ľ":255,"Ŀ":256,"ŀ":257,"Ł":258,"ł":259,"Ń":260,"Ġa":261,"Ġt":262,"Ġe":263,"Ġd":264,"Ġc":265,"Ġo":266,"in":267,"Ġm":268,"Ġp":269,"er":270,"Ġs":271,"ra":272,"es":273,"qu":274,"Ġn":275,"en":276,"as":277,"os":278,"he":279,"Ġqu":280,"or":281,"Ġf":282,"is":283,"ar":284,"on":285,"Ã£":286,"an":287,"Ġde":288,"it":289,"re":290,"čĊ":291,"Ã£o":292,"Ġque":293,"Ġl":294,"ou":295,"Ġthe":296,"om":297,"al":298,"Ġv":299,"Ġb":300,"Ġw":301,"ia":302,"do":303,"ha":304,"Ġin":305,"em":306,"Ġu":307,"ti":308,"te":309,"Ġan":310,"ll":311,"ro":312,"Ġcom":313,"ta":314,"da":315,"im":316,"ĠnÃ£o":317,"Ġof":318,"gu":319,"Ã©":320,"Ġme":321,"se":322,"ic":323,"de":324,"Ã§":325,"Ġse":326,"Ġto":327,"Ġes":328,"Ġum":329,"to":330,"Ġg":331,"va":332,"Ġpa":333,"Ġand":334,"Ġas":335,"ing":336,"Ã¡":337,"ter":338,"Ġre":339,"ec":340,"Ġi":341,"Ġdo":342,"ho":343,"Ġou":344,"--":345,"Ġno":346,"el":347,"Ġca":348,"Ġda":349,"Ġcon":350,"Ġma":351,"me":352,"us":353,"ĠÃ©":354,"Ġ--":355,"Ġj":356,"Ġy":357,"ri":358,"Ġen":359,"Ġdi":360,"..":361,"ol":362,"ent":363,"tion":364,"et":365,"res":366,"ce":367,"ve":368,"Ġna":369,"Ġis":370,"Ġeu":371,"ma":372,"ul":373,"Ġh":374,"Ġth":375,"Ġal":376,"Ġem":377,"il":378,"Ġos":379,"Ġera":380,"Ġ(":381,"ed":382,"ei":383,"Ġac":384,"Ġpro":385,"ver":386,"inha":387,"am":388,"Ġpor":389,"Ġmas":390,"ir":391,"tu":392,"Ġit":393,"go":394,"Ġon":395,"ando":396,"Ġha":397,"io":398,"Ġpara":399,"tra":400,"sa":401,"hat":402,"ente":403,"so":404,"le":405,"Ġyou":406,"Ġfor":407,"Ġsa":408,"Ã§Ã£o":409,"Ġex":410,"Ġbe":411,"Ġwe":412,"ca":413,"ch":414,"vi":415,"Ã³":416,"Ġdes":417,"Ġinter":418,"Ġuma":419,"th":420,"Ġell":421,"ag":422,"Ġdis":423,"Ġper":424,"ran":425,"ĠčĊ":426,"un":427,"Ġcap":428,"Ġvi":429,"ly":430,"Ġsu":431,"per":432,"Ġpr":433,"Ġmais":434,"po":435,"Ã§a":436,"oc":437,"Ãº":438,"Ġcomo":439,"Ġser":440,"Ġam":441,"co":442,"Ġat":443,"Ġcapit":444,"um":445,"Ġao":446,"ez":447,"la":448,"ber":449,"ith":450,"Ġthat":451,"ad":452,"Ġsem":453,"...":454,"Ġco":455,"Ġver":456,"Ġminha":457,"que":458,"Ġmu":459,"st":460,"ess":461,"Ġwith":462,"lh":463,"Ġcas":464,"ut":465,"Ġr":466,"Ġres":467,"ito":468,"pa":469,"iz":470,"ĠÃ¡":471,"ci":472,"Ġpar":473,"angu":474,"ten":475,"ĠcapitÃº":476,"Ġli":477,"Ġtu":478,"Ġwor":479,"Ãª":480,"tar":481,"Ġpo":482,"'s":483,"dade":484,"Ġ1":485,"Ġfo":486,"Ġ[":487,"Ġlo":488,"Ġintern":489,"ga":490,"mo":491,"ras":492,"Ġweb":493,"Ġcomp":494,"Ġab":495,"for":496,"di":497,"anguag":498,"ab":499,"Ġle":500,"Ġwh":501,"mente":502,"tr":503,"ong":504,"Ã£e":505,"gh":506,"Ġmor":507,"Ġfa":508,"ica":509,"Ġho":510,"Ġso":511,"Ġlanguag":512,"ion":513,"Ġor":514,"Ġtem":515,"Ġcan":516,"Ġpu":517,"Ġinternet":518,"Ġfr":519,"Ġpe":520,"mos":521,"Ġfal":522,"ted":523,"der":524,"ew":525,"ill":526,"Ġte":527,"Ġtudo":528,"dos":529,"tes":530,"Ġim":531,"sim":532,"Ġap":533,"ere":534,"ld":535,"lhe":536,"ina":537,"Ġun":538,"pe":539,"Ġ=":540,"Ġsen":541,"Ġnos":542,"Ġlong":543,"Ġmes":544,"Ġnem":545,"Ġalgu":546,"Ġare":547,"Ġfoi":548,"Ġdiz":549,"Ġmo":550,"Ġter":551,"ĠsÃ³":552,"ix":553,"Ġall":554,"ĠmÃ£e":555,"ingu":556,"Ġman":557,"Ġlhe":558,"tava":559,"ocÃª":560,"Ġelle":561,"du":562,"ts":563,"Ġar":564,"Ġpas":565,"Ġla":566,"lla":567,"cia":568,"ff":569,"Ġgu":570,"Ġfu":571,"Ġcou":572,"Ġolh":573,"Ġcomm":574,"Ġtra":575,"Ġbo":576,"Ġquando":577,"pl":578,"tro":579,"Ġmeu":580,"vel":581,"Ġch":582,"ke":583,"Ġvez":584,"qui":585,"Ġdos":586,"Ġthis":587,"Ġtam":588,"be":589,"Ġquer":590,"ĠvocÃª":591,"ge":592,"Ġmy":593,"Ġesc":594,"Ġent":595,"bem":596,"Ġwill":597,"Ġoutra":598,"Ġcasa":599,"out":600,"ther":601,"dia":602,"Ġpre":603,"ala":604,"Ġdias":605,"ant":606,"ome":607,"Ġhave":608,"Ġella":609,"lo":610,"ite":611,"ig":612,"Ġmar":613,"tic":614,"ur":615,"Ġprim":616,"ram":617,"Ġmim":618,"Ġwhat":619,"ava":620,"esse":621,"no":622,"ÃŃ":623,"Ġ\"":624,"Ġhe":625,"Ġdisse":626,"forma":627,"das":628,"est":629,"bra":630,"pois":631,"Ġby":632,"Ġbut":633,"Ã§o":634,"ok":635,"Ġmul":636,"ect":637,"Ġyour":638,"Ġtambem":639,"formation":640,"xx":641,"ust":642,"endo":643,"Ġassim":644,"Ġfrom":645,"Ġra":646,"Ġcre":647,"Ġinformation":648,"Ġest":649,"anto":650,"ity":651,"ine":652,"ĠjÃ¡":653,"Ġolhos":654,"Ġwork":655,"Ġlanguage":656,"Ġne":657,"ria":658,"Ãµ":659,"inda":660,"Ġk":661,"99":662,"ah":663,"ira":664,"ish":665,"Ġago":666,"ita":667,"op":668,"Ġcar":669,"inho":670,"Ġmuito":671,"bl":672,"Ġcor":673,"osÃ©":674,"ght":675,"Ġnot":676,"Ãµes":677,"Ġtinha":678,"Ġhas":679,"gar":680,"ĠjosÃ©":681,"Ġfaz":682,"tor":683,"Ġdepois":684,"00":685,"Ġva":686,"idade":687,"Ġpos":688,"Ġia":689,"ay":690,"Ġhow":691,"Ġagora":692,"'t":693,"Ġpel":694,"lle":695,"ers":696,"and":697,"ies":698,"vo":699,"Ġdia":700,"Ġcos":701,"Ġpra":702,"gun":703,"tura":704,"Ġdas":705,"des":706,"via":707,"Ġainda":708,"Ġpen":709,"Ġuse":710,"Ġcont":711,"tions":712,"rou":713,"ĠtÃ£o":714,"Ġche":715,"Ġfil":716,"all":717,"Ġgo":718,"ias":719,"Ġmen":720,"Ġproj":721,"Ġmore":722,"eu":723,"ink":724,"si":725,"Ġtal":726,"Ġnada":727,"ence":728,"Ġtempo":729,"bar":730,"Ġ2":731,"ind":732,"inar":733,"Ġcop":734,"Ġoh":735,"Ġmesmo":736,"cl":737,"Ġpala":738,"Ġus":739,"Ġpalav":740,"ich":741,"ture":742,"nos":743,"Ġba":744,"Ġwas":745,"Ġrec":746,"asse":747,"Ġabout":748,"Ġmulti":749,"Ġir":750,"pos":751,"Ġdu":752,"Ġsol":753,"one":754,"Ġvis":755,"ua":756,"ento":757,"ous":758,"Ġvel":759,"Ġpad":760,"Ġacc":761,"pre":762,"Ġad":763,"Ġvol":764,"Ġone":765,"cer":766,"gra":767,"Ġmal":768,"Ġide":769,"Ġ199":770,"igo":771,"Ġother":772,"bo":773,"ial":774,"Ġeng":775,"ĠatÃ©":776,"gre":777,"Ġel":778,"oun":779,"Ġesta":780,"mas":781,"Ġtran":782,"Ġpou":783,"ingual":784,"ba":785,"Ġti":786,"Ġbec":787,"Ġsee":788,"Ġlanguages":789,"Â«":790,"olo":791,"Ġpadre":792,"por":793,"ist":794,"view":795,"Ġcopy":796,"ja":797,"ment":798,"Â»":799,"Ġta":800,"Ġprimei":801,"hn":802,"na":803,"pon":804,"Ġsim":805,"Ġgra":806,"ulo":807,"ido":808,"nÃ£o":809,"Ġped":810,"Ġfe":811,"ven":812,"Ġconf":813,"Ġcons":814,"Ġproject":815,"ear":816,"ĠÂ«":817,"indo":818,"Ġdeix":819,"Ġour":820,"Ġjust":821,"Ġwhich":822,"Ġdizer":823,"iu":824,"Ġsome":825,"raÃ§Ã£o":826,"Ġvo":827,"Ã§Ãµes":828,"Ġestava":829,"cobar":830,"berg":831,"tenberg":832,"lingual":833,"pec":834,"Ġro":835,"ting":836,"Ġdon":837,"Ġcer":838,"inh":839,"Ġfez":840,"right":841,"Ġvida":842,"Ġgran":843,"Ġoutro":844,"Ġeram":845,"Ġmultilingual":846,"ida":847,"pen":848,"tas":849,"Ġcha":850,"Ġescobar":851,"id":852,"ii":853,"tal":854,"Ġcu":855,"Ġsab":856,"Ġseminar":857,"con":858,"ros":859,"Ġany":860,"ico":861,"Ġpergun":862,"sion":863,"Ġ*":864,"pres":865,"ves":866,"Ġpes":867,"Ġpres":868,"Ġthere":869,"Ġacab":870,"Ġprom":871,"Ġgutenberg":872,"Ġtrans":873,"era":874,"ard":875,"ante":876,"Ġlem":877,"Ġbem":878,"Ġcabe":879,"Ġhom":880,"Ġworld":881,"ĠentÃ£o":882,"iam":883,"rio":884,"pan":885,"tou":886,"Ġparec":887,"Ġpeop":888,"Ġpeople":889,"cis":890,"Ġnew":891,"Ġquiz":892,"Ġjo":893,"Ġporque":894,"par":895,"Ġtr":896,"Ġfos":897,"Ġcousa":898,"olog":899,"ac":900,"wn":901,"ese":902,"Ġbook":903,"sas":904,"Ġten":905,"Ġentre":906,"ces":907,"fr":908,"fer":909,"Ġau":910,"Ġaqui":911,"inal":912,"ould":913,"bre":914,"fe":915,"fic":916,"lish":917,"tos":918,"Ġaos":919,"Ġcl":920,"Ġmos":921,"Ġthey":922,"Ġmelh":923,"Ġgos":924,"Ġthink":925,"Ġmelhor":926,"ary":927,"ios":928,"Ġcome":929,"Ġeste":930,"cre":931,"ze":932,"Ã´":933,"inu":934,"Ġantes":935,"Ġisto":936,"Ġpubl":937,"Ġsi":938,"oria":939,"Ġesper":940,"verso":941,"Ġpodia":942,"ble":943,"ive":944,"jo":945,"ns":946,"Ġtheir":947,"Ġinst":948,"Ġverdade":949,"tural":950,"),":951,"Ġ_":952,"Ġcr":953,"ĠpÃ³":954,"Ġoutr":955,"Ġexpl":956,"Ġkno":957,"ura":958,"Ġob":959,"hei":960,"our":961,"Ġif":962,"Ġprin":963,"ation":964,"âĢ":965,"ally":966,"Ġdiff":967,"Ġprof":968,"Ġexper":969,"Ġseminario":970,"ach":971,"Ġfic":972,"Ġrua":973,"Ġlogo":974,"Ġcopyright":975,"Ġpesso":976,"Ġfosse":977,"ench":978,"aria":979,"Ġenglish":980,"pro":981,"use":982,"Ġdella":983,"Ġouvi":984,"Ġfilho":985,"Ġpalavras":986,"Ġideia":987,"ges":988,"ĠpÃ©":989,"Ġdeus":990,"Ġsei":991,"Ġlike":992,"Ġwebs":993,"Ġtim":994,"ĠsÃ£o":995,"ĠlÃ¡":996,"Ġjan":997,"Ġentra":998,"Ġwhen":999,"Ġpouco":1000,"Ġcal":1001,"Ġamor":1002,"Ġpass":1003,"Ġgrande":1004,"Ġoutros":1005,"Ġtec":1006,"inter":1007,"Ġsan":1008,"deu":1009,"Ġnow":1010,"rib":1011,"Ġsenti":1012,"Ġcrea":1013,"Ġknow":1014,").":1015,"iqu":1016,"Ġsta":1017,"Ġwho":1018,"row":1019,"Ġtodo":1020,"Ġcompu":1021,"Ġfrench":1022,"Ġtransla":1023,"ck":1024,"Ġnas":1025,"Ġdef":1026,"Ġtodos":1027,"undo":1028,"able":1029,"Ġhomem":1030,"hÃ£":1031,"ys":1032,"anÃ§a":1033,"emos":1034,"Ġcompan":1035,"ĠestÃ¡":1036,"ĠpÃ³de":1037,"Ġtar":1038,"Ġquem":1039,"Ġvir":1040,"Ġbr":1041,"Ġway":1042,"tei":1043,"vam":1044,"ĠÃ¡s":1045,"Ġsom":1046,"ast":1047,"Ġannos":1048,"Ã§as":1049,"Ġseu":1050,"Ġpae":1051,"Ġfalar":1052,"Ġalguma":1053,"Ġprofess":1054,"dit":1055,"hor":1056,"pr":1057,"pu":1058,"Ġpl":1059,"ites":1060,"ĠcoraÃ§Ã£o":1061,"tron":1062,"clu":1063,"Ġcomputer":1064,"ie":1065,"ĠmÃ£o":1066,"Ġval":1067,"Ġup":1068,"Ġdist":1069,"ds":1070,"dar":1071,"Ġaff":1072,"Ġfiz":1073,"Ġhis":1074,"Ġbeen":1075,"quella":1076,"Ġliv":1077,"Ġwhere":1078,"Ġbeca":1079,"cha":1080,"ph":1081,"val":1082,"za":1083,"Ġtanto":1084,"Ġgl":1085,"Ġrece":1086,"Ġcontra":1087,"Ġnatural":1088,"gado":1089,"ional":1090,"Ġpela":1091,"Ġtechn":1092,"'m":1093,"ide":1094,"Ġce":1095,"Ġop":1096,"Ġmis":1097,"encia":1098,"Ġfran":1099,"itu":1100,"refr":1101,"Ġtoda":1102,"ular":1103,"dor":1104,"son":1105,"Ġri":1106,"Ġdar":1107,"asi":1108,"Ġwr":1109,"llas":1110,"ectron":1111,"Ġeuro":1112,"vers":1113,"Ġcommun":1114,"Ġprecis":1115,"ĠcabeÃ§a":1116,"bal":1117,"ding":1118,"Ġx":1119,"Ġsin":1120,"Ġlu":1121,"Ġseus":1122,"Ġesqu":1123,"Ġpassa":1124,"Ġcontinu":1125,"Ġelectron":1126,"Ġceu":1127,"Ġpon":1128,"Ġsou":1129,"Ġfir":1130,"Ã©m":1131,"Ġisso":1132,"Ã³s":1133,"Ġvery":1134,"Ġcommigo":1135,"Ġexperi":1136,"interview":1137,"Ġelectronic":1138,"dic":1139,"eah":1140,"her":1141,"Ġph":1142,"itta":1143,"Ġthem":1144,"Ġanitta":1145,"Ġmeus":1146,"hora":1147,"Ġalguns":1148,"port":1149,"refrÃ£o":1150,"vesse":1151,"Ġah":1152,"Ġsy":1153,"Ġfl":1154,"ance":1155,"rec":1156,"Ġbas":1157,"Ġcam":1158,"Ġtex":1159,"Ġtime":1160,"Ġ-":1161,"Ġaf":1162,"Ġdom":1163,"Ġmundo":1164,"Ġnet":1165,"oro":1166,"Ġfim":1167,"Ġlingu":1168,"Ġbus":1169,"Ġtodas":1170,"Ġass":1171,"Ġalso":1172,"Ġsempre":1173,"Ġfuture":1174,"Ġexperience":1175,"line":1176,"Ġdous":1177,"ero":1178,"Ġbon":1179,"Ġmet":1180,"Ġref":1181,"Ġrep":1182,"Ġthese":1183,"Ġonly":1184,"Ġsua":1185,"Ġlev":1186,"Ġnossa":1187,"Ġtraz":1188,"ada":1189,"com":1190,"har":1191,"ow":1192,"pt":1193,"Ġcur":1194,"Ġmin":1195,"Ġmon":1196,"Ġfel":1197,"Ġvia":1198,"Ġrespon":1199,"xxx":1200,"Ġfazer":1201,"Ġmenos":1202,"Ġdiffer":1203,"ior":1204,"Ġqual":1205,"Ġgrow":1206,"rip":1207,"Ġthan":1208,"Ġprop":1209,"Ġporta":1210,"Ġsaber":1211,"Ġchan":1212,"ology":1213,"dem":1214,"king":1215,"ru":1216,"ry":1217,"sos":1218,"Ġsus":1219,"enti":1220,"itas":1221,"Ġbra":1222,"ded":1223,"Ġdig":1224,"Ġprima":1225,"Ġbecause":1226,"Ġgloria":1227,"mÃ£e":1228,"sem":1229,"âĦ":1230,"Ġtio":1231,"Ġnum":1232,"ano":1233,"Ġven":1234,"Ġbent":1235,"eira":1236,"Ġsub":1237,"quelle":1238,"Ġfui":1239,"Ġwebsite":1240,"Ġcommunica":1241,"âĦ¢":1242,"Ġbentinho":1243,"ft":1244,"Ġson":1245,"Ġfind":1246,"are":1247,"ans":1248,"Ġdeu":1249,"Ġalgum":1250,"Ġcosme":1251,"ound":1252,"earch":1253,"ado":1254,"car":1255,"vic":1256,"zes":1257,"Ġfre":1258,"itor":1259,"Ġwould":1260,"Ġesti":1261,"Ġperson":1262,"unca":1263,"Ġmesma":1264,"Ġoutras":1265,"000":1266,"Ġpossi":1267,"Ġpalavra":1268,"Ġjustina":1269,"Ġtarde":1270,"at":1271,"gou":1272,"mar":1273,"vis":1274,"Ġtor":1275,"Ġpol":1276,"Ġpla":1277,"ens":1278,"Ġvou":1279,"Ġins":1280,"Ġinte":1281,"Ġget":1282,"Ġreal":1283,"Ġread":1284,"Ġconhe":1285,"Ġits":1286,"Ġsup":1287,"Ġimag":1288,"Ġqueria":1289,"Ġlembra":1290,"Ġ&":1291,"Ġag":1292,"Ġningu":1293,"rei":1294,"Ġges":1295,"Ġlife":1296,"Ġsenhor":1297,"Ġduas":1298,"Ġbooks":1299,"az":1300,"uma":1301,"vol":1302,"Ġeze":1303,"eram":1304,"quen":1305,"Ã£os":1306,"Ġbu":1307,"Ġinf":1308,"tain":1309,"Ġprovi":1310,"Ġresearch":1311,"dua":1312,"quiel":1313,"Ġmost":1314,"Ġprofessional":1315,"Ġezequiel":1316,"Ġtom":1317,"Ġever":1318,"Ġcul":1319,"ino":1320,"enh":1321,"Ġfica":1322,"tado":1323,"guei":1324,"ical":1325,"Ġout":1326,"Ġyeah":1327,"Ġenten":1328,"ents":1329,"Ġonde":1330,"Ġinterview":1331,"pera":1332,"cip":1333,"Ġlove":1334,"Ġquero":1335,"Ġpelo":1336,"Ġpens":1337,"Ġaccess":1338,"Ġprimeiro":1339,"inhas":1340,"Ġwrit":1341,"ps":1342,"way":1343,"Ġmem":1344,"Ġsor":1345,"Ġsoc":1346,"essa":1347,"Ġnunca":1348,"Ġdevel":1349,"itar":1350,"till":1351,"Ġgente":1352,"Ġrela":1353,"Ġ---":1354,"Ġdisc":1355,"Ġresto":1356,"Ġuni":1357,"Ġvai":1358,"Ġfirst":1359,"cio":1360,"lha":1361,"min":1362,"ped":1363,"su":1364,"Ġstill":1365,"Ġnenh":1366,"Ġqui":1367,"Ġdeba":1368,"gue":1369,"Ã¡ra":1370,"Ã¡mos":1371,"ters":1372,"Ġyear":1373,"amente":1374,"Ġgrowth":1375,",--":1376,"cc":1377,"gan":1378,"lti":1379,"let":1380,"ton":1381,"Ġdent":1382,"Ġcent":1383,"Ġover":1384,"ĠnÃ³s":1385,"iste":1386,"Ġulti":1387,"tim":1388,"Ġsegu":1389,"Ġga":1390,"Ġgen":1391,"Ġnoite":1392,"Ġju":1393,"ola":1394,"ilable":1395,"Ġnosso":1396,"Ġworks":1397,"Ġtenho":1398,"Ġtechnology":1399,"Ġdevelop":1400,"gem":1401,"li":1402,"ning":1403,"Ġeff":1404,"Ġora":1405,"Ġst":1406,"ase":1407,"Ġlic":1408,"Ġbom":1409,"ement":1410,"tiv":1411,"Ã§os":1412,"Ġesp":1413,"tional":1414,"Ġpartic":1415,"Ġpequen":1416,"Ġdizia":1417,"ĠmanhÃ£":1418,"rough":1419,"Ġusing":1420,"Ġ1998":1421,"Ġlemb":1422,"Ġesquec":1423,"hos":1424,"Ġava":1425,"Ġsh":1426,"osto":1427,"ord":1428,"istic":1429,"itos":1430,"ited":1431,"Ġvei":1432,"tir":1433,"tive":1434,"tamente":1435,"ima":1436,"Ã¡s":1437,"Ġelles":1438,"bers":1439,"Ġescre":1440,"Ġprincip":1441,"Ġpessoa":1442,"iquei":1443,"Ġgesto":1444,"ct":1445,"has":1446,"Ġtre":1447,"Ġdor":1448,"Ġcy":1449,"ĠmÃ£os":1450,"ose":1451,"ĠfÃ³":1452,"Ġinto":1453,"Ġestar":1454,"Ġonline":1455,"stem":1456,"Ġlibra":1457,"Ġsobre":1458,"Ġneed":1459,"book":1460,"Ġvoz":1461,"Ġsystem":1462,"Ġparticular":1463,"Ġavailable":1464,"eg":1465,"rar":1466,"esta":1467,"iti":1468,"Ġlit":1469,"Ġoffic":1470,"Ġsec":1471,"Ġmain":1472,"Ġjun":1473,"Ġalma":1474,"Ġbeing":1475,"Ġamar":1476,"Ġamigo":1477,"graph":1478,"Ġprimeira":1479,"pressa":1480,"ribu":1481,"Ġsince":1482,"Ġevery":1483,"ms":1484,"od":1485,"Ġmil":1486,"ission":1487,"Ġdepressa":1488,"Ġsegun":1489,"vamente":1490,"Ġpadua":1491,"Ġthrough":1492,"Ġacha":1493,"Ġhavia":1494,"Ġsabe":1495,"Ġcapitulo":1496,"ados":1497,"Ġris":1498,"Ġvezes":1499,"Ġraz":1500,"Ġconsul":1501,"Ġ/":1502,"Ġsal":1503,"Ġstar":1504,"Ġsite":1505,"ana":1506,"Ġves":1507,"Ġanti":1508,"Ġglo":1509,"Ġmay":1510,"Ġprodu":1511,"amos":1512,"rando":1513,"Ġsur":1514,"Ġservic":1515,"Ġalli":1516,"Ġcreio":1517,"Ġcedo":1518,"Ġdentro":1519,"vor":1520,"we":1521,"Ġ#":1522,"Ġdic":1523,"Ġsent":1524,"Ġsala":1525,"enta":1526,"Ġdelle":1527,"Ġvinha":1528,"Ġbest":1529,"lles":1530,"Ġmade":1531,"ĠmamÃ£e":1532,"Ġend":1533,"ile":1534,"Ġcostu":1535,"Ġeurope":1536,".Â»":1537,"je":1538,"ses":1539,"ware":1540,"Ġer":1541,"Ġeven":1542,"Ġsho":1543,"quer":1544,"Ġnec":1545,"Ġfam":1546,"ism":1547,"issim":1548,"Ġbab":1549,"Ġgre":1550,"ely":1551,"Ġcara":1552,"Ġdid":1553,"Ġachei":1554,"Ġsuch":1555,"ump":1556,"Ġfalava":1557,"pecial":1558,"Ġtranslation":1559,"hi":1560,"tando":1561,"Ġ'":1562,"Ġcx":1563,"Ġcho":1564,"ĠmÃŃ":1565,"antes":1566,"Ġboc":1567,"Ġanda":1568,"Ġmeio":1569,"sel":1570,"Ġreg":1571,"rig":1572,"Ġhou":1573,"Ġwithout":1574,"utos":1575,"fore":1576,"Ġputa":1577,"Ġmany":1578,"Ġcoun":1579,"ign":1580,"Ġmark":1581,"Ġvae":1582,"Ġused":1583,"Ġperguntou":1584,"Ã´r":1585,"Ġnaturalmente":1586,"Ġtorn":1587,"Ġshould":1588,"ĠfÃ³ra":1589,"ĠrazÃ£o":1590,"Ġfamil":1591,"cu":1592,"cto":1593,"ving":1594,"vent":1595,"Ġ3":1596,"Ġeach":1597,"inte":1598,"oso":1599,"Ġqua":1600,"Ġfoun":1601,"ise":1602,"onta":1603,"ough":1604,"Ġbet":1605,"Ġpaper":1606,"Ġouv":1607,"vez":1608,"mava":1609,"Ġach":1610,"Ġacce":1611,"Ġsair":1612,"thor":1613,"thing":1614,"adas":1615,"Ġmuch":1616,"Ġcaso":1617,"Ġpart":1618,"Ġsoft":1619,"Ġsenhora":1620,"Ġmulher":1621,"Ġvelho":1622,"Ġpessoas":1623,"Ġveiu":1624,"Ġnecess":1625,"les":1626,"pi":1627,"pel":1628,"ple":1629,"rim":1630,"the":1631,"Ġahn":1632,"hed":1633,"Ġlet":1634,"Ġve":1635,"Ġbel":1636,"Ġinclu":1637,"ings":1638,"Ġrepe":1639,"Ġyo":1640,"ceu":1641,"pace":1642,"Ġpoder":1643,"Ġimport":1644,"Ġalgumas":1645,"Ġcerto":1646,"Ġentrar":1647,"Ġsancha":1648,"versity":1649,"Ġpreciso":1650,"Ġchange":1651,"cil":1652,"Ġet":1653,"Ġele":1654,"Ġown":1655,"Ġquin":1656,"Ġquar":1657,"ital":1658,"Ġlink":1659,"Ġbei":1660,"imme":1661,"Ġgimme":1662,"Ġmater":1663,"Ġdirec":1664,"Ġhum":1665,"Ġhad":1666,"Ġexam":1667,"cado":1668,"Ġdese":1669,"Ġsuas":1670,"Ġseria":1671,"Ġmorte":1672,"ixo":1673,"ples":1674,"Ġcorre":1675,"Ġfeliz":1676,"Ġbocca":1677,"dio":1678,"rer":1679,"Ġaquella":1680,"Ġolha":1681,"inc":1682,"eral":1683,"ral":1684,"hey":1685,"Ġquasi":1686,"ities":1687,"Ġlim":1688,"ember":1689,"Ġmeans":1690,"Ġcontar":1691,"ries":1692,"Ġenter":1693,"mail":1694,"Ġhaver":1695,"lex":1696,"Ġsau":1697,"Ġexac":1698,"Ġparte":1699,"Ġimper":1700,"Ġuns":1701,"Ġtalvez":1702,"Ġvoca":1703,"âĢĻ":1704,"Ġpassar":1705,"Ġdebate":1706,"Ġbaby":1707,"ap":1708,"jor":1709,"man":1710,"sÃ£o":1711,"ty":1712,"ws":1713,"Ġtw":1714,"Ġtro":1715,"Ġtres":1716,"Ġela":1717,"Ġdin":1718,"Ġcin":1719,"Ġstu":1720,"enas":1721,"isse":1722,"isto":1723,"Ġban":1724,"Ã§ar":1725,"Ġestu":1726,"Ġrel":1727,"Ġdava":1728,"usÃ£o":1729,"Ġdigo":1730,"Ġbefore":1731,"Ġwell":1732,"Ġdiss":1733,"Ġcould":1734,"Ġfilha":1735,"Ġauthor":1736,"Ġjane":1737,"Ġdifferent":1738,"Ġyears":1739,"Ġlibrary":1740,"cum":1741,"dy":1742,"fi":1743,"iÃ§Ã£o":1744,"iga":1745,"vocÃª":1746,"Ġz":1747,"Ġcem":1748,"Ġmust":1749,"ene":1750,"Ġfi":1751,"Ġfec":1752,"Ġbi":1753,"lly":1754,"Ġpapel":1755,"Ġdata":1756,"Ġya":1757,"Ġthen":1758,"eza":1759,"Ġmuita":1760,"cias":1761,"Ġpois":1762,"pea":1763,"Ġlonge":1764,"duca":1765,"log":1766,"Ġgot":1767,"Ġpromessa":1768,"Ġclar":1769,"Ġdefin":1770,"Ġvirtu":1771,"Ġtrazia":1772,"cos":1773,"pla":1774,"Ġke":1775,"Ġaper":1776,"ĠtÃº":1777,"Ġocc":1778,"Ġmi":1779,"Ġminhas":1780,"rava":1781,"Ġfiquei":1782,"Ġdez":1783,"Ġlou":1784,"sei":1785,"Ġpapa":1786,"Ġpages":1787,"Ġcabra":1788,"Ġdame":1789,"Ġmata":1790,"Ġmake":1791,"usa":1792,"riu":1793,"ved":1794,"Ġprova":1795,"Ġform":1796,"ization":1797,"Ġunder":1798,"Ġservices":1799,"Ġmarket":1800,"Ġrepeti":1801,"._":1802,"iÃ£o":1803,"vas":1804,"vall":1805,"wor":1806,"Ġedit":1807,"inas":1808,"Ġsc":1809,"end":1810,"Ġfun":1811,"ancia":1812,"Ġbar":1813,"ice":1814,"Ġgrou":1815,"Ġasso":1816,"ects":1817,"Ġcada":1818,"Ġconclu":1819,"Ġmaior":1820,"entes":1821,"Ġacu":1822,"Ġprobl":1823,"Ġhap":1824,"Ġdesde":1825,"Ġlook":1826,"Ġtrabal":1827,"Ġhead":1828,"Ġestou":1829,"ahn":1830,"Ġ1999":1831,"Ġsimples":1832,"ĠgraÃ§a":1833,"Ġconfess":1834,"Ġsabia":1835,"Ġacabou":1836,"Ġgosto":1837,"ources":1838,"Ġlivro":1839,"Ġmissa":1840,"Ġdorm":1841,"Ġglobal":1842,"Ġdiction":1843,"Ġsoftware":1844,"Ġcabral":1845,"Ġproblem":1846,"coro":1847,"gn":1848,"ks":1849,"tly":1850,"van":1851,"Ġado":1852,"Ġagre":1853,"Ġcres":1854,"Ġmus":1855,"Ġsil":1856,"ender":1857,"arge":1858,"Ġdevia":1859,"Ġvonta":1860,"Ġbran":1861,"Ġwant":1862,"llo":1863,"Ġset":1864,"Ġsepa":1865,"Ġseja":1866,"Ġtoo":1867,"Ġdown":1868,"Ġnoti":1869,"ele":1870,"ently":1871,"Ġproc":1872,"versa":1873,"tran":1874,"Ġviver":1875,"Ġamiga":1876,"Ġhora":1877,"Ġorgan":1878,"Ġmodo":1879,"Ġterra":1880,"Ġallow":1881,"Ġboa":1882,"plic":1883,"Ġescrip":1884,"Ġhel":1885,"gregado":1886,"Ġtive":1887,"Ġficou":1888,"Ġcompany":1889,"Ġponto":1890,"Ġlinguistic":1891,"Ġminutos":1892,"Ġfree":1893,"Ġaggregado":1894,"Ġninguem":1895,"ep":1896,"eito":1897,"nas":1898,"Ġatra":1899,"ĠcÃ¡":1900,"iness":1901,"Ġsci":1902,"ores":1903,"Ġfei":1904,"Ġfew":1905,"ition":1906,"Ġvem":1907,"ĠvÃ¡":1908,"Ġwere":1909,"Ġanno":1910,"Ġmedi":1911,"Ġesse":1912,"Ġessa":1913,"Ġja":1914,"Ġyah":1915,"rios":1916,"ĠforÃ§a":1917,"vii":1918,"Ġdesc":1919,"Ġamb":1920,"Ġatten":1921,"Ġrom":1922,"trou":1923,"Ġhoras":1924,"ĠmoÃ§a":1925,"Ġterms":1926,"Ġfug":1927,"Ġcommission":1928,"Ġpedir":1929,"Ġparece":1930,"Ġexplica":1931,"heiro":1932,"Ġhistor":1933,"Ġtext":1934,"Ġqualquer":1935,"Ġplace":1936,"Ġsoci":1937,"ĠvocaÃ§Ã£o":1938,"Ġvontade":1939,"_,":1940,"cy":1941,"den":1942,"ful":1943,"iar":1944,"ora":1945,"Ġagra":1946,"Ġpal":1947,"Ġnome":1948,"enÃ§a":1949,"Ġfar":1950,"reu":1951,"Ġindi":1952,"imento":1953,"Ġmedia":1954,"Ġtool":1955,"Ġcama":1956,"Ġconce":1957,"ety":1958,"Ġhon":1959,"cava":1960,"Ġviu":1961,"Ġaman":1962,"Ġamig":1963,"cial":1964,"Ġworst":1965,"Ġfavor":1966,"Ġsoy":1967,"Ġapenas":1968,"Ġlado":1969,"Ġtake":1970,"parec":1971,"Ġtriste":1972,"Ġpublic":1973,"Ġinstitu":1974,"Ġexplic":1975,"Ġficar":1976,"Ġstates":1977,"Ġlivros":1978,"Ġopin":1979,"Ġrealmente":1980,"Ġuniversity":1981,"letra":1982,"Ġdevelopment":1983,"Ġcostume":1984,"Ġshow":1985,"Ġtwo":1986,"'ve":1987,"cas":1988,"gal":1989,"idos":1990,"lic":1991,"land":1992,"zer":1993,"Ġagu":1994,"ĠdÃ¡":1995,"Ġsm":1996,"Ġsant":1997,"esar":1998,"Ġfinal":1999,"Ġdei":2000,"itou":2001,"Ġlen":2002,"Ġvar":2003,"Ġvamos":2004,"iment":2005,"Ġmedo":2006,"Ġmezes":2007,"Ġconse":2008,"Ġmajor":2009,"ula":2010,"ĠhÃ¡":2011,"Ġactiv":2012,"vern":2013,"Ġhaiti":2014,"Ġexce":2015,"viii":2016,"Ġsum":2017,"tario":2018,"Ġforam":2019,"Ġcousas":2020,"Ġestre":2021,"Ġfazia":2022,"Ġvolta":2023,"Ġplan":2024,"Ġfrance":2025,"Ġinteira":2026,"tono":2027,"self":2028,"Ġsociety":2029,"!Â»":2030,"bil":2031,"cts":2032,"ju":2033,"mes":2034,"ne":2035,"xt":2036,"Ã²":2037,"Ġcla":2038,"Ġstr":2039,"quanto":2040,"eno":2041,"Ġquanto":2042,"Ġdev":2043,"Ġbig":2044,"Ġincre":2045,"tam":2046,"dation":2047,"gust":2048,"Ġgir":2049,"Ġconst":2050,"media":2051,"rir":2052,"Ġnational":2053,"ily":2054,"eiro":2055,"Ġpropos":2056,"Ġdesco":2057,"Ġdesped":2058,"Ġcolle":2059,"Ġversion":2060,"Ġru":2061,"Ġresources":2062,"ized":2063,"Ġdizendo":2064,"ÃŃa":2065,"Ġ2000":2066,"Ġback":2067,"Ġfeel":2068,"inhos":2069,"Ġmultilingualism":2070,"Ġcontrario":2071,"Ġbusiness":2072,"Ġcurr":2073,"Ġfoundation":2074,"Ġhuman":2075,"vallos":2076,"Ġhappen":2077,"tonotario":2078,".,":2079,"dÃ£o":2080,"gos":2081,"iv":2082,"rom":2083,"tre":2084,"Ġebook":2085,"Ġdou":2086,"Ġcol":2087,"Ġopera":2088,"Ġorig":2089,"Ġste":2090,"Ġsites":2091,"tido":2092,"tica":2093,"llow":2094,"ick":2095,"ingo":2096,"Ġretra":2097,"Ġnova":2098,"Ġconta":2099,"Ġcontava":2100,"Ġhard":2101,"tures":2102,"Ġsaiu":2103,"Ġbeh":2104,"Ġviva":2105,"gava":2106,"dido":2107,"try":2108,"ions":2109,"Ġfalou":2110,"Ġareia":2111,"Ġartic":2112,"Ġpasse":2113,"Ġcour":2114,"avam":2115,"Ġhear":2116,"Ġnego":2117,"Ġgovern":2118,"Ġtivesse":2119,"Ġtaes":2120,"Ġnews":2121,"Ġdistribu":2122,"Ġrespondeu":2123,"Ġnumber":2124,"Ġpossible":2125,"Ġpolit":2126,"Ġsystems":2127,"Ġimportant":2128,"Ġetc":2129,"Ġjanella":2130,"Ġgirl":2131,"cent":2132,"gas":2133,"ian":2134,"iro":2135,"tis":2136,"tan":2137,"Ġeas":2138,"Ġegu":2139,"Ġcidade":2140,"Ġcump":2141,"Ġpin":2142,"este":2143,"ished":2144,"aries":2145,"Ġlab":2146,"Ġvag":2147,"Ġbre":2148,"llos":2149,"Ġespec":2150,"Ġgi":2151,"Ġconversa":2152,"Ġjus":2153,"veis":2154,"chor":2155,"Ġvivia":2156,"mora":2157,"Ġunited":2158,"Ġnossas":2159,"Ġrapa":2160,"Ġgood":2161,"Ġprojects":2162,"Ġgraves":2163,"Ġgrandes":2164,"Ġaugust":2165,"Ġnetwor":2166,"Ġcommunication":2167,"Ġimagina":2168,"Ġnenhum":2169,"Ġnenhuma":2170,"berspace":2171,"Ġassocia":2172,"ĠamanhÃ£":2173,"Ġsmall":2174,"gel":2175,"gram":2176,"led":2177,"sta":2178,"tia":2179,"tem":2180,"uh":2181,"vendo":2182,"wer":2183,"ying":2184,"Ġ5":2185,"Ġegre":2186,"Ġcall":2187,"Ġshe":2188,"ĠsÃ©":2189,"Ġsanto":2190,"Ġnon":2191,"anÃ§as":2192,"Ġdem":2193,"alf":2194,"Ġwa":2195,"Ġwar":2196,"Ġind":2197,"llec":2198,"Ã§ou":2199,"vamos":2200,"ecti":2201,"Ġdocum":2202,"Ġdiga":2203,"Ġnature":2204,"Ġissu":2205,"ulos":2206,"Ġacon":2207,"Ġprotonotario":2208,"amento":2209,"Ġsac":2210,"Ġexp":2211,"cavallos":2212,"chan":2213,"vida":2214,"Ġfollow":2215,"Ġleitor":2216,"Ġmorreu":2217,"ixÃ£o":2218,"ĠchÃ£o":2219,"Ġescu":2220,"Ġkind":2221,"Ġposto":2222,"Ġiam":2223,"Ġadm":2224,"Ġmostra":2225,"Ġreflex":2226,"Ġdigital":2227,"ĠninguÃ©m":2228,"Ġbuil":2229,"Ġmemoria":2230,"minis":2231,"Ġcyberspace":2232,"Ġgreat":2233,"Ġclaro":2234,"Ġmatacavallos":2235,"Ġamigos":2236,"Ġbehind":2237,"ade":2238,"pir":2239,"tle":2240,"Ġ6":2241,"Ġama":2242,"Ġdra":2243,"ines":2244,"Ġpec":2245,"Ġspecial":2246,"rac":2247,"eng":2248,"ense":2249,"ists":2250,"anha":2251,"Ġlon":2252,"Ġlag":2253,"omes":2254,"Ġbal":2255,"Ġinten":2256,"Ġcompa":2257,"dei":2258,"Ġpage":2259,"Ġreally":2260,"Ġday":2261,"Ġentrou":2262,"....":2263,"Ġthose":2264,"Ġalto":2265,"Ġsame":2266,"Ġbella":2267,"Ġdeste":2268,"Ġinteres":2269,"Ġvivo":2270,"Ġ18":2271,"Ġabor":2272,"Ġlear":2273,"Ġtell":2274,"Ġappro":2275,"Ġlatim":2276,"Ġguar":2277,"Ġfull":2278,"Ġcommer":2279,"Ġposso":2280,"Ġpensei":2281,"Ġothers":2282,"Ġroad":2283,"Ġdona":2284,"iii":2285,"Ġcuida":2286,"Ġpublish":2287,"Ġdiffic":2288,"Ġsanta":2289,"Ġcompanies":2290,"Ġeuropa":2291,"Ġcaminho":2292,"Ġprincipio":2293,"Ġsentia":2294,"Ġeuropean":2295,"issimo":2296,"Ġbeij":2297,"Ġexample":2298,"Ġbien":2299,"Ġkeep":2300,"Ġoccasi":2301,"Ġpapae":2302,"Ġprovavel":2303,"Ġegreja":2304,"'re":2305,"desse":2306,"ky":2307,"oh":2308,"other":2309,"ser":2310,"tanto":2311,"vos":2312,"var":2313,"wh":2314,"ww":2315,"Ġ4":2316,"Ġay":2317,"Ġade":2318,"Ġaut":2319,"Ġaquelle":2320,"Ġtit":2321,"Ġeter":2322,"Ġedade":2323,"Ġecon":2324,"int":2325,"Ġput":2326,"Ġsit":2327,"Ġsangu":2328,"ences":2329,"orda":2330,"orig":2331,"Ġfin":2332,"Ġdellas":2333,"Ġdelles":2334,"read":2335,"Ġlx":2336,"oma":2337,"Ġbro":2338,"Ġanal":2339,"dades":2340,"imos":2341,"Ġoffer":2342,"Ġsegre":2343,"Ġgive":2344,"Ġandar":2345,"Ġiria":2346,"Ġdoce":2347,"ela":2348,"Ġcausa":2349,"eth":2350,"ced":2351,"Ġaleg":2352,"Ġembar":2353,"Ġsay":2354,"Ġexc":2355,"Ġellas":2356,"Ġperto":2357,"Ġperder":2358,"Ġpernas":2359,"Ġsug":2360,"ĠserÃ¡":2361,"Ġresol":2362,"cido":2363,"Ġinternation":2364,"Ġpude":2365,"Ġsensa":2366,"Ġmanduca":2367,"Ġarre":2368,"Ġpasso":2369,"Ġescol":2370,"urso":2371,"001":2372,"Ġcheguei":2373,"Ġsolu":2374,"Ġobri":2375,"ĠpÃ©s":2376,"Ġwebsites":2377,"Ġjantar":2378,"Ġcomputers":2379,"Ġcontinuou":2380,"Ġbonito":2381,"Ġpropria":2382,"Ġwriting":2383,"ways":2384,"Ġgeneral":2385,"Ġpequeno":2386,"Ġescrever":2387,"Ġsegundo":2388,"Ġvespera":2389,"Ġergu":2390,"Ġfamilia":2391,"Ġcorredor":2392,"Ġacudi":2393,"Ġhelp":2394,"Ġcourse":2395,"Ġgovernment":2396,"Ġeconom":2397,"original":2398,"Ġinternational":2399,"**":2400,"ain":2401,"cou":2402,"culo":2403,"ever":2404,"gando":2405,"ire":2406,"ject":2407,"vou":2408,"Ġxx":2409,"Ġright":2410,"Ġxxx":2411,"Ġame":2412,"Ġaway":2413,"Ġty":2414,"Ġedu":2415,"Ġci":2416,"Ġcxx":2417,"Ġcxxx":2418,"Ġpente":2419,"enda":2420,"ore":2421,"ista":2422,"isten":2423,"itei":2424,"Ġlxx":2425,"Ġlxxx":2426,"almente":2427,"Ġwall":2428,"ema":2429,"empl":2430,"tely":2431,"Ġanother":2432,"Ġesca":2433,"ĠpaixÃ£o":2434,"Ġnovo":2435,"Ġencon":2436,"Ġdire":2437,"Ġname":2438,"mais":2439,"Ġprogram":2440,"ĠporÃ©m":2441,"tuna":2442,"vidu":2443,"Ġdest":2444,"Ġpero":2445,"ador":2446,"Ġmuitos":2447,"Ġrosto":2448,"Ġable":2449,"Ġmorrer":2450,"Ġpur":2451,"Ġteach":2452,"Ġmanag":2453,"Ġgusta":2454,"Ġquerer":2455,"estos":2456,"Ġprac":2457,"Ġideias":2458,"Ġpediu":2459,"Ġacabar":2460,"Ġpromo":2461,"Ġcabellos":2462,"Ġinstantes":2463,"Ġprint":2464,"Ġsentido":2465,"Ġcreated":2466,"Ġbrinc":2467,"Ġluz":2468,"Ġrefl":2469,"ĠbraÃ§os":2470,"Ġsonho":2471,"Ġpersonal":2472,"Ġpensar":2473,"Ġwritten":2474,"Ġseguinte":2475,"Ġcount":2476,"Ġouvir":2477,"Ġquarto":2478,"Ġdesejo":2479,"Ġcinco":2480,"Ġdictionaries":2481,"Ġmedium":2482,"Ġagrade":2483,"Ġindividu":2484,"Ġaconte":2485,"Ġsitua":2486,"'ll":2487,"crip":2488,"dent":2489,"eta":2490,"gÃ£o":2491,"hia":2492,"igh":2493,"lan":2494,"tter":2495,"Ġdera":2496,"Ġold":2497,"Ġmer":2498,"Ġmoc":2499,"Ġpi":2500,"Ġspea":2501,"Ġnor":2502,"Ġnar":2503,"Ġft":2504,"isa":2505,"Ġless":2506,"Ġlast":2507,"als":2508,"tiva":2509,"Ġmeta":2510,"ics":2511,"Ġgestos":2512,"Ġrem":2513,"Ġremo":2514,"Ġrefer":2515,"Ġreach":2516,"Ġdaquella":2517,"Ġconcer":2518,"Ġmach":2519,"uly":2520,"Ġhome":2521,"Ġembo":2522,"Ġachar":2523,"Ġprote":2524,"tur":2525,"sava":2526,"Ġdescon":2527,"Ġcapaz":2528,"Ġamer":2529,"Ġamiz":2530,"Ġverso":2531,"Ġrespos":2532,"ize":2533,"Ġabs":2534,"Ġfacil":2535,"Ġhoje":2536,"Ġapesar":2537,"Ġboth":2538,"Ġmaria":2539,"Ġprazer":2540,"Ġcontent":2541,"Ġbecome":2542,"press":2543,"Ġparecia":2544,"ĠjoÃ£o":2545,"Ġinstante":2546,"Ġpassou":2547,"Ġdefun":2548,"Ġsometh":2549,"Ġtoday":2550,"Ġahi":2551,"Ġfelic":2552,"Ġpossivel":2553,"Ġentender":2554,"Ġdiscurso":2555,"Ġultima":2556,"Ġeffeito":2557,"Ġstand":2558,"Ġlicense":2559,"Ġsegunda":2560,"Ġachava":2561,"rimas":2562,"Ġexactly":2563,"Ġsilen":2564,"Ġprocess":2565,"Ġtools":2566,"Ġinstitute":2567,"Ã²r":2568,"Ġoriginal":2569,"Ġretrato":2570,"Ġnetwork":2571,"Ġlagrimas":2572,"ĠoccasiÃ£o":2573,"Ġembora":2574,"\"]":2575,"'d":2576,"atro":2577,"bel":2578,"bras":2579,"eter":2580,"fim":2581,"gy":2582,"gio":2583,"ious":2584,"ni":2585,"pul":2586,"vin":2587,"Ãł":2588,"Ġrio":2589,"Ġadi":2590,"Ġear":2591,"Ġelog":2592,"Ġcut":2593,"Ġcust":2594,"Ġcima":2595,"Ġsw":2596,"esias":2597,"ordo":2598,"ardo":2599,"Ġdeci":2600,"Ġdevo":2601,"Ġbri":2602,"Ġbol":2603,"del":2604,"deira":2605,"Ġsept":2606,"Ġpag":2607,"Ġaspec":2608,"Ġdoes":2609,"Ġcontei":2610,"Ġens":2611,"entar":2612,"Ġthing":2613,"Ġalive":2614,"Ġalread":2615,"tual":2616,"Ġexten":2617,"Ġexempl":2618,"thia":2619,"Ġdissim":2620,"Ġperm":2621,"und":2622,"umes":2623,"Ġtur":2624,"Ġpobre":2625,"Ġaba":2626,"tric":2627,"Ġpura":2628,"Ġpuro":2629,"Ġpudesse":2630,"Ġappr":2631,"Ġalguem":2632,"Ġolhar":2633,"Ġmarido":2634,"tical":2635,"Ġworking":2636,"Ġusers":2637,"Ġvelha":2638,"Ġvoltar":2639,"Ġdeixou":2640,"Ġdeixei":2641,"Ġcham":2642,"ross":2643,"Ġpromet":2644,"paris":2645,"Ġgostava":2646,"Ġafinal":2647,"Ġdomingo":2648,"Ġlingua":2649,"Ġrepla":2650,"Ġproprio":2651,"Ġliter":2652,"Ġlittle":2653,"ween":2654,"Ġbetween":2655,"Ġachou":2656,"Ġincluding":2657,"Ġquintal":2658,"Ġrelig":2659,"Ġauthors":2660,"Ġcemeter":2661,"Ġagreement":2662,"Ġhistoria":2663,"ĠopiniÃ£o":2664,"Ġhappened":2665,"Ġpeccado":2666,"Ġdifficul":2667,"Ġcountries":2668,"Ġsomething":2669,"Ġfelicidade":2670,"Ġseptember":2671,"Ġalready":2672,"\",":2673,"bi":2674,"cando":2675,"dente":2676,"dendo":2677,"ek":2678,"ex":2679,"mer":2680,"nec":2681,"net":2682,"ris":2683,"xu":2684,"zinho":2685,"Ġran":2686,"ĠâĢ":2687,"Ġtou":2688,"Ġtira":2689,"Ġolhe":2690,"Ġmom":2691,"rado":2692,"Ġfer":2693,"Ġfol":2694,"ons":2695,"anta":2696,"Ġdel":2697,"Ġdemais":2698,"Ġler":2699,"Ġlar":2700,"ouro":2701,"ompan":2702,"Ġvinte":2703,"Ġbil":2704,"Ġbad":2705,"Ġwww":2706,"Ġanim":2707,"Ġmedic":2708,"Ġsecre":2709,"Ġespa":2710,"Ġill":2711,"Ġouvia":2712,"Ġnovamente":2713,"Ġcaet":2714,"Ġdaquelle":2715,"Ġmaga":2716,"rias":2717,"Ġenvol":2718,"Ġnaquelle":2719,"Ġhigh":2720,"Ġalter":2721,"Ġfortuna":2722,"Ġexchan":2723,"vido":2724,"Ġdesta":2725,"Ġinterest":2726,"Ġversos":2727,"Ġmuitas":2728,"Ġrindo":2729,"Ġpare":2730,"Ġwords":2731,"Ġpode":2732,"Ġ19":2733,"Ġlogar":2734,"Ġcomple":2735,"Ġleva":2736,"Ġorden":2737,"Ġpeda":2738,"Ġteu":2739,"Ġaposto":2740,"Ġmoder":2741,"Ġterce":2742,"Ġarch":2743,"Ġfur":2744,"Ġcharge":2745,"Ġestas":2746,"Ġcorpo":2747,"tors":2748,"sider":2749,"Ġvista":2750,"Ġveloso":2751,"Ġadminis":2752,"Ġcertain":2753,"Ġcharac":2754,"Ġsaben":2755,"Ġacabava":2756,"Ġesperar":2757,"ribut":2758,"Ġprecisa":2759,"Ġculture":2760,"Ġquiero":2761,"Ġcentre":2762,"Ġespir":2763,"Ġlembrou":2764,"Ġtrem":2765,"Ġstart":2766,"Ġproducts":2767,"Ġlinks":2768,"Ġfigu":2769,"Ġgroup":2770,"Ġbranca":2771,"Ġjapan":2772,"Ġambos":2773,"Ġactivity":2774,"Ġinteiramente":2775,"Ġdescob":2776,"chorus":2777,"Ġalegria":2778,"Ġbrincando":2779,"Ġamizade":2780,"Ġsilencio":2781,"Ġliterary":2782,"Ġmagaz":2783,".\"":2784,"bro":2785,"far":2786,"ging":2787,"hou":2788,"mur":2789,"rico":2790,"tÃ£o":2791,"yrico":2792,"ĠÃł":2793,"Ġain":2794,"Ġaqu":2795,"Ġec":2796,"Ġcir":2797,"Ġneste":2798,"ors":2799,"iter":2800,"Ġlos":2801,"Ġloc":2802,"Ġlist":2803,"Ġtheatro":2804,"omm":2805,"ĠvÃ£o":2806,"Ġbl":2807,"Ġwon":2808,"til":2809,"tivo":2810,"tel":2811,"tada":2812,"Ġess":2813,"Ġgr":2814,"Ġger":2815,"Ġouro":2816,"Ġnothing":2817,"Ġcatal":2818,"Ġdaqui":2819,"Ġconsider":2820,"mamÃ£e":2821,"Ġhere":2822,"Ġthings":2823,"Ġalc":2824,"Ġalways":2825,"Ġemquanto":2826,"saca":2827,"Ġforma":2828,"ĠsaÃŃ":2829,"Ġinterrom":2830,"Ġperio":2831,"Ġsuper":2832,"berto":2833,"quelles":2834,"essem":2835,"Ġcasas":2836,"Ġressaca":2837,"ciencia":2838,"Ġpared":2839,"rasse":2840,"Ġleast":2841,"Ġfala":2842,"Ġteve":2843,"Ġimpos":2844,"ĠsenÃ£o":2845,"duz":2846,"Ġarran":2847,"Ġlaw":2848,"Ġolhando":2849,"vely":2850,"Ġmys":2851,"antas":2852,"low":2853,"Ġcarro":2854,"Ġcorri":2855,"Ġpelos":2856,"Ġcostas":2857,"Ġcheia":2858,"Ġchegou":2859,"Ġ20":2860,"clesias":2861,"Ġsolid":2862,"Ġvisitas":2863,"Ġadd":2864,"Ġelse":2865,"Ġchamava":2866,"Ġperguntei":2867,"Ġ***":2868,"Ġentrei":2869,"Ġaudi":2870,"Ġcrer":2871,"Ġcalor":2872,"Ġknowled":2873,"Ġxl":2874,"Ġpassado":2875,"Ġbasta":2876,"Ġrepet":2877,"Ġsonhos":2878,"Ġconhecia":2879,"Ġprovide":2880,"Ġsorriu":2881,"Ġultimo":2882,"Ġlembran":2883,"egyrico":2884,"Ġconsult":2885,"Ġantiga":2886,"Ġquatro":2887,"Ġlettra":2888,"Ġmaterial":2889,"Ġimperador":2890,"Ġdinheiro":2891,"Ġdatab":2892,"Ġatraz":2893,"Ġincreas":2894,"Ġaborre":2895,"Ġtitulo":2896,"Ġciumes":2897,"Ġdefuncto":2898,"Ġstandard":2899,"Ġmedicina":2900,"Ġadministra":2901,"Ġcatalo":2902,"Ġknowledge":2903,"!)":2904,"br":2905,"bus":2906,"che":2907,"fia":2908,"gin":2909,"ger":2910,"ged":2911,"kes":2912,"less":2913,"pha":2914,"Ġaz":2915,"Ġtele":2916,"Ġder":2917,"Ġchora":2918,"Ġopen":2919,"Ġmic":2920,"Ġpan":2921,"Ġpho":2922,"Ġscre":2923,"Ġsign":2924,"esper":2925,"endeu":2926,"ass":2927,"osa":2928,"Ġquick":2929,"ĠfÃ©":2930,"Ġfaria":2931,"Ġfound":2932,"ona":2933,"Ġdec":2934,"Ġdead":2935,"red":2936,"ĠvÃª":2937,"Ġbes":2938,"Ġwind":2939,"Ġans":2940,"Ġsex":2941,"Ġsear":2942,"Ġsever":2943,"Ġtotal":2944,"Ġespecial":2945,"Ġandando":2946,"Ġreas":2947,"Ġjura":2948,"Ġenough":2949,"Ġenxu":2950,"Ġactu":2951,"Ġacompan":2952,"Ġexcl":2953,"Ġbegin":2954,"Ġdesf":2955,"Ġdesign":2956,"poz":2957,"Ġatt":2958,"Ġcase":2959,"Ġcasar":2960,"Ġria":2961,"Ġpop":2962,"Ġwhile":2963,"ications":2964,"Ġhope":2965,"Ġpeguei":2966,"Ġfall":2967,"Ġimpro":2968,"Ġsendo":2969,"Ġdizem":2970,"Ġaround":2971,"Ġtravel":2972,"Ġescon":2973,"Ġescola":2974,"Ġnever":2975,"Ġnella":2976,"Ġcorres":2977,"torio":2978,"andra":2979,"Ġdiabo":2980,"Ġpraia":2981,"Ġchega":2982,"Ġgoing":2983,"Ġduvi":2984,"Ġmalandra":2985,"ments":2986,"idades":2987,"Ġcurios":2988,"Ġpromp":2989,"Ġtry":2990,"Ġpublished":2991,"Ġcristo":2992,"âĢĶ":2993,"Ġouviu":2994,"Ġbrin":2995,"Ġvale":2996,"Ġsym":2997,"Ġafter":2998,"Ġbonita":2999,"Ġnumero":3000,"Ġficava":3001,"books":3002,"Ġsection":3003,"Ġjuntos":3004,"ventu":3005,"Ġquinze":3006,"Ġconcluiu":3007,"bility":3008,"Ġcurrently":3009,"Ġarticles":3010,"Ġdonations":3011,"Ġeduardo":3012,"Ġmachine":3013,"Ġresposta":3014,"Ġmagazine":3015,"Ġecclesias":3016,"ainda":3017,"bres":3018,"cho":3019,"dir":3020,"ego":3021,"fa":3022,"fica":3023,"hando":3024,"lig":3025,"mento":3026,"nia":3027,"ned":3028,"pect":3029,"ron":3030,"tin":3031,"uc":3032,"ue":3033,"Ġza":3034,"Ġtri":3035,"Ġtendo":3036,"Ġev":3037,"Ġden":3038,"Ġdim":3039,"intro":3040,"Ġmol":3041,"eres":3042,"Ġspan":3043,"rase":3044,"quei":3045,"aso":3046,"Ġques":3047,"Ġquis":3048,"Ġquase":3049,"ark":3050,"Ġdeante":3051,"Ġdemora":3052,"Ġlh":3053,"Ġvim":3054,"Ġwo":3055,"Ġwal":3056,"hado":3057,"Ġinde":3058,"Ġincl":3059,"Ġinalf":3060,"tira":3061,"tico":3062,"text":3063,"Ġanjo":3064,"Ġcomnos":3065,"dado":3066,"ici":3067,"Ġpade":3068,"terior":3069,"Ġreme":3070,"Ġcaval":3071,"Ġyet":3072,"entos":3073,"Ġnaquella":3074,"mado":3075,"Ġhes":3076,"Ġali":3077,"Ġalmo":3078,"eiras":3079,"Ġprox":3080,"Ġproper":3081,"Ġparagraph":3082,"Ġsai":3083,"Ġdispla":3084,"rante":3085,"uncia":3086,"Ã§ava":3087,"Ġmud":3088,"Ġmur":3089,"Ġparti":3090,"Ġpoint":3091,"Ġlot":3092,"Ġloca":3093,"Ġface":3094,"Ġfalta":3095,"Ġfalando":3096,"illo":3097,"Ġteim":3098,"Ġapparec":3099,"Ġmov":3100,"Ġtern":3101,"Ġlaws":3102,"Ġtamb":3103,"Ġprefer":3104,"Ġrap":3105,"Ġcare":3106,"Ġtinham":3107,"Ġfazel":3108,"Ġiamos":3109,"roux":3110,"Ġmenina":3111,"Ġ2001":3112,"Ġrecon":3113,"Ġmultimedia":3114,"oney":3115,"Ġvisita":3116,"Ġaccres":3117,"Ġvoltando":3118,"Ġ1996":3119,"Ġtiver":3120,"naes":3121,"Ġpedia":3122,"Ġfeito":3123,"Ġconfir":3124,"Ġsabes":3125,"Ġquizesse":3126,"ologia":3127,"ĠcomeÃ§ou":3128,"Ġpodiam":3129,"itual":3130,"Ġesquer":3131,"Ġcontinue":3132,"Ġviagem":3133,"demark":3134,"Ġreading":3135,"Ġreaders":3136,"Ġsupport":3137,"Ġmemor":3138,"Ġjuram":3139,"Ġeffecti":3140,"ĠlicÃ§Ã£o":3141,"tivos":3142,"Ġesquecer":3143,"Ġcyber":3144,"issima":3145,"hip":3146,"Ġcxl":3147,"Ġhouve":3148,"Ġbetter":3149,"Ġnecessidade":3150,"Ġmateria":3151,"Ġenterro":3152,"ĠseparaÃ§Ã£o":3153,"Ġnoticia":3154,"Ġheart":3155,"Ġnatureza":3156,"ĠintenÃ§Ã£o":3157,"Ġsangue":3158,"Ġsegredo":3159,"Ġtouch":3160,"Ġparede":3161,"Ġapostol":3162,"Ġlocal":3163,"Ġmyster":3164,"Ġphoto":3165,"Ġsearch":3166,"Ġseveral":3167,"Ġzaac":3168,"Ġcomnosco":3169,"bab":3170,"ction":3171,"fÃ©":3172,"ight":3173,"mÃ£":3174,"nal":3175,"rist":3176,"rgel":3177,"spea":3178,"ĠÃ³":3179,"Ġras":3180,"Ġaus":3181,"Ġave":3182,"ĠcÃ³":3183,"ĠmÃ¡":3184,"Ġstra":3185,"Ġnomes":3186,"osas":3187,"ostu":3188,"Ġquite":3189,"isas":3190,"onia":3191,"Ġdeal":3192,"Ġdedos":3193,"Ġdepen":3194,"itive":3195,"ale":3196,"Ġvento":3197,"Ġber":3198,"Ġinve":3199,"Ġinvol":3200,"emente":3201,"Ġcomec":3202,"Ġcommo":3203,"Ġoff":3204,"Ã©ras":3205,"Ġmed":3206,"Ġseis":3207,"Ġesque":3208,"Ġgas":3209,"Ġgol":3210,"ecto":3211,"Ġid":3212,"Ġnovel":3213,"Ġcat":3214,"ĠcafÃ©":3215,"Ġconc":3216,"Ġconnec":3217,"Ġdiv":3218,"Ġisn":3219,"Ġhy":3220,"Ġhand":3221,"Ġemo":3222,"Ġemfim":3223,"eiÃ§Ã£o":3224,"Ġacostu":3225,"verse":3226,"cara":3227,"Ã³n":3228,"Ġdescer":3229,"age":3230,"Ġdisfar":3231,"Ġvieram":3232,"ĠprÃ©":3233,"Ġamong":3234,"...Â»":3235,"Ġcollec":3236,"Ġmuro":3237,"stand":3238,"utar":3239,"Ġrus":3240,"Ġrun":3241,"Ġrest":3242,"Ġ10":3243,"form":3244,"Ġlea":3245,"Ġwhose":3246,"ghts":3247,"Ġmorto":3248,"Ġfact":3249,"Ġcanta":3250,"Ġpegou":3251,"Ġunico":3252,"Ġtermin":3253,"Ġmaneira":3254,"Ġgurgel":3255,"Ġfutu":3256,"Ġolhou":3257,"Ġtrademark":3258,"bede":3259,"Ġpreto":3260,"not":3261,"ĠcreanÃ§a":3262,"Ġnelle":3263,"Ġcarre":3264,"Ġhowever":3265,"Ġpelas":3266,"Ġcheio":3267,"Ġchegar":3268,"Ġbaixo":3269,"Ġvelhas":3270,"Ġpoucos":3271,"bado":3272,"Ġbecky":3273,"portu":3274,"Ġprimeiros":3275,"Ġpedi":3276,"Ġdeixa":3277,"Ġdeixar":3278,"Ġestavam":3279,"Ġcerta":3280,"Ġperguntar":3281,"pressÃ£o":3282,"Ġpareceu":3283,"Ġquizer":3284,"Ġentretanto":3285,"Ġgosta":3286,"âĢĿ":3287,"Ġstate":3288,"Ġways":3289,"Ġprofessor":3290,"Ġfizesse":3291,"Ġfizeram":3292,"Ġreceive":3293,"Ġopportu":3294,"Ġphys":3295,"Ġphrase":3296,"ĠflÃ²r":3297,"Ġdomain":3298,"Ġrespondi":3299,"Ġsuspe":3300,"Ġcommunications":3301,"Ġfreely":3302,"Ġpolic":3303,"Ġinfin":3304,"Ġpensando":3305,"Ġsocial":3306,"Ġrelati":3307,"Ġrelations":3308,"Ġcentral":3309,"Ġpequena":3310,"Ġofficial":3311,"Ġriso":3312,"Ġstarted":3313,"Ġregis":3314,"Ġhouvesse":3315,"Ġquaes":3316,"Ġdirector":3317,"Ġsaudades":3318,"Ġimperial":3319,"Ġcemiter":3320,"Ġvirtual":3321,"Ġmarketing":3322,"Ġallows":3323,"Ġvarious":3324,"imentos":3325,"Ġexcell":3326,"Ġclara":3327,"ĠdevÃ©ras":3328,"Ġgirls":3329,"Ġespecie":3330,"Ġadmira":3331,"ĠreflexÃ£o":3332,"Ġprovavelmente":3333,"where":3334,"Ġsugges":3335,"Ġobriga":3336,"Ġpractical":3337,"Ġindividual":3338,"Ġameric":3339,"Ġexemplo":3340,"Ġcaetano":3341,"Ġarchive":3342,"ributing":3343,"ĠlembranÃ§a":3344,"Ġconsultant":3345,"Ġscreen":3346,"Ġcorrespon":3347,"Ġspanish":3348,"speaking":3349,"Ġcemiterio":3350,"\".":3351,"au":3352,"col":3353,"cce":3354,"cul":3355,"eo":3356,"fu":3357,"ffor":3358,"fac":3359,"gest":3360,"ied":3361,"ifor":3362,"idas":3363,"ides":3364,"jar":3365,"jus":3366,"ken":3367,"tt":3368,"tina":3369,"up":3370,"yeah":3371,"Ġaim":3372,"Ġage":3373,"Ġtel":3374,"Ġtroux":3375,"Ġeduca":3376,"Ġeffor":3377,"Ġdito":3378,"Ġcri":3379,"Ġcoc":3380,"Ġom":3381,"Ġobra":3382,"Ġobede":3383,"Ġpri":3384,"Ġsp":3385,"Ġstor":3386,"Ġsone":3387,"Ġswe":3388,"ray":3389,"estro":3390,"quem":3391,"Ġnisto":3392,"enho":3393,"ĠquÃ©":3394,"Ġfundo":3395,"isso":3396,"ony":3397,"Ġdeva":3398,"its":3399,"itava":3400,"rey":3401,"Ġlas":3402,"Ġlarge":3403,"outro":3404,"Ġbrow":3405,"Ġbene":3406,"hava":3407,"Ġinti":3408,"Ġintim":3409,"Ġupon":3410,"tex":3411,"Ġanterior":3412,"damente":3413,"Ġsell":3414,"Ġsege":3415,"Ġtow":3416,"Ġtocar":3417,"Ġesten":3418,"Ġespan":3419,"Ġumas":3420,"Ġgab":3421,"Ġpay":3422,"Ġpagar":3423,"Ġpaulo":3424,"Ġreco":3425,"Ġrepro":3426,"Ġreplic":3427,"Ġdoente":3428,"Ġnoites":3429,"Ġcair":3430,"Ġdays":3431,"Ġmatter":3432,"Ġjor":3433,"tionary":3434,"Ġher":3435,"Ġhor":3436,"Ġhim":3437,"Ġalu":3438,"Ġalv":3439,"Ġalta":3440,"Ġemp":3441,"Ġacaso":3442,"iros":3443,"Ġitself":3444,"Ġparar":3445,"entei":3446,"Ġsatis":3447,"ches":3448,"vious":3449,"Ġdesp":3450,"Ġinterro":3451,"Ġdispos":3452,"Ġperf":3453,"Ġperal":3454,"Ġperdo":3455,"Ġperdeu":3456,"unha":3457,"Ġsucc":3458,"Ġsucce":3459,"Ã§ado":3460,"Ġservi":3461,"bert":3462,"Ġtua":3463,"Ġword":3464,"Ãªs":3465,"taria":3466,"ĠpoÃ§o":3467,"Ġpoeta":3468,"Ġfora":3469,"Ġabra":3470,"Ġlead":3471,"Ġlegal":3472,"Ġsozinho":3473,"Ġpux":3474,"Ġnossos":3475,"Ġmessa":3476,"Ġmesmos":3477,"Ġdizel":3478,"Ġmoral":3479,"Ġteria":3480,"ixa":3481,"Ġcommon":3482,"Ġprepar":3483,"antou":3484,"load":3485,"Ġhei":3486,"Ġnear":3487,"Ġnext":3488,"Ġpensa":3489,"Ġmenor":3490,"Ġtalk":3491,"Ġrecomm":3492,"Ġdura":3493,"Ġvolun":3494,"Ġideas":3495,"Ġ1995":3496,"Ġconsenti":3497,"ĠroÃ§a":3498,"Ġseminarista":3499,"Ġpress":3500,"Ġhomens":3501,"panegyrico":3502,"Ġjoven":3503,"Ġcli":3504,"ioso":3505,"Ġcry":3506,"ource":3507,"Ġcreate":3508,"Ġcreating":3509,"iques":3510,"Ġtranslated":3511,"ditional":3512,"Ġplano":3513,"Ġbecame":3514,"Ġfranca":3515,"Ġtexto":3516,"Ġtexts":3517,"Ġlevou":3518,"Ġmonth":3519,"Ġdigit":3520,"Ġsubs":3521,"Ġestivesse":3522,"Ġproviding":3523,"Ġquieres":3524,"Ġgenera":3525,"Ġstone":3526,"Ġprincipal":3527,"Ġmaintain":3528,"Ġjune":3529,"Ġeverything":3530,"Ġvinham":3531,"Ġandava":3532,"Ġlimited":3533,"Ġdindi":3534,"Ġdefinition":3535,"Ġlouca":3536,"Ġeditor":3537,"Ġconfessar":3538,"Ġconfessou":3539,"Ġdormir":3540,"Ġmusica":3541,"Ġscienti":3542,"Ġfeio":3543,"Ġproposito":3544,"Ġeasy":3545,"Ġegual":3546,"Ġdocuments":3547,"Ġissue":3548,"Ġfollowing":3549,"pirou":3550,"Ġinterested":3551,"Ġlearning":3552,"Ġdestino":3553,"Ġmerec":3554,"Ġftpress":3555,"Ġabsol":3556,"Ġcustom":3557,"Ġaspects":3558,"ĠâĢľ":3559,"Ġfortunata":3560,"Ġterceiro":3561,"Ġgerman":3562,"ĠsolidÃ£o":3563,"Ġincreasing":3564,"Ġanswer":3565,"Ġcavallo":3566,"Ġproperty":3567,"Ġternura":3568,"Ġopportun":3569,"ifornia":3570,"Ġsoneto":3571,"Ġsweet":3572,"Ġdevagar":3573,"',":3574,"?Â»":3575,"aÃ§Ã£o":3576,"cem":3577,"cri":3578,"cÃ§Ã£o":3579,"cted":3580,"dou":3581,"get":3582,"ific":3583,"jos":3584,"lu":3585,"lho":3586,"nica":3587,"opa":3588,"py":3589,"ply":3590,"pira":3591,"ror":3592,"sse":3593,"vir":3594,"Ġ7":3595,"Ġati":3596,"Ġtv":3597,"Ġtin":3598,"Ġtesta":3599,"Ġeis":3600,"Ġeth":3601,"inou":3602,"ĠmÃ´":3603,"Ġmoney":3604,"Ġpall":3605,"Ġspo":3606,"Ġspe":3607,"Ġspace":3608,"rada":3609,"Ġnesse":3610,"ĠquÃª":3611,"ority":3612,"Ġfra":3613,"Ġfoc":3614,"Ġfina":3615,"isation":3616,"ario":3617,"iting":3618,"itando":3619,"reh":3620,"Ġvendo":3621,"Ġbit":3622,"Ġbras":3623,"Ġwan":3624,"Ġwindo":3625,"haps":3626,"teu":3627,"Ġcomsi":3628,"date":3629,"dava":3630,"gua":3631,"Ġtoa":3632,"Ġessas":3633,"toy":3634,"Ġgros":3635,"Ġrele":3636,"eca":3637,"ecd":3638,"Ġil":3639,"elh":3640,"Ġcabo":3641,"Ġmaking":3642,"ustry":3643,"Ġjuly":3644,"Ġyes":3645,"Ġener":3646,"Ġench":3647,"Ġenco":3648,"Ġdir":3649,"Ġdiria":3650,"ress":3651,"Ġhar":3652,"Ġhist":3653,"Ġempre":3654,"Ġacho":3655,"amen":3656,"Ġhaving":3657,"Ġsays":3658,"Ġextra":3659,"Ġexiste":3660,"Ġbellas":3661,"cadas":3662,"Ã³ria":3663,"Ġdesesper":3664,"Ġinteresse":3665,"Ġdisso":3666,"Ġperhaps":3667,"randa":3668,"Ġview":3669,"umb":3670,"Ġcoisas":3671,"quellas":3672,"stan":3673,"cios":3674,"Ġcompet":3675,"Ġcompreh":3676,"Ġabri":3677,"dida":3678,"Ġlep":3679,"Ġleis":3680,"Ġsoon":3681,"Ġtemos":3682,"Ġcanada":3683,"Ġpeito":3684,"Ġappe":3685,"inava":3686,"Ġuna":3687,"peu":3688,"Ġmesa":3689,"ĠmoÃ§o":3690,"Ġmodel":3691,"ĠsÃ³s":3692,"dura":3693,"Ġarte":3694,"Ġchor":3695,"Ġchron":3696,"Ġescra":3697,"ÃŃto":3698,"estia":3699,"Ġrato":3700,"Ġrather":3701,"Ġcartas":3702,"Ġcorrer":3703,"Ġpenso":3704,"Ġcontou":3705,"Ġmenino":3706,"Ġbatal":3707,"Ġrecu":3708,"Ġrecorda":3709,"ĠirÃ¡":3710,"Ġvisinho":3711,"ponte":3712,"Ġfebre":3713,"Ġconfer":3714,"Ġconfus":3715,"Ġconser":3716,"Ġdeixe":3717,"Ġvoy":3718,"inhanÃ§a":3719,"Ġsabbado":3720,"Ġperguntava":3721,"Ġpresent":3722,"Ġtenha":3723,"ĠesperanÃ§a":3724,"Ġcru":3725,"Ġobser":3726,"Ġexperts":3727,"Ġcalifornia":3728,"Ġsentir":3729,"Ġdistinc":3730,"Ġaffir":3731,"Ġrir":3732,"Ġriver":3733,"Ġsinto":3734,"Ġbuscar":3735,"Ġmetter":3736,"Ġlevar":3737,"ĠbraÃ§o":3738,"Ġlembrar":3739,"Ġdiscus":3740,"Ġjuro":3741,"liver":3742,"Ġoffice":3743,"Ġcountry":3744,"lesc":3745,"Ġbelie":3746,"Ġunderstand":3747,"Ġbarri":3748,"Ġheadst":3749,"Ġadolesc":3750,"Ġcrescer":3751,"Ġorganization":3752,"Ġlinguistics":3753,"Ġexplicar":3754,"ĠlenÃ§o":3755,"Ġstrong":3756,"Ġconstant":3757,"Ġnegocio":3758,"Ġjusti":3759,"Ġrapaz":3760,"Ġcalled":3761,"Ġindustry":3762,"Ġissues":3763,"Ġsacrist":3764,"Ġexpand":3765,"Ġautor":3766,"Ġanalys":3767,"ĠsensaÃ§Ã£o":3768,"Ġeconomic":3769,"istencia":3770,"Ġencontra":3771,"Ġspeak":3772,"Ġadiv":3773,"Ġlevava":3774,"Ġcharacter":3775,"Ġjapanese":3776,"Ġimpossi":3777,"Ġlettras":3778,"Ġbeginning":3779,"Ġpopular":3780,"ĠtambÃ©m":3781,"Ġesquerda":3782,"Ġapostolico":3783,"Ġphotograph":3784,"Ġidenti":3785,"Ġcollection":3786,"Ġfuturo":3787,"Ġcarreira":3788,"Ġrecogn":3789,"Ġreplicou":3790,"Ġsuccess":3791,"ĠmÃ´nica":3792,"Ġcomsigo":3793,"ĠhistÃ³ria":3794,"199":3795,"air":3796,"cendo":3797,"ched":3798,"don":3799,"dica":3800,"dist":3801,"gl":3802,"gon":3803,"jam":3804,"languag":3805,"mm":3806,"maria":3807,"nem":3808,"of":3809,"uÃ§Ã£o":3810,"uary":3811,"wide":3812,"yal":3813,"âģ":3814,"Ġ)":3815,"Ġ8":3816,"Ġaga":3817,"Ġagar":3818,"Ġaju":3819,"Ġton":3820,"Ġtan":3821,"Ġed":3822,"Ġdout":3823,"ĠcÃ©":3824,"Ġced":3825,"ĠcÃ´r":3826,"Ġoecd":3827,"Ġminu":3828,"Ġsto":3829,"Ġsing":3830,"Ġsir":3831,"Ġsco":3832,"Ġstic":3833,"Ġspec":3834,"Ġshor":3835,"Ġsound":3836,"ques":3837,"Ġnessa":3838,"encias":3839,"assem":3840,"Ġquad":3841,"ordar":3842,"Ġfed":3843,"Ġfrio":3844,"ised":3845,"istir":3846,"ones":3847,"anas":3848,"anda":3849,"redit":3850,"Ġlangu":3851,"Ġline":3852,"alo":3853,"Ġben":3854,"Ġbill":3855,"Ġindo":3856,"Ġinqui":3857,"Ġinven":3858,"Ġinfer":3859,"Ġuso":3860,"ties":3861,"tigo":3862,"teza":3863,"Ġcomb":3864,"day":3865,"Ġoften":3866,"Ġmean":3867,"Ġmeia":3868,"Ġmeet":3869,"Ġsel":3870,"vaÃ§Ã£o":3871,"Ġpau":3872,"Ġpape":3873,"Ġrez":3874,"Ġregu":3875,"Ġrevel":3876,"Ġrequi":3877,"Ġrepres":3878,"ecer":3879,"hol":3880,"elic":3881,"Ġconvi":3882,"med":3883,"ustra":3884,"Ġjard":3885,"rie":3886,"Ġenc":3887,"ental":3888,"veu":3889,"veil":3890,"Ġale":3891,"Ġaltar":3892,"Ġalone":3893,"ility":3894,"Ġacredit":3895,"Ġforth":3896,"Ġexec":3897,"Ġexpan":3898,"Ġbell":3899,"Ġweek":3900,"cap":3901,"Ġdessas":3902,"Ġdesap":3903,"Ġdistra":3904,"ĠperdÃ£o":3905,"Ġatre":3906,"Ġatal":3907,"...)":3908,"Ġwithin":3909,"Ġcasmur":3910,"Ġrou":3911,"Ġresul":3912,"cida":3913,"Ġparei":3914,"Ġliber":3915,"Ġpoten":3916,"Ġaban":3917,"dios":3918,"Ġleg":3919,"Ġleve":3920,"ĠfaÃ§a":3921,"ĠfaÃ§o":3922,"Ġord":3923,"Ġtempos":3924,"most":3925,"Ġteam":3926,"Ġimpe":3927,"Ġimpor":3928,"Ġimitar":3929,"Ġlonger":3930,"Ġcommum":3931,"Ġboys":3932,"Ġquerendo":3933,"antos":3934,"estÃ¡":3935,"Ġradio":3936,"ĠestÃ£o":3937,"inete":3938,"itado":3939,"Ġcarta":3940,"Ġcardi":3941,"Ġcorrec":3942,"Ġfazendo":3943,"Ġvaidade":3944,"Ġpossu":3945,"Ġuseful":3946,"Ġuser":3947,"Ġrecol":3948,"ĠvisinhanÃ§a":3949,"Ġvelhos":3950,"Ġadver":3951,"Ġvoltou":3952,"Ġmaluma":3953,"mentos":3954,"Â»,":3955,"Ġtax":3956,"Ġfee":3957,"idar":3958,"Ġcuando":3959,"Ġanyone":3960,"sions":3961,"Ġworldwide":3962,"Ġjohn":3963,"Ġpublico":3964,"Ġespera":3965,"ĠficÃ¡mos":3966,"Ġjanuary":3967,"Ġentrada":3968,"Ġcreatura":3969,"Ġstat":3970,"Ġtranslators":3971,"prim":3972,"prÃ©":3973,"Ġafflic":3974,"Ġafflig":3975,"Ġaffair":3976,"Ġfizera":3977,"Ġtechnolog":3978,"Ġtechnical":3979,"idez":3980,"Ġceveil":3981,"Ġwrite":3982,"Ġxc":3983,"Ġxci":3984,"dictionary":3985,"Ġflor":3986,"Ġflamen":3987,"Ġbased":3988,"Ġassump":3989,"Ġmetho":3990,"Ġrefund":3991,"Ġtrazer":3992,"como":3993,"Ġminority":3994,"Ġsuspirou":3995,"Ġsubject":3996,"Ġcommunicate":3997,"Ġestiver":3998,"Ġinscrip":3999,"Ġintellec":4000,"Ġgetting":4001,"Ġinfancia":4002,"Ġtomar":4003,"Ġpensamento":4004,"Ġgaelic":4005,"Ġofficio":4006,"Ġamarres":4007,"Ġservice":4008,"Ġcostumes":4009,"Ġtornou":4010,"Ġtornei":4011,"Ġbeleza":4012,"Ġpoderia":4013,"Ġolhava":4014,"Ġgroups":4015,"Ġtrabalho":4016,"Ġdictionary":4017,"Ġproblems":4018,"Ġagree":4019,"Ġmusic":4020,"Ġviuva":4021,"Ġconsegu":4022,"Ġactivities":4023,"Ġhaitian":4024,"Ġcurrent":4025,"Ġeasily":4026,"Ġbreve":4027,"Ġjustamente":4028,"Ġrapazes":4029,"ĠimaginaÃ§Ã£o":4030,"Ġassociated":4031,"Ġmostrar":4032,"Ġbuild":4033,"english":4034,"Ġbalvin":4035,"Ġcommercial":4036,"Ġeterna":4037,"Ġexcla":4038,"ĠsensaÃ§Ãµes":4039,"Ġarrepen":4040,"Ġergueu":4041,"Ġacudiu":4042,"Ġamea":4043,"Ġamei":4044,"Ġpenteado":4045,"Ġreflect":4046,"nibus":4047,"Ġbolso":4048,"Ġpermission":4049,"Ġapprender":4050,"Ġcemetery":4051,"Ġmomento":4052,"Ġfigura":4053,"Ġformat":4054,"Ġsuperla":4055,"Ġaudience":4056,"Ġsignal":4057,"Ġquickly":4058,"Ġexclus":4059,"Ġecclesiastica":4060,"Ġdenuncia":4061,"Ġlocated":4062,"Ġaccrescent":4063,"Ġjuramento":4064,"Ġcomecei":4065,"Ġrelationship":4066,"fully":4067,"Ġintimidade":4068,"Ġgabinete":4069,"Ġvolunte":4070,"Ġfocus":4071,"ĠsacristÃ£o":4072,"Ġanalysis":4073,"âģŁ":4074,"Ġagain":4075,"Ġdoutor":4076,"ĠcÃ©u":4077,"Ġstick":4078,"Ġfederal":4079,"Ġpapeis":4080,"Ġflamengo":4081,"Ġassumpto":4082,".]":4083,"aram":4084,"bu":4085,"bol":4086,"blo":4087,"cor":4088,"culos":4089,"dom":4090,"dents":4091,"foun":4092,"feira":4093,"hy":4094,"iou":4095,"ible":4096,"jÃ¡":4097,"mando":4098,"pes":4099,"pria":4100,"rindo":4101,"ual":4102,"ĠÃŃ":4103,"Ġtez":4104,"ĠtÃ´":4105,"Ġequi":4106,"Ġdan":4107,"ĠdÃ£o":4108,"Ġdall":4109,"Ġcus":4110,"Ġcala":4111,"Ġcria":4112,"Ġcross":4113,"Ġobl":4114,"Ġmill":4115,"Ġmira":4116,"erem":4117,"Ġsr":4118,"Ġsha":4119,"Ġsong":4120,"Ġslow":4121,"Ġsource":4122,"ena":4123,"enom":4124,"ases":4125,"org":4126,"Ġfri":4127,"Ġfast":4128,"issa":4129,"ismos":4130,"Ġdemo":4131,"itamente":4132,"remos":4133,"Ġlan":4134,"Ġvent":4135,"Ġvindo":4136,"Ġbis":4137,"Ġwro":4138,"iago":4139,"iamos":4140,"hael":4141,"Ġinval":4142,"imo":4143,"gutenberg":4144,"Ġmeias":4145,"Ġmetal":4146,"Ġmelan":4147,"icamente":4148,"deo":4149,"Ġseem":4150,"Ġsecon":4151,"Ġsejam":4152,"Ġtocava":4153,"Ġgar":4154,"Ġgam":4155,"Ġpaid":4156,"tern":4157,"Ġrepar":4158,"Ġrepu":4159,"Ġreje":4160,"Ġretur":4161,"Ġdoing":4162,"Ġnota":4163,"Ġnovas":4164,"Ġcaras":4165,"Ġdado":4166,"Ġconto":4167,"Ġconcl":4168,"Ġconven":4169,"Ġmail":4170,"Ġmatar":4171,"ush":4172,"Ġjour":4173,"Ġenfi":4174,"Ġdivi":4175,"entÃ£o":4176,"Ġnatura":4177,"Ġnamora":4178,"maÃ§Ã£o":4179,"Ġhos":4180,"Ġhalf":4181,"Ġalhe":4182,"Ġalth":4183,"Ġalmost":4184,"eign":4185,"Ġacto":4186,"ĠacÃ§Ã£o":4187,"tum":4188,"Ġital":4189,"saÃŃ":4190,"Ġforeign":4191,"Ġsapa":4192,"Ġsaida":4193,"Ġsaid":4194,"Ġsacu":4195,"ĠsaÃŃa":4196,"Ġexpen":4197,"Ã³de":4198,"Ġinteress":4199,"Ġinterior":4200,"Ġperde":4201,"rance":4202,"cova":4203,"ezas":4204,"ither":4205,"Ġsemelh":4206,"Ġcoll":4207,"essas":4208,"utes":4209,"pae":4210,"Ġlibras":4211,"Ġ14":4212,"Ġ15":4213,"Ġloja":4214,"gada":4215,"Ġcompl":4216,"Ġcomply":4217,"Ġcomprim":4218,"Ġcomplex":4219,"diu":4220,"Ġlevel":4221,"icara":4222,"Ġhoe":4223,"Ġcanap":4224,"Ġcannot":4225,"Ġimpa":4226,"Ġimmedia":4227,"Ġimpul":4228,"Ġapr":4229,"Ġapag":4230,"ĠapÃ³s":4231,"Ġmesmas":4232,"Ġmod":4233,"ĠsÃ³mente":4234,"Ġmandar":4235,"Ġmaneiras":4236,"Ġlap":4237,"Ġguy":4238,"Ġguard":4239,"Ġguide":4240,"Ġfuego":4241,"Ġtrav":4242,"Ġboca":4243,"Ġchin":4244,"Ġchicara":4245,"Ġqueriam":4246,"Ġprem":4247,"Ġmarch":4248,"Ġyourdictionary":4249,"Ġcrean":4250,"Ġfazem":4251,"Ġvara":4252,"Ġvaranda":4253,"Ġpena":4254,"Ġrecus":4255,"Ġrecord":4256,"Ġirm":4257,"Ġdue":4258,"Ġdurante":4259,"pread":4260,"Ġvolver":4261,"Ġ1994":4262,"body":4263,"Ġengenho":4264,"Ġbecomes":4265,"istas":4266,"Ġprimeiras":4267,"Ġsimply":4268,"Ġgrave":4269,"Ġpedra":4270,"Ġsomeone":4271,"Ġvozes":4272,"Ġdonde":4273,"Ġcertamente":4274,"Ġchamar":4275,"Ġcuide":4276,"erature":4277,"ards":4278,"Ġparecer":4279,"Ġpareciam":4280,"Ġfossem":4281,"feito":4282,"ĠesperanÃ§as":4283,"Ġexpliquei":4284,"Ġobs":4285,"ours":4286,"Ġnasceu":4287,"Ġcompanhia":4288,"Ġbring":4289,"teiro":4290,"dition":4291,"Ġdistancia":4292,"Ġdistributing":4293,"Ġaffec":4294,"Ġreceio":4295,"Ġreceber":4296,"Ġrecebe":4297,"itude":4298,"Ġlugar":4299,"Ġphone":4300,"Ġbasic":4301,"Ġassist":4302,"Ġmetti":4303,"Ġrepente":4304,"Ġmonitor":4305,"Ġresponder":4306,"rup":4307,"Ġnumer":4308,"Ġvenez":4309,"Ġvencer":4310,"vision":4311,"Ġconhecer":4312,"Ġsuppon":4313,"Ġinfo":4314,"Ġcultural":4315,"Ġinterviews":4316,"ĠrelaÃ§Ãµes":4317,"Ġunivers":4318,"Ġultimos":4319,"Ġgato":4320,"Ġneeds":4321,"Ġparticularly":4322,"Ġeveryone":4323,"Ġvestido":4324,"Ġantigo":4325,"Ġproduct":4326,"Ġfamiliar":4327,"Ġfounder":4328,"Ġouvil":4329,"Ġaccep":4330,"Ġnecessary":4331,"Ġvex":4332,"Ġsaude":4333,"Ġsaudade":4334,"Ġestudos":4335,"Ġdissesse":4336,"Ġjanellas":4337,"Ġvirtudes":4338,"Ġmight":4339,"Ġeditions":4340,"Ġbarb":4341,"vanta":4342,"Ġnoticias":4343,"Ġescriptura":4344,"ĠattenÃ§Ã£o":4345,"Ġsantos":4346,"Ġsantiago":4347,"Ġconsequ":4348,"Ġexcept":4349,"Ġsummar":4350,"Ġconstru":4351,"Ġcollegio":4352,"Ġarticle":4353,"Ġpolitical":4354,"Ġlabios":4355,"Ġvagar":4356,"Ġassociation":4357,"Ġsacri":4358,"Ġadmit":4359,"ĠdragÃ£o":4360,"Ġspecialized":4361,"Ġcuidados":4362,"Ġembargos":4363,"Ġescap":4364,"Ġdireita":4365,"Ġpurpos":4366,"Ġteaching":4367,"Ġsituation":4368,"ĠsituaÃ§Ã£o":4369,"Ġmocidade":4370,"Ġprocessing":4371,"Ġdissimul":4372,"Ġdifficuldade":4373,"Ġbilhe":4374,"Ġenvolver":4375,"Ġexchanges":4376,"Ġespirito":4377,"ĠÃłs":4378,"Ġdatabase":4379,"Ġcatalogue":4380,"Ġmichael":4381,"Ġespecially":4382,"Ġquestion":4383,"Ġeffectivamente":4384,"Ġinvolved":4385,"ĠemoÃ§Ã£o":4386,"Ġterminology":4387,"Ġpolicy":4388,"Ġrelatives":4389,"Ġomnibus":4390,"reyol":4391,"Ġalvoro":4392,"Ġconsentiu":4393,"ĠilusÃ£o":4394,"Ġenergy":4395,"Ġextraord":4396,"Ġchroniques":4397,"Ġbatalha":4398,"Ġinferno":4399,"Ġcasmurro":4400,"Ġpotenti":4401,"Ġintellectual":4402,"founder":4403,"Ġdalli":4404,"Ġwrote":4405,"Ġmelancol":4406,"Ġsecond":4407,"Ġjournal":4408,"Ġalthough":4409,"saÃŃda":4410,"ĠcanapÃ©":4411,");":4412,"ak":4413,"agu":4414,"ban":4415,"cle":4416,"cÃª":4417,"camente":4418,"gen":4419,"gam":4420,"gasse":4421,"if":4422,"iva":4423,"mou":4424,"nd":4425,"ot":4426,"rich":4427,"semos":4428,"tasse":4429,"uras":4430,"vemos":4431,"yl":4432,"yon":4433,"Ã¨":4434,"ĠÃ§a":4435,"Ġada":4436,"ĠaÃ§a":4437,"Ġaber":4438,"Ġavis":4439,"ĠtÃ¡":4440,"Ġtest":4441,"Ġequ":4442,"Ġemail":4443,"Ġeither":4444,"Ġdando":4445,"ĠdÃª":4446,"Ġdone":4447,"Ġdaria":4448,"Ġcd":4449,"Ġcele":4450,"Ġotro":4451,"ined":4452,"Ġpic":4453,"Ġpun":4454,"Ġsig":4455,"Ġshar":4456,"esti":4457,"esso":4458,"oss":4459,"heiros":4460,"iss":4461,"ising":4462,"issÃ£o":4463,"Ġdeve":4464,"Ġdever":4465,"Ġdelic":4466,"Ġdedica":4467,"itable":4468,"Ġquede":4469,"Ġlines":4470,"Ġtheologia":4471,"alth":4472,"Ġvas":4473,"Ġbast":4474,"Ġwish":4475,"Ġwide":4476,"iava":4477,"iaÃ§Ã£o":4478,"Ġinv":4479,"Ġinves":4480,"Ġincom":4481,"Ġintran":4482,"tire":4483,"time":4484,"teg":4485,"tead":4486,"Ġande":4487,"Ġcomer":4488,"taÃ§Ã£o":4489,"Ġmex":4490,"icas":4491,"icos":4492,"Ġtop":4493,"Ġtocha":4494,"Ġtoada":4495,"Ġesfor":4496,"town":4497,"Ġgem":4498,"Ġganha":4499,"Ġpain":4500,"Ġpaes":4501,"tered":4502,"Ġreb":4503,"Ġretor":4504,"Ġreport":4505,"ective":4506,"Ġdois":4507,"ĠdoenÃ§a":4508,"hool":4509,"Ġouts":4510,"Ġnov":4511,"Ġnote":4512,"Ġnove":4513,"els":4514,"elhos":4515,"ĠcaÃŃ":4516,"Ġconvers":4517,"Ġcontain":4518,"Ġmae":4519,"mei":4520,"Ġje":4521,"Ġjaz":4522,"Ġyum":4523,"ried":4524,"Ġenfia":4525,"Ġentire":4526,"Ġdiver":4527,"resse":4528,"ĠhÃ£o":4529,"Ġthre":4530,"ĠalÃ©m":4531,"Ġemba":4532,"ilar":4533,"Ġeramos":4534,"tudo":4535,"turas":4536,"Ġonce":4537,"Ġhab":4538,"Ġhago":4539,"Ġhavendo":4540,"Ġexer":4541,"Ġexist":4542,"cada":4543,"Ġdespe":4544,"Ġdesig":4545,"Ġdispen":4546,"Ġperre":4547,"Ġperform":4548,"Ġviol":4549,"Ġvideo":4550,"Ġserio":4551,"Ġseriam":4552,"Ġservir":4553,"Ġsemana":4554,"...?":4555,"Ġcora":4556,"Ġcoch":4557,"lhes":4558,"Ġcasamento":4559,"Ġround":4560,"Ġrespec":4561,"Ġrestric":4562,"Ġrespect":4563,"papae":4564,"cidos":4565,"Ġparis":4566,"Ġparts":4567,"Ġloter":4568,"Ġcompri":4569,"diÃ£":4570,"ability":4571,"Ġleito":4572,"ication":4573,"Ġhot":4574,"Ġcanto":4575,"Ġcance":4576,"Ġfron":4577,"ĠpeÃ§o":4578,"Ġpegar":4579,"Ġfale":4580,"Ġfalei":4581,"illustra":4582,"Ġteus":4583,"Ġmestre":4584,"Ġmanda":4585,"Ġlaun":4586,"Ġchu":4587,"Ġmyself":4588,"Ġescura":4589,"Ġprepa":4590,"Ġpredic":4591,"ĠmarÃ§o":4592,"ticas":4593,"tically":4594,"Ġhey":4595,"estÃ£o":4596,"ĠcreanÃ§as":4597,"Ġcarry":4598,"Ġtinhamos":4599,"ands":4600,"Ġcost":4601,"Ġpenna":4602,"Ġcontribu":4603,"Ġchegando":4604,"Ġgoes":4605,"Ġmention":4606,"Ġmentir":4607,"Ġmentira":4608,"sive":4609,"Ġtalks":4610,"post":4611,"posiÃ§Ã£o":4612,"Ġvisto":4613,"Ġvoltava":4614,"Ġvoltei":4615,"Ġsimple":4616,"Ġpedro":4617,"Ġfeita":4618,"Ġconsum":4619,"Ġconsola":4620,"Ġroyal":4621,"Ġdono":4622,"Ġchacara":4623,"Ġsabor":4624,"Ġanything":4625,"Ġpergunta":4626,"Ġpreser":4627,"Ġpresil":4628,"Ġpresid":4629,"antei":4630,"cisco":4631,"Ġjob":4632,"Ġjogar":4633,"Ġtru":4634,"Ġbookst":4635,"ĠcomeÃ§ar":4636,"Ġesperando":4637,"Ġesperava":4638,"Ġverdadeira":4639,"Ġcrim":4640,"Ġouvira":4641,"Ġouvidos":4642,"Ġstay":4643,"Ġdefes":4644,"Ġtardes":4645,"Ġdistance":4646,"Ġreceb":4647,"Ġfrancisco":4648,"Ġrights":4649,"asier":4650,"Ġluar":4651,"Ġpassava":4652,"Ġpassagem":4653,"Ġphenom":4654,"Ġbastava":4655,"Ġcaminh":4656,"Ġbusc":4657,"Ġlevasse":4658,"Ġlevantou":4659,"commer":4660,"Ġcurta":4661,"Ġcurves":4662,"ĠdifferenÃ§a":4663,"Ġsusto":4664,"Ġsuspen":4665,"Ġbraz":4666,"Ġvenha":4667,"Ġplay":4668,"Ġinstead":4669,"Ġintegra":4670,"Ġprovides":4671,"Ġprovided":4672,"Ġculpa":4673,"Ġcultures":4674,"Ġquiet":4675,"Ġmainly":4676,"Ġantigas":4677,"Ġerro":4678,"selho":4679,"Ġmulheres":4680,"Ġvejo":4681,"Ġbeijo":4682,"Ġstudents":4683,"Ġzan":4684,"Ġzum":4685,"Ġfechando":4686,"Ġvirtude":4687,"Ġapertar":4688,"Ġdezese":4689,"Ġlouvor":4690,"Ġschool":4691,"Ġlooking":4692,"Ġtrabalhar":4693,"Ġtooth":4694,"Ġdownload":4695,"trand":4696,"Ġescripto":4697,"Ġscience":4698,"Ġfugir":4699,"ĠexplicaÃ§Ã£o":4700,"Ġconcept":4701,"Ġexplicou":4702,"Ġfinalmente":4703,"tambem":4704,"Ġstep":4705,"Ġcontact":4706,"Ġpasseio":4707,"Ġdistribution":4708,"Ġcumprir":4709,"Ġespecta":4710,"Ġgiven":4711,"Ġwater":4712,"Ġwaters":4713,"Ġbuilding":4714,"Ġdrama":4715,"Ġlearn":4716,"ĠguardiÃ£":4717,"Ġpublishing":4718,"Ġautoma":4719,"Ġsolutions":4720,"Ġmanagement":4721,"Ġnariz":4722,"Ġpaginas":4723,"Ġpermit":4724,"Ġcemeteries":4725,"Ġolhei":4726,"Ġbilingual":4727,"ĠillusÃ£o":4728,"Ġinteresting":4729,"ĠpedaÃ§o":4730,"Ġfurther":4731,"Ġcertainly":4732,"Ġcircum":4733,"Ġessenti":4734,"Ġperiodic":4735,"Ġparedes":4736,"Ġazul":4737,"Ġbesouro":4738,"Ġwinding":4739,"Ġreasons":4740,"Ġdesfaz":4741,"Ġdesigned":4742,"Ġduvidas":4743,"Ġprompto":4744,"Ġsympa":4745,"ucture":4746,"Ġdisplay":4747,"Ġbertrand":4748,"Ġmedico":4749,"ĠprÃ©gÃ£o":4750,"Ġinfinito":4751,"Ġamerican":4752,"Ġstories":4753,"estrofe":4754,"Ġperalta":4755,"Ġmessage":4756,"Ġclients":4757,"Ġsubscri":4758,"Ġscientific":4759,"Ġcustomers":4760,"Ġethn":4761,"Ġspoken":4762,"Ġbrasil":4763,"Ġdesespero":4764,"Ġmodels":4765,"Ġconference":4766,"ĠjustiÃ§a":4767,"Ġjardim":4768,"Ġdesapparec":4769,"ĠÃŃmÃ£":4770,"Ġcalado":4771,"Ġsapatos":4772,"Ġcuidei":4773,"Ġvenezu":4774,"Ġextraordinar":4775,"ĠaÃ§aÃŃ":4776,"Ġintranet":4777,"Ġoutside":4778,"illustration":4779,"2001":4780,"bas":4781,"bri":4782,"cel":4783,"cÃº":4784,"cur":4785,"cola":4786,"cement":4787,"cimentos":4788,"dando":4789,"dum":4790,"dencia":4791,"disse":4792,"jas":4793,"java":4794,"ler":4795,"lar":4796,"mp":4797,"mu":4798,"ming":4799,"ng":4800,"ner":4801,"nthia":4802,"oper":4803,"pol":4804,"padas":4805,"pÃ³de":4806,"rum":4807,"san":4808,"sou":4809,"uries":4810,"vant":4811,"wa":4812,"xo":4813,"zo":4814,"zia":4815,"Ã±":4816,"ĠÃª":4817,"Ġata":4818,"Ġafr":4819,"Ġautos":4820,"Ġamava":4821,"Ġtum":4822,"Ġeasier":4823,"Ġdal":4824,"Ġderam":4825,"Ġcen":4826,"inei":4827,"inando":4828,"inted":4829,"Ġmind":4830,"Ġmid":4831,"ĠmÃ¡s":4832,"Ġpc":4833,"Ġpis":4834,"Ġple":4835,"Ġscis":4836,"Ġsize":4837,"Ġspread":4838,"raes":4839,"qua":4840,"quando":4841,"Ġnight":4842,"Ġnisso":4843,"osos":4844,"head":4845,"hether":4846,"heceu":4847,"Ġquo":4848,"ĠquestÃ£o":4849,"Ġfres":4850,"isle":4851,"isted":4852,"arily":4853,"anho":4854,"Ġdeter":4855,"rem":4856,"ream":4857,"Ġlis":4858,"ĠlÃº":4859,"Ġlinda":4860,"Ġlindo":4861,"ought":4862,"oming":4863,"aling":4864,"Ġvos":4865,"Ġvan":4866,"Ġvic":4867,"Ġvad":4868,"Ġbor":4869,"Ġbumb":4870,"Ġwin":4871,"Ġwhether":4872,"iado":4873,"hados":4874,"Ġine":4875,"Ġinu":4876,"Ġinda":4877,"Ġinci":4878,"embra":4879,"Ġusava":4880,"tivamente":4881,"tech":4882,"Ġann":4883,"llig":4884,"rope":4885,"tation":4886,"icia":4887,"delo":4888,"Ã§am":4889,"Ġsete":4890,"Ġsepul":4891,"Ġesses":4892,"Ġask":4893,"Ã¡rio":4894,"Ġrema":4895,"Ġrelog":4896,"Ġipan":4897,"Ġdobra":4898,"Ġouve":4899,"elo":4900,"elho":4901,"Ġcab":4902,"Ġcau":4903,"Ġdama":4904,"Ġcontigo":4905,"Ġconselho":4906,"Ġmag":4907,"Ġjul":4908,"Ġjur":4909,"Ġjac":4910,"Ġenfer":4911,"Ġdie":4912,"Ġdivida":4913,"Ġnam":4914,"Ġnamo":4915,"Ġhmm":4916,"Ġthus":4917,"Ġthous":4918,"Ġthough":4919,"Ġalgar":4920,"Ġalain":4921,"Ġalpha":4922,"Ġemen":4923,"Ġ(...)":4924,"Ġacross":4925,"Ġprofer":4926,"Ġprobab":4927,"vered":4928,"gora":4929,"Ġones":4930,"Ġhaven":4931,"Ġhacem":4932,"ley":4933,"Ġyoung":4934,"Ġfortal":4935,"Ġsaindo":4936,"Ġsatan":4937,"Ġext":4938,"Ġbegan":4939,"cause":4940,"Ġdesse":4941,"Ġdestr":4942,"Ġinterac":4943,"Ġdisto":4944,"Ġdisco":4945,"Ġperdi":4946,"Ġperman":4947,"unda":4948,"Ġviesse":4949,"ĠprÃ³":4950,"pointed":4951,"Ã§ada":4952,"ĠserÃ¡s":4953,"Ġamare":4954,"ezar":4955,"adem":4956,"Ġcot":4957,"stru":4958,"lhas":4959,"Ġcases":4960,"Ġren":4961,"Ġrul":4962,"Ġrum":4963,"Ġrespe":4964,"tendo":4965,"Ġlives":4966,"Ġpovo":4967,"Ġ17":4968,"Ġabriu":4969,"dies":4970,"Ġleval":4971,"ghted":4972,"Ġmorning":4973,"Ġhol":4974,"Ġsoce":4975,"Ġsofr":4976,"ĠpeÃ§a":4977,"test":4978,"Ġimita":4979,"ĠimpressÃ£o":4980,"Ġapon":4981,"Ġapan":4982,"Ġapal":4983,"Ġapro":4984,"Ġappl":4985,"Ġappar":4986,"ination":4987,"inaÃ§Ã£o":4988,"Ġunica":4989,"Ġareas":4990,"Ġdiziam":4991,"Ġart":4992,"Ġlava":4993,"Ġlater":4994,"Ġboas":4995,"Ġquerido":4996,"Ġmyke":4997,"Ġcasada":4998,"Ġpretex":4999,"ÃŃs":5000,"Ġhealth":5001,"estas":5002,"Ġcredit":5003,"Ġworked":5004,"Ġcaro":5005,"Ġfaziam":5006,"Ġpossa":5007,"Ġpensava":5008,"side":5009,"Ġ23":5010,"Ġcopies":5011,"Ġcopied":5012,"nossos":5013,"Ġbat":5014,"Ġsolo":5015,"Ġadoro":5016,"Ġengan":5017,"Ġestamos":5018,"master":5019,"ĠtranÃ§as":5020,"Ġbecoming":5021,"ologue":5022,"Ġcopying":5023,"Ġcopyri":5024,"jaja":5025,"Ġgrav":5026,"Ġgradua":5027,"Ġconfesso":5028,"Ġconsciencia":5029,"Ġdeixava":5030,"Ġestavamos":5031,"Ġchama":5032,"Ġcucur":5033,"Ġsabendo":5034,"Ġseminaristas":5035,"cons":5036,"Ġanywhere":5037,"Ġpresta":5038,"Ġacabei":5039,"Ġpromessas":5040,"eraÃ§Ã£o":5041,"Ġparecendo":5042,"Ġquizera":5043,"Ġjoy":5044,"Ġtenor":5045,"ficio":5046,"ĠpÃ³dem":5047,"Ġknown":5048,"Ġobj":5049,"Ġobtain":5050,"Ġprinted":5051,"Ġouvido":5052,"Ġjaneiro":5053,"Ġamores":5054,"Ġwhole":5055,"Ġtranslate":5056,"Ġsomma":5057,"prima":5058,"prising":5059,"puta":5060,"Ġvaler":5061,"Ġvalor":5062,"Ġwherever":5063,"Ġrecei":5064,"Ġrecebi":5065,"Ġopus":5066,"Ġfrancamente":5067,"Ġriu":5068,"Ġsincer":5069,"Ġluck":5070,"Ġcontinuei":5071,"Ġpontas":5072,"ĠahÃŃ":5073,"Ġflu":5074,"Ġnetgl":5075,"Ġlinguist":5076,"Ġassom":5077,"Ġassus":5078,"Ġbons":5079,"Ġlevan":5080,"Ġmonica":5081,"Ġquality":5082,"Ġqualidades":5083,"Ġgrowing":5084,"Ġchanged":5085,"rucu":5086,"Ġsubst":5087,"Ġestima":5088,"marias":5089,"vista":5090,"Ġinsist":5091,"Ġintellig":5092,"Ġsuppor":5093,"Ġsupplic":5094,"Ġimagine":5095,"volver":5096,"Ġinflu":5097,"Ġprovider":5098,"Ġmembers":5099,"sure":5100,"Ġdebaixo":5101,"Ġcenturies":5102,"Ġpequenos":5103,"ĠmanhÃ£s":5104,"istics":5105,"Ġcynthia":5106,"Ġconsultan":5107,"Ġvesti":5108,"Ġchorando":5109,"Ġhouse":5110,"Ġletters":5111,"Ġveja":5112,"Ġincluded":5113,"ĠpoderÃ¡":5114,"Ġquarenta":5115,"Ġdirectly":5116,"Ġlimites":5117,"Ġtroca":5118,"Ġestudar":5119,"Ġdisseram":5120,"fied":5121,"Ġclaros":5122,"Ġmarkets":5123,"Ġmaiores":5124,"Ġsepara":5125,"Ġdowntown":5126,"Ġprocura":5127,"Ġcommissioner":5128,"Ġtristeza":5129,"lands":5130,"Ġagua":5131,"imental":5132,"ulaÃ§Ã£o":5133,"Ġstructure":5134,"Ġdespedir":5135,"Ġversions":5136,"Ġruas":5137,"Ġebooks":5138,"Ġpolitica":5139,"centre":5140,"Ġcumpri":5141,"Ġkinds":5142,"ĠreflexÃµes":5143,"Ġgreatly":5144,"Ġapprox":5145,"which":5146,"Ġadeante":5147,"Ġbroad":5148,"Ġsuggest":5149,"ĠresoluÃ§Ã£o":5150,"Ġpropriamente":5151,"Ġtype":5152,"Ġpromoting":5153,"Ġreflecti":5154,"ĠnarraÃ§Ã£o":5155,"Ġmetap":5156,"Ġmetade":5157,"Ġearly":5158,"Ġcutter":5159,"Ġdoesn":5160,"Ġdifficult":5161,"Ġtirar":5162,"Ġdelisle":5163,"Ġlargo":5164,"ĠespaÃ§o":5165,"Ġaquillo":5166,"Ġalcan":5167,"Ġdatabases":5168,"Ġadministrador":5169,"ĠfÃ©rias":5170,"Ġreason":5171,"Ġenxugou":5172,"Ġfallin":5173,"Ġlhes":5174,"Ġwood":5175,"Ġremedio":5176,"ĠalmoÃ§o":5177,"ĠmudanÃ§a":5178,"ĠesqueÃ§a":5179,"Ġdivina":5180,"Ġsuggestions":5181,"Ġtrouxe":5182,"Ġtowers":5183,"Ġreproduz":5184,"Ġinterroga":5185,"Ġfrancaise":5186,"Ġmonths":5187,"Ġabsolu":5188,"Ġwanted":5189,"Ġwindows":5190,"Ġappear":5191,"Ġphotographia":5192,"1998":5193,"Ġminuto":5194,"Ġsingle":5195,"Ġshort":5196,"ĠbenÃ§Ã£o":5197,"Ġalegre":5198,"Ġbelleza":5199,"capit":5200,"Ġstatus":5201,"Ġaccrescentou":5202,"Ġcusta":5203,"Ġobliqu":5204,"Ġbispo":5205,"Ġinvalidos":5206,"Ġseems":5207,"ĠconclusÃ£o":5208,"Ġchinese":5209,"vantage":5210,"ĠalvoroÃ§o":5211,"Ġsignaes":5212,"Ġmaejor":5213,"Ġjean":5214,"Ġloteria":5215,"Ġlaunched":5216,"Ġdefesa":5217,"commerce":5218,"Ġethnologue":5219,"Ġvenezuela":5220,"ĠÃªta":5221,"ĠlÃºcia":5222,"Ġbumbum":5223,"Ġipanema":5224,"Ġalgarismos":5225,"Ġprobably":5226,"Ġhacemo":5227,"Ġsofrer":5228,"Ġcucurrucu":5229,"Ġnetglos":5230,"ĠcucurrucucÃº":5231,".)":5232,"ata":5233,"ame":5234,"ath":5235,"ator":5236,"agora":5237,"besse":5238,"bados":5239,"can":5240,"cing":5241,"cente":5242,"come":5243,"ctor":5244,"dle":5245,"fit":5246,"gi":5247,"hh":5248,"hal":5249,"hic":5250,"hÃµes":5251,"ient":5252,"lia":5253,"link":5254,"mi":5255,"men":5256,"more":5257,"ndo":5258,"oto":5259,"pÃ©":5260,"ption":5261,"prio":5262,"ring":5263,"sing":5264,"tÃ¡mos":5265,"ub":5266,"with":5267,"zas":5268,"Ðµ":5269,"Ġ9":5270,"Ġav":5271,"Ġavo":5272,"Ġaquelles":5273,"Ġtrec":5274,"Ġtanta":5275,"Ġtentei":5276,"Ġep":5277,"Ġeventu":5278,"Ġdro":5279,"ĠdÃ©":5280,"Ġdur":5281,"Ġcit":5282,"Ġchat":5283,"Ġcum":5284,"Ġcesar":5285,"Ġol":5286,"Ġocto":5287,"Ġooh":5288,"ins":5289,"ining":5290,"ints":5291,"information":5292,"Ġmt":5293,"Ġmiu":5294,"ĠpÃ´r":5295,"Ġsix":5296,"Ġsinh":5297,"Ġsky":5298,"ravel":5299,"rahy":5300,"quest":5301,"endi":5302,"ork":5303,"orinhas":5304,"Ġfly":5305,"Ġfesta":5306,"Ġfinas":5307,"Ġfantas":5308,"ises":5309,"ismo":5310,"arou":5311,"ane":5312,"Ġdecis":5313,"Ġdepar":5314,"Ġdeitar":5315,"Ġdeliver":5316,"Ġdeath":5317,"itura":5318,"itavam":5319,"reet":5320,"rela":5321,"Ġll":5322,"Ġlia":5323,"Ġlua":5324,"Ġlance":5325,"Ġlados":5326,"omia":5327,"ality":5328,"Ġvin":5329,"Ġvast":5330,"Ġbrou":5331,"Ġbordo":5332,"hada":5333,"Ġinc":5334,"Ġinit":5335,"Ġinvent":5336,"Ġinex":5337,"emica":5338,"Ġusa":5339,"tique":5340,"tively":5341,"teis":5342,"teve":5343,"teur":5344,"Ġcomes":5345,"table":5346,"guas":5347,"Ġmez":5348,"icon":5349,"Ã§al":5350,"Ã§ando":5351,"Ġseen":5352,"Ġtoile":5353,"Ġestra":5354,"Ġestes":5355,"Ġespos":5356,"Ġgram":5357,"Ġgeo":5358,"vate":5359,"Ġpai":5360,"Ġpablo":5361,"Ġandorinhas":5362,"Ġasci":5363,"Ġrei":5364,"Ġret":5365,"Ġregar":5366,"Ġrevol":5367,"Ġreminis":5368,"Ġrequest":5369,"ece":5370,"ech":5371,"eceu":5372,"Ġido":5373,"horas":5374,"--Â«":5375,"eld":5376,"Ġcachor":5377,"Ġcadeira":5378,"Ġdavam":5379,"Ġdaily":5380,"Ġdaquelles":5381,"Ġdaquellas":5382,"Ġmac":5383,"Ġmat":5384,"Ġmakes":5385,"Ġjeito":5386,"Ġenor":5387,"Ġenvic":5388,"Ġensure":5389,"Ġdiversity":5390,"entina":5391,"entemente":5392,"etas":5393,"resses":5394,"ulas":5395,"Ġthom":5396,"Ġempres":5397,"Ġemend":5398,"Ġemenda":5399,"ilho":5400,"Ġaction":5401,"Ġacadem":5402,"Ġpropoz":5403,"Ġportal":5404,"trans":5405,"ented":5406,"Ġforte":5407,"Ġforum":5408,"Ġsaia":5409,"Ġexpres":5410,"Ġextran":5411,"Ġextre":5412,"Ġbeyon":5413,"chinha":5414,"Ġdesa":5415,"Ġdesvi":5416,"Ġdiscre":5417,"Ġpers":5418,"Ġperigo":5419,"unications":5420,"Ġvid":5421,"Ġsure":5422,"Ġsubl":5423,"laim":5424,"lava":5425,"ithme":5426,"Ġsemanas":5427,"Ġverti":5428,"Ġmuy":5429,"Ġmuda":5430,"Ġmudar":5431,"Ġcasos":5432,"Ġcaste":5433,"Ġresta":5434,"para":5435,"pado":5436,"cion":5437,"Ġparou":5438,"Ġpartes":5439,"Ġparenta":5440,"Ġparentes":5441,"Ãªn":5442,"tary":5443,"Ġpod":5444,"Ġpoeira":5445,"Ġpower":5446,"Ġ12":5447,"Ġ100":5448,"Ġlots":5449,"Ġcompli":5450,"Ġabro":5451,"Ġabria":5452,"Ġabrir":5453,"diga":5454,"Ġwhy":5455,"tros":5456,"Ġmorta":5457,"Ġsopro":5458,"ionally":5459,"Ġorder":5460,"Ġordem":5461,"Ġcantar":5462,"Ġcandida":5463,"Ġfrente":5464,"Ġpeor":5465,"Ġpede":5466,"Ġfalado":5467,"Ġapanha":5468,"Ġsend":5469,"Ġarea":5470,"Ġmoda":5471,"ĠmoÃ§as":5472,"Ġmotivo":5473,"Ġmotivos":5474,"Ġtermo":5475,"Ġtermos":5476,"Ġterror":5477,"Ġallopa":5478,"Ġmana":5479,"Ġmande":5480,"duced":5481,"Ġarithme":5482,"Ġpassei":5483,"ffic":5484,"Ġguer":5485,"Ġgustan":5486,"Ġfully":5487,"Ġcomment":5488,"Ġtratava":5489,"Ġtraditional":5490,"plica":5491,"Ġchar":5492,"ĠchÃ¡":5493,"Ġprevious":5494,"Ġmargar":5495,"Ġmartin":5496,"ury":5497,"urrei":5498,"essed":5499,"dasse":5500,"Ãµe":5501,"Ġkreyol":5502,"itation":5503,"itaÃ§Ã£o":5504,"Ġcarried":5505,"blished":5506,"Ġcorte":5507,"Ġcorria":5508,"toria":5509,"torze":5510,"Ġposted":5511,"Ġpositive":5512,"vogado":5513,"Ġcosts":5514,"Ġcontando":5515,"Ġprojecto":5516,"Ġ25":5517,"Ġwasn":5518,"Ġrecre":5519,"Ġrecent":5520,"Ġirre":5521,"Ġvisit":5522,"Ġvisinha":5523,"Ġvisitor":5524,"Ġpadres":5525,"Ġaccent":5526,"Ġaccender":5527,"Ġadditional":5528,"Ġadvogado":5529,"Ġmalu":5530,"Ġ1997":5531,"ount":5532,"Ġestado":5533,"Ġpouca":5534,"bat":5535,"Ġtique":5536,"Ġtaca":5537,"Ġtakes":5538,"national":5539,"Ġgrava":5540,"ĠgraÃ§as":5541,"Ġpedindo":5542,"Ġfees":5543,"Ġconfi":5544,"Ġconsol":5545,"Ġdeixasse":5546,"Ġroll":5547,"Ġcerim":5548,"Ġcerteza":5549,"ids":5550,"Ġcuidar":5551,"Ġsabbados":5552,"roso":5553,"Ġpromise":5554,"Ġtransfer":5555,"Ġhomero":5556,"Ġparecido":5557,"Ġtruly":5558,"Ġtengo":5559,"Ġclick":5560,"Ġmostrou":5561,"Ġgostou":5562,"Ġpublications":5563,"Ġpublication":5564,"nsyl":5565,"Ġinstrum":5566,"Ġcrise":5567,"Ġobse":5568,"Ġobst":5569,"Ġobvious":5570,"Ġtimes":5571,"ĠcalÃ§as":5572,"Ġpassos":5573,"Ġsentimento":5574,"iquemos":5575,"Ġnascer":5576,"Ġbrray":5577,"Ġsombra":5578,"iedade":5579,"Ġvalem":5580,"Ġvalley":5581,"Ġoppos":5582,"dores":5583,"Ġprecisava":5584,"Ġponta":5585,"Ġfirme":5586,"Ġphil":5587,"Ġcampa":5588,"Ġbuscava":5589,"Ġmettia":5590,"Ġmonum":5591,"Ġproprios":5592,"Ġchanging":5593,"Ġsubi":5594,"visÃ£o":5595,"Ġpolemica":5596,"Ġconhecido":5597,"Ġsupp":5598,"Ġimagem":5599,"Ġlembrava":5600,"Ġaggra":5601,"Ġbull":5602,"Ġficaram":5603,"Ġwriter":5604,"Ġmember":5605,"Ġsorrindo":5606,"Ġrelated":5607,"Ġquiere":5608,"gueis":5609,"Ġdentes":5610,"times":5611,"Ġdeveloped":5612,"ĠlicenÃ§a":5613,"Ġesquece":5614,"Ġesqueceu":5615,"ordou":5616,"tirte":5617,"Ġescrevendo":5618,"Ġprincipalmente":5619,"Ġparticularmente":5620,"Ġseculos":5621,"Ġthroughout":5622,"Ġachado":5623,"Ġrison":5624,"Ġsales":5625,"Ġglows":5626,"Ġsurprising":5627,"Ġdice":5628,"Ġgrea":5629,"Ġfalavam":5630,"hips":5631,"Ġchocola":5632,"Ġandarahy":5633,"Ġregres":5634,"Ġtornava":5635,"ventura":5636,"Ġquatorze":5637,"Ġouvindo":5638,"Ġacceito":5639,"pire":5640,"thello":5641,"Ġinclude":5642,"Ġincludes":5643,"Ġowner":5644,"Ġdirection":5645,"Ġfelizes":5646,"Ġpassaros":5647,"Ġstudy":5648,"Ġstump":5649,"Ġdisser":5650,"Ġcouldn":5651,"Ġzero":5652,"Ġbibl":5653,"Ġdefiniti":5654,"ĠdefiniÃ§Ã£o":5655,"Ġapertou":5656,"Ġmirando":5657,"Ġrepetiu":5658,"ĠrepetiÃ§Ã£o":5659,"vania":5660,"Ġcrescendo":5661,"Ġsilicon":5662,"Ġorganisation":5663,"Ġdescan":5664,"Ġroma":5665,"Ġexplicado":5666,"Ġhistory":5667,"parece":5668,"Ġaguentar":5669,"Ġsantissimo":5670,"Ġsummer":5671,"Ġdevem":5672,"Ġincrease":5673,"Ġdespedida":5674,"Ġcollege":5675,"Ġstealing":5676,"Ġnewslet":5677,"Ġdistribute":5678,"Ġdistributed":5679,"Ġcumpria":5680,"Ġgives":5681,"ĠconversaÃ§Ã£o":5682,"Ġwarran":5683,"Ġindica":5684,"Ġlonga":5685,"ĠcomparaÃ§Ã£o":5686,"Ġbellaque":5687,"Ġinteresa":5688,"Ġ185":5689,"Ġpublishers":5690,"Ġbeijar":5691,"Ġadeus":5692,"Ġputting":5693,"Ġsanguine":5694,"Ġbrother":5695,"Ġbrotou":5696,"Ġresolver":5697,"Ġescolher":5698,"Ġacudiram":5699,"Ġescada":5700,"Ġdireito":5701,"Ġdestina":5702,"Ġteachers":5703,"Ġindividuals":5704,"Ġpiano":5705,"Ġremember":5706,"Ġprotected":5707,"Ġamerica":5708,"Ġswit":5709,"Ġaspecto":5710,"Ġchamou":5711,"Ġreplace":5712,"Ġreligios":5713,"Ġespada":5714,"Ġ198":5715,"Ġcharacters":5716,"Ġespiritual":5717,"Ġlost":5718,"Ġaddresses":5719,"Ġaudiencia":5720,"Ġrepetia":5721,"Ġdecember":5722,"Ġattribu":5723,"Ġcuriosidades":5724,"âĢĶ,":5725,"Ġsymbol":5726,"face":5727,"Ġdisplaying":5728,"Ġtiveram":5729,"Ġcyberie":5730,"Ġmysterios":5731,"Ġausencia":5732,"Ġstrateg":5733,"Ġinveja":5734,"Ġgold":5735,"Ġconcordou":5736,"Ġconnected":5737,"Ġhypo":5738,"Ġhandle":5739,"Ġreceived":5740,"Ġsuspeita":5741,"Ġexcellent":5742,"ĠadmiraÃ§Ã£o":5743,"ĠobrigaÃ§Ã£o":5744,"Ġeffort":5745,"Ġefforts":5746,"Ġcoche":5747,"Ġcocheiro":5748,"Ġintima":5749,"Ġespantado":5750,"Ġjornaes":5751,"Ġalugueis":5752,"Ġsuccedeu":5753,"Ġleader":5754,"Ġnearly":5755,"Ġrecommenda":5756,"Ġopportunity":5757,"Ġpallio":5758,"ĠdistincÃ§Ã£o":5759,"Ġriverban":5760,"Ġunderstanding":5761,"Ġbarrier":5762,"Ġheadstone":5763,"Ġadivinha":5764,"Ġimpossivel":5765,"gonha":5766,"language":5767,"Ġtongue":5768,"Ġlangue":5769,"Ġatalhou":5770,"Ġimporta":5771,"ĠafflicÃ§Ã£o":5772,"Ġtechnologies":5773,"Ġvolunteers":5774,"Ġmillion":5775,"eremias":5776,"Ġenfiei":5777,"Ġalheias":5778,"Ġimpulso":5779,"Ġguardar":5780,"ĠirmÃ£o":5781,"Ġobscu":5782,"Ġmonitoring":5783,"Ġaccepted":5784,"Ġsacrific":5785,"Ġpurpose":5786,"Ġbilhete":5787,"Ġpotential":5788,"Ġpictures":5789,"Ġbastante":5790,"Ġinvesti":5791,"Ġleitora":5792,"Ġpresident":5793,"Ġbookstore":5794,"Ġbrazil":5795,"Ġsubscribers":5796,"Ġinev":5797,"Ġsepultura":5798,"Ġrelogio":5799,"Ġjacques":5800,"Ġnamoro":5801,"Ġthousands":5802,"Ġsatanaz":5803,"Ġextent":5804,"Ġholder":5805,"Ġpretexto":5806,"Ġopusculo":5807,"Ġlucky":5808,"Ġtrecho":5809,"Ġeventually":5810,"Ġoctober":5811,"Ġdepart":5812,"Ġbrought":5813,"Ġesposa":5814,"Ġascii":5815,"Ġcachorro":5816,"Ġenvicia":5817,"Ġbeyond":5818,"Ġmargarida":5819,"nsylvania":5820,"Ġriverbank":5821,"70":5822,"aes":5823,"ated":5824,"by":5825,"bru":5826,"bile":5827,"call":5828,"cture":5829,"cular":5830,"cimento":5831,"df":5832,"dinha":5833,"dinhos":5834,"eda":5835,"fy":5836,"gle":5837,"glo":5838,"gment":5839,"gens":5840,"gress":5841,"here":5842,"iras":5843,"iram":5844,"iano":5845,"ips":5846,"jou":5847,"kno":5848,"loc":5849,"long":5850,"mon":5851,"nan":5852,"ness":5853,"new":5854,"nidade":5855,"ners":5856,"oy":5857,"ods":5858,"phe":5859,"pet":5860,"pts":5861,"rendo":5862,"sy":5863,"sen":5864,"ull":5865,"uta":5866,"ume":5867,"vy":5868,"vÃ£o":5869,"vessem":5870,"wr":5871,"wise":5872,"Ġai":5873,"Ġares":5874,"Ġaventu":5875,"Ġajus":5876,"Ġtas":5877,"Ġtos":5878,"Ġtir":5879,"Ġevi":5880,"Ġevo":5881,"Ġdun":5882,"ĠdÃ´r":5883,"Ġcere":5884,"Ġole":5885,"Ġothello":5886,"inos":5887,"Ġmr":5888,"Ġpul":5889,"Ġpil":5890,"Ġsis":5891,"Ġsul":5892,"Ġsam":5893,"Ġsna":5894,"Ġsido":5895,"Ġspir":5896,"rame":5897,"raria":5898,"escobar":5899,"quis":5900,"quia":5901,"quio":5902,"queiro":5903,"Ġni":5904,"ĠnÃ©":5905,"Ġnesta":5906,"endia":5907,"ossa":5908,"osop":5909,"orn":5910,"orou":5911,"Ġfas":5912,"Ġfom":5913,"Ġful":5914,"ĠfÃº":5915,"Ġfour":5916,"ĠfÃ´r":5917,"ĠfÃ²":5918,"Ġfestas":5919,"issem":5920,"arias":5921,"arios":5922,"onde":5923,"ancial":5924,"anger":5925,"Ġdele":5926,"Ġdecl":5927,"Ġdegra":5928,"Ġdegre":5929,"itica":5930,"rew":5931,"regra":5932,"Ġqueim":5933,"Ġqueira":5934,"Ġlin":5935,"Ġlec":5936,"Ġlam":5937,"Ġlendo":5938,"Ġlord":5939,"Ġlists":5940,"Ġlutar":5941,"oms":5942,"omina":5943,"ombe":5944,"alto":5945,"Ġvul":5946,"Ġvence":5947,"Ġvaria":5948,"Ġblo":5949,"Ġbur":5950,"Ġbah":5951,"Ġbound":5952,"Ġbesta":5953,"Ġwire":5954,"iados":5955,"havam":5956,"Ġintro":5957,"Ġindic":5958,"empre":5959,"embro":5960,"Ġuh":5961,"Ġur":5962,"Ġuly":5963,"tiu":5964,"tier":5965,"tiÃ§Ã£o":5966,"tific":5967,"teo":5968,"tete":5969,"Ġanci":5970,"Ġanjos":5971,"llei":5972,"Ġcomba":5973,"tadas":5974,"gui":5975,"gum":5976,"gulho":5977,"ices":5978,"Ã§ol":5979,"Ġsea":5980,"Ġsequer":5981,"Ġestran":5982,"Ġge":5983,"Ġgon":5984,"Ġgal":5985,"vae":5986,"Ġpata":5987,"Ġpaciencia":5988,"Ġastron":5989,"Ġasking":5990,"Ġrepa":5991,"Ġreac":5992,"Ġredist":5993,"ecimento":5994,"Ġix":5995,"Ġdoces":5996,"Ġnotar":5997,"Ġcaus":5998,"Ġcavall":5999,"Ġdate":6000,"Ġdahi":6001,"Ġcontes":6002,"Ġconvic":6003,"Ġcontado":6004,"Ġconcil":6005,"Ġcontext":6006,"Ġmad":6007,"meu":6008,"medi":6009,"uso":6010,"uscrip":6011,"Ġjeremias":6012,"Ġyork":6013,"Ġentro":6014,"Ġencar":6015,"Ġency":6016,"Ġdifer":6017,"Ġdivers":6018,"Ġdirei":6019,"ole":6020,"Ġnative":6021,"Ġnames":6022,"Ġisp":6023,"Ġhund":6024,"Ġthought":6025,"Ġalcova":6026,"Ġempl":6027,"Ġembr":6028,"ils":6029,"editor":6030,"Ġactos":6031,"Ġacanha":6032,"Ġpropor":6033,"Ġprovar":6034,"amou":6035,"Ġportu":6036,"Ġportas":6037,"iria":6038,"Ġhay":6039,"Ġhace":6040,"tract":6041,"Ġforces":6042,"ĠforÃ§as":6043,"Ġsae":6044,"Ġsaisse":6045,"Ġexisten":6046,"ĠexpressÃ£o":6047,"Ġexistencia":6048,"ĠexposiÃ§Ã£o":6049,"Ġexquis":6050,"Ġbeber":6051,"Ġbelly":6052,"cados":6053,"chas":6054,"char":6055,"viu":6056,"vidade":6057,"vidas":6058,"Ġdestes":6059,"Ġdestas":6060,"Ġdesdem":6061,"Ġdesvan":6062,"these":6063,"agens":6064,"agiar":6065,"Ġperra":6066,"Ġpersu":6067,"Ġvigar":6068,"Ġsuje":6069,"Ġserei":6070,"Ġservia":6071,"copy":6072,"umo":6073,"lap":6074,"Ġcoisa":6075,"Ġcocadas":6076,"Ġvers":6077,"ĠverÃ£o":6078,"Ġverte":6079,"Ġmue":6080,"lhos":6081,"utal":6082,"Ġreno":6083,"Ġrespira":6084,"pava":6085,"izo":6086,"izing":6087,"ĠÃ¡gua":6088,"ĠÃ¡guas":6089,"ciente":6090,"cipa":6091,"civel":6092,"Ġparce":6093,"Ġlido":6094,"Ġlive":6095,"Ġligas":6096,"Ġpoz":6097,"Ġpodendo":6098,"Ġ11":6099,"Ġlog":6100,"Ġinterno":6101,"gaÃŃto":6102,"Ġwebmaster":6103,"Ġcompos":6104,"Ġcomposto":6105,"diÃ§Ã£o":6106,"didas":6107,"Ġlex":6108,"Ġlebert":6109,"trina":6110,"Ġmoro":6111,"Ġmortos":6112,"Ġfair":6113,"Ġfaith":6114,"Ġfactor":6115,"Ġsob":6116,"Ġcanad":6117,"Ġcantos":6118,"Ġcantando":6119,"Ġpup":6120,"Ġpuz":6121,"Ġpuesta":6122,"Ġfaltar":6123,"Ġfalaria":6124,"Ġimprim":6125,"simo":6126,"Ġapos":6127,"Ġapplic":6128,"Ġapezar":6129,"Ġuntil":6130,"Ġunless":6131,"Ġmovi":6132,"Ġmodos":6133,"Ġmodes":6134,"Ġmorava":6135,"Ġmobile":6136,"Ġmoeda":6137,"Ġterm":6138,"Ġalle":6139,"Ġalliados":6140,"Ġmanha":6141,"Ġmandei":6142,"Ġmanuscrip":6143,"Ġarg":6144,"Ġarri":6145,"Ġarma":6146,"Ġarris":6147,"Ġpast":6148,"Ġpasteur":6149,"Ġlac":6150,"Ġlat":6151,"Ġlatin":6152,"ciam":6153,"Ġcommit":6154,"Ġtrag":6155,"Ġtradition":6156,"Ġbodies":6157,"pliquei":6158,"Ġtamanho":6159,"ĠvocÃªs":6160,"Ġescrup":6161,"ĠpreÃ§o":6162,"igan":6163,"Ġmarie":6164,"Ġmarcha":6165,"uros":6166,"Ġprimary":6167,"ÃŃcio":6168,"estou":6169,"Ġraro":6170,"Ġraza":6171,"Ġnega":6172,"Ġkings":6173,"ahi":6174,"Ġcarn":6175,"Ġcarinho":6176,"Ġcaridade":6177,"Ġcorrig":6178,"Ġhasta":6179,"ayy":6180,"Ġcosta":6181,"Ġcontas":6182,"Ġcontente":6183,"round":6184,"Ġcheck":6185,"Ġfilm":6186,"Ġgoal":6187,"Ġbaja":6188,"Ġbajo":6189,"Ġbatia":6190,"Ġrecente":6191,"Ġrecusa":6192,"Ġrecently":6193,"Ġrecordar":6194,"Ġduvida":6195,"Ġsold":6196,"Ġsolic":6197,"Ġvisse":6198,"Ġvela":6199,"Ġaccor":6200,"Ġaccom":6201,"Ġaccura":6202,"Ġvoltas":6203,"Ġotherwise":6204,"ials":6205,"Ġengines":6206,"Ġtranqu":6207,"mental":6208,"Ġtaking":6209,"nada":6210,"Ġfeitas":6211,"Ġfebres":6212,"ĠconfusÃ£o":6213,"Ġprojectos":6214,"ĠdeixÃ¡ra":6215,"Ġsometimes":6216,"Ġrode":6217,"Ġrobert":6218,"pend":6219,"Ġcura":6220,"Ġcuri":6221,"Ġcuido":6222,"Ġperguntas":6223,"Ġpresas":6224,"ĠpresenÃ§a":6225,"Ġtherefore":6226,"Ġacabasse":6227,"Ġjoias":6228,"Ġjoelhos":6229,"Ġtrombe":6230,"Ġaudio":6231,"feitamente":6232,"Ġclou":6233,"Ġclub":6234,"ĠcomeÃ§":6235,"ĠcomeÃ§ava":6236,"Ã´l":6237,"Ã´res":6238,"Ġside":6239,"Ġesperou":6240,"Ġesperei":6241,"ived":6242,"ourse":6243,"project":6244,"Ġtimidez":6245,"Ġentrava":6246,"Ġpasses":6247,"Ġpassando":6248,"internet":6249,"Ġsanchinha":6250,"ribilho":6251,"Ġsentimentos":6252,"Ġcreative":6253,"Ġcreaturas":6254,"Ġknowing":6255,"Ġstaff":6256,"Ġnascido":6257,"ĠvirÃ¡":6258,"Ġbron":6259,"Ġsomew":6260,"Ġprofessionally":6261,"puz":6262,"Ġplum":6263,"Ġplagiar":6264,"Ġvalia":6265,"Ġvalue":6266,"ĠaffeiÃ§Ã£o":6267,"Ġwhereas":6268,"chado":6269,"phone":6270,"Ġglass":6271,"Ġcontracto":6272,"Ġmission":6273,"Ġfrantext":6274,"Ġrival":6275,"Ġwrites":6276,"Ġpassavam":6277,"Ġcontinuava":6278,"Ġponho":6279,"Ġsoube":6280,"Ġsoubesse":6281,"Ġfirm":6282,"herlands":6283,"Ġphras":6284,"ĠflÃ´r":6285,"Ġflores":6286,"Ġtextos":6287,"Ġafim":6288,"Ġaffor":6289,"Ġnets":6290,"Ġbondade":6291,"Ġrepentina":6292,"Ġtraziam":6293,"comm":6294,"Ġminis":6295,"Ġminutes":6296,"Ġmono":6297,"Ġdifferente":6298,"Ġdifferences":6299,"Ġsuss":6300,"Ġsuspi":6301,"Ġsubir":6302,"Ġcommunicating":6303,"Ġfinding":6304,"Ġestive":6305,"Ġplaces":6306,"Ġconheci":6307,"Ġbuy":6308,"Ġresearchers":6309,"Ġmostrei":6310,"Ġaccessible":6311,"Ġsort":6312,"Ġsorte":6313,"Ġsorris":6314,"Ġdisclaim":6315,"Ġdiscourse":6316,"Ġcentro":6317,"Ġseguiu":6318,"liv":6319,"ĠoraÃ§Ãµes":6320,"Ġstreet":6321,"ĠlicÃ§Ãµes":6322,"Ġespal":6323,"Ġlembro":6324,"ordina":6325,"Ġescrevi":6326,"ĠfÃ³r":6327,"Ġestaria":6328,"Ġlibrari":6329,"Ġliterature":6330,"Ġsections":6331,"Ġjuntas":6332,"Ġamarre":6333,"Ġeveryday":6334,"Ġsalvo":6335,"Ġstars":6336,"Ġantigos":6337,"Ġproduced":6338,"Ġsurda":6339,"web":6340,"Ġendanger":6341,"Ġchoice":6342,"Ġregimental":6343,"Ġfamily":6344,"Ġ30":6345,"Ġachasse":6346,"Ġaccept":6347,"Ġacceitei":6348,"pier":6349,"Ġvehic":6350,"Ġbelow":6351,"Ġimportante":6352,"Ġimportance":6353,"Ġlinking":6354,"ĠbeiÃ§os":6355,"Ġcorreu":6356,"Ġhaveria":6357,"Ġexacto":6358,"appointed":6359,"manda":6360,"Ġtrocar":6361,"Ġstudent":6362,"Ġbanal":6363,"Ġbanana":6364,"Ġdissera":6365,"fique":6366,"Ġfight":6367,"Ġfechar":6368,"Ġfechava":6369,"Ġoccor":6370,"Ġformula":6371,"Ġedition":6372,"Ġcadaver":6373,"Ġhappy":6374,"Ġdormia":6375,"Ġadoec":6376,"Ġseparar":6377,"Ġorganisa":6378,"Ġallowing":6379,"Ġsciences":6380,"ĠfeiÃ§Ãµes":6381,"Ġmedida":6382,"Ġdescrib":6383,"Ġambas":6384,"Ġroman":6385,"Ġpaloma":6386,"Ġhonra":6387,"Ġhontem":6388,"Ġamigas":6389,"Ġdevelopments":6390,"Ġmajority":6391,"Ġestrem":6392,"Ġestrellas":6393,"bilidade":6394,"Ġstreng":6395,"Ġruim":6396,"Ġfeelings":6397,"treal":6398,"Ġdoutrina":6399,"Ġhardly":6400,"Ġnegocios":6401,"Ġegualmente":6402,"Ġpintura":6403,"Ġlabour":6404,"Ġbreak":6405,"Ġgiving":6406,"Ġescuro":6407,"Ġamai":6408,"Ġlonely":6409,"Ġcommerce":6410,"Ġcuidava":6411,"Ġadequ":6412,"Ġoffering":6413,"Ġescolha":6414,"Ġsolution":6415,"ĠsoluÃ§Ã£o":6416,"Ġprogrammes":6417,"Ġprogramming":6418,"Ġmanager":6419,"Ġpromote":6420,"Ġagradeceu":6421,"Ġacontecer":6422,"Ġaconteceu":6423,"lang":6424,"Ġoldest":6425,"Ġspeaking":6426,"Ġremor":6427,"Ġremem":6428,"Ġremoved":6429,"Ġreferi":6430,"Ġconcerned":6431,"Ġhomeopa":6432,"Ġdesconfi":6433,"Ġelogios":6434,"Ġcutters":6435,"Ġcustou":6436,"Ġswiss":6437,"Ġdecidiu":6438,"Ġensinou":6439,"ĠdissimulaÃ§Ã£o":6440,"Ġturn":6441,"Ġapprendeu":6442,"Ġreplacement":6443,"Ġreligioso":6444,"Ġrange":6445,"Ġmoment":6446,"Ġfolhe":6447,"Ġfolhas":6448,"Ġanimo":6449,"Ġsecreta":6450,"Ġsecretary":6451,"Ġexchange":6452,"Ġcompleta":6453,"Ġcompletely":6454,"Ġterceira":6455,"Ġdescobrir":6456,"murou":6457,"ĠaquÃŃ":6458,"Ġblind":6459,"Ġgringo":6460,"Ġinterromp":6461,"Ġinterrompeu":6462,"Ġelsewhere":6463,"Ġmaterials":6464,"Ġaborrecido":6465,"ĠadministraÃ§Ã£o":6466,"Ġsexo":6467,"Ġexclamou":6468,"fication":6469,"Ġevitar":6470,"Ġquestions":6471,"Ġwalk":6472,"Ġindex":6473,"ĠaliÃ¡s":6474,"Ġproximo":6475,"Ġsairam":6476,"Ġmurmurou":6477,"Ġreconcil":6478,"Ġmemorias":6479,"Ġmysterio":6480,"baby":6481,"Ġinvejas":6482,"Ġcattete":6483,"Ġdivino":6484,"Ġhyper":6485,"Ġrussos":6486,"Ġphysical":6487,"justamente":6488,"Ġtelec":6489,"Ġeducation":6490,"Ġeducational":6491,"ĠcrianÃ§a":6492,"Ġprivate":6493,"Ġbeneficio":6494,"Ġhimself":6495,"chester":6496,"Ġdespezas":6497,"ĠperfeiÃ§Ã£o":6498,"Ġperdoa":6499,"Ġprepared":6500,"Ġmerece":6501,"Ġincreasingly":6502,"gether":6503,"Ġtinta":6504,"Ġrelevant":6505,"Ġcomprehen":6506,"Ġlepra":6507,"ĠsÃ³sinho":6508,"Ġchorou":6509,"ĠrecordaÃ§Ãµes":6510,"Ġconserva":6511,"Ġbelieve":6512,"Ġheadstones":6513,"Ġadolescencia":6514,"Ġimpossible":6515,"Ġrecognition":6516,"Ġajudar":6517,"Ġceder":6518,"Ġstock":6519,"Ġscott":6520,"Ġmeaning":6521,"Ġrequire":6522,"Ġexpanded":6523,"Ġweekly":6524,"Ġroupa":6525,"Ġresult":6526,"Ġliberdade":6527,"Ġimpede":6528,"Ġimpeto":6529,"Ġpossuia":6530,"Ġadvertis":6531,"Ġmethod":6532,"Ġestivera":6533,"ĠexclamaÃ§Ã£o":6534,"ĠameaÃ§a":6535,"Ġexclusi":6536,"Ġagainst":6537,"Ġequip":6538,"Ġventura":6539,"ĠgamÃ£o":6540,"ĠrepartiÃ§Ã£o":6541,"Ġrepugn":6542,"Ġreturn":6543,"Ġnaturally":6544,"Ġitaliano":6545,"Ġinteressante":6546,"Ġmodestia":6547,"Ġtravlang":6548,"Ġrecebeu":6549,"Ġuniversal":6550,"Ġbarbeiro":6551,"Ġsummarization":6552,"Ġdissimulada":6553,"Ġmelancolia":6554,"Ġabertos":6555,"Ġdelicios":6556,"Ġdedicated":6557,"Ġrebolo":6558,"Ġretorqui":6559,"Ġnovember":6560,"Ġthree":6561,"Ġembaixo":6562,"Ġhabitual":6563,"ĠperreÃŃto":6564,"Ġrespected":6565,"Ġcancella":6566,"Ġintegrated":6567,"Ġdezesete":6568,"Ġlouvores":6569,"Ġschools":6570,"Ġautomated":6571,"Ġcircumstan":6572,"Ġessential":6573,"Ġsympathia":6574,"Ġdesappareceu":6575,"operation":6576,"Ã±o":6577,"Ġafrica":6578,"Ġcenter":6579,"Ġindagar":6580,"Ġremain":6581,"Ġpermanent":6582,"structure":6583,"Ġrules":6584,"Ġaprove":6585,"Ġlevantar":6586,"Ġsubstitu":6587,"Ġintelligence":6588,"Ġabsolutamente":6589,"capitÃº":6590,"Ġobliqua":6591,"related":6592,"Ġgrammar":6593,"Ġretrie":6594,"Ġreminisc":6595,"Ġmatters":6596,"Ġvidro":6597,"Ġsublim":6598,"Ġvertigem":6599,"Ġcompliance":6600,"Ġarithmeticas":6601,"Ġguerra":6602,"Ġvisitors":6603,"Ġcerimonia":6604,"Ġobsequio":6605,"Ġobstante":6606,"Ġphilosop":6607,"Ġchocolate":6608,"Ġnewsletter":6609,"Ġhypothese":6610,"Ġsacrifice":6611,"Ġinevitable":6612,"montreal":6613,"Ġtirou":6614,"Ġdunlap":6615,"Ġcerebro":6616,"Ġoleos":6617,"Ġfomos":6618,"ĠfÃºria":6619,"Ġdegree":6620,"Ġbahia":6621,"ĠconvicÃ§Ã£o":6622,"Ġexistence":6623,"Ġvigario":6624,"Ġescrupulo":6625,"Ġtrombeta":6626,"Ġendangered":6627,"Ġorganisations":6628,"Ġstrength":6629,"50":6630,"71":6631,"aca":6632,"aded":6633,"atures":6634,"bet":6635,"bul":6636,"bur":6637,"bria":6638,"bble":6639,"base":6640,"brance":6641,"cal":6642,"cca":6643,"clo":6644,"cesse":6645,"cers":6646,"dg":6647,"dly":6648,"dito":6649,"dge":6650,"dante":6651,"dentes":6652,"dimento":6653,"ee":6654,"eto":6655,"elle":6656,"fs":6657,"fing":6658,"fri":6659,"fil":6660,"feld":6661,"gia":6662,"gido":6663,"gÃ¡mos":6664,"gados":6665,"gadas":6666,"gene":6667,"hÃ£o":6668,"ip":6669,"ique":6670,"ivel":6671,"iÃ§Ãµes":6672,"ians":6673,"irie":6674,"jun":6675,"jere":6676,"kam":6677,"len":6678,"lit":6679,"lim":6680,"linas":6681,"mb":6682,"mor":6683,"mit":6684,"mul":6685,"mous":6686,"menti":6687,"nr":6688,"nect":6689,"nels":6690,"ote":6691,"over":6692,"obri":6693,"pp":6694,"pas":6695,"rene":6696,"sin":6697,"sor":6698,"sia":6699,"sangu":6700,"snet":6701,"tha":6702,"tte":6703,"tho":6704,"tinu":6705,"trei":6706,"ues":6707,"uar":6708,"ure":6709,"ution":6710,"uwer":6711,"vil":6712,"vando":6713,"vess":6714,"vasse":6715,"war":6716,"ward":6717,"ym":6718,"yah":6719,"zando":6720,"Ã¢":6721,"Ġavi":6722,"Ġapo":6723,"ĠaÃ§o":6724,"Ġahora":6725,"Ġaberto":6726,"Ġaonde":6727,"Ġtes":6728,"Ġtab":6729,"Ġtentar":6730,"Ġtantas":6731,"Ġtantos":6732,"Ġese":6733,"Ġego":6734,"Ġevol":6735,"Ġease":6736,"Ġevan":6737,"Ġdri":6738,"Ġdry":6739,"Ġdream":6740,"Ġcra":6741,"Ġcdi":6742,"Ġcig":6743,"Ġciu":6744,"Ġcros":6745,"Ġcens":6746,"Ġciv":6747,"Ġok":6748,"Ġore":6749,"Ġori":6750,"Ġoito":6751,"ini":6752,"inta":6753,"inst":6754,"inop":6755,"inua":6756,"Ġmando":6757,"Ġmouro":6758,"Ġpet":6759,"Ġpone":6760,"Ġpist":6761,"Ġpido":6762,"Ġpide":6763,"Ġpsy":6764,"ert":6765,"Ġsun":6766,"Ġsina":6767,"Ġspr":6768,"Ġslet":6769,"Ġsliver":6770,"Ġspend":6771,"ramos":6772,"rage":6773,"rastructure":6774,"esh":6775,"esas":6776,"esia":6777,"ester":6778,"Ġnu":6779,"enes":6780,"enri":6781,"ends":6782,"ency":6783,"asÃ£o":6784,"ost":6785,"oshi":6786,"Ġquant":6787,"Ġquantas":6788,"Ġquantos":6789,"Ġfing":6790,"ĠfÃ¡":6791,"Ġfla":6792,"Ġfere":6793,"Ġfix":6794,"Ġflo":6795,"Ġfico":6796,"ĠfÃ´":6797,"Ġfitou":6798,"Ġfitava":6799,"Ġfixa":6800,"isar":6801,"istes":6802,"ares":6803,"ared":6804,"onto":6805,"onies":6806,"Ã£es":6807,"anear":6808,"Ġdeta":6809,"Ġdeep":6810,"Ġdeitei":6811,"Ġdeitado":6812,"Ġdebu":6813,"itre":6814,"itic":6815,"itut":6816,"itish":6817,"itical":6818,"itely":6819,"rech":6820,"reds":6821,"Ġqueix":6822,"Ġlinha":6823,"Ġlmb":6824,"Ġtheoria":6825,"Ġtheat":6826,"omet":6827,"Ġving":6828,"ĠvÃ¡s":6829,"Ġvanta":6830,"Ġvestia":6831,"Ġbul":6832,"Ġbed":6833,"Ġboun":6834,"Ġbeira":6835,"Ġblow":6836,"Ġwha":6837,"Ġwat":6838,"iated":6839,"dob":6840,"ham":6841,"haar":6842,"hador":6843,"Ġinj":6844,"Ġinn":6845,"Ġint":6846,"Ġinim":6847,"Ġintu":6848,"Ġincer":6849,"Ġinteiro":6850,"Ġingen":6851,"Ġinside":6852,"empo":6853,"tice":6854,"tima":6855,"timo":6856,"tever":6857,"Ġante":6858,"Ġanec":6859,"Ġanima":6860,"Ġangel":6861,"Ġandei":6862,"Ġanony":6863,"lled":6864,"Ġcomquanto":6865,"Ġcompoz":6866,"Ġcomtudo":6867,"tai":6868,"tados":6869,"tational":6870,"tability":6871,"daia":6872,"dated":6873,"imas":6874,"Ã©a":6875,"Ġmeant":6876,"sed":6877,"segu":6878,"dez":6879,"Ã§Ã¡":6880,"Ġtoca":6881,"Ġtook":6882,"Ġtown":6883,"Ġtogether":6884,"Ġesto":6885,"Ġester":6886,"Ġestr":6887,"Ġespre":6888,"Ġestoy":6889,"Ġgan":6890,"Ġgru":6891,"Ġgeito":6892,"Ġpais":6893,"Ġpaul":6894,"Ġpaga":6895,"Ġpaying":6896,"Ġassi":6897,"Ã¡n":6898,"Ã¡gua":6899,"Ġreti":6900,"Ġrever":6901,"Ġrefor":6902,"Ġrepor":6903,"Ġreven":6904,"Ġredar":6905,"Ġreitor":6906,"Ġrecado":6907,"Ġreduz":6908,"Ġrepliquei":6909,"Ġii":6910,"Ġirei":6911,"Ġiremos":6912,"ĠouÃ§o":6913,"Ġnobre":6914,"elds":6915,"Ġcather":6916,"Ġcabel":6917,"Ġdatas":6918,"Ġconv":6919,"Ġconver":6920,"Ġcontro":6921,"Ġconju":6922,"Ġconego":6923,"Ġconnect":6924,"Ġmaj":6925,"Ġmau":6926,"Ġmax":6927,"Ġmato":6928,"Ġmama":6929,"Ġmaestro":6930,"Ġmami":6931,"medo":6932,"meira":6933,"usias":6934,"usado":6935,"ĠÃ©s":6936,"Ġyoshi":6937,"ril":6938,"rius":6939,"ridÃ£o":6940,"Ġenf":6941,"Ġenh":6942,"Ġensa":6943,"Ġenth":6944,"Ġencos":6945,"Ġencou":6946,"Ġenche":6947,"Ġenrich":6948,"Ġenviu":6949,"Ġdial":6950,"entou":6951,"etos":6952,"etary":6953,"research":6954,"cei":6955,"ception":6956,"Ġnations":6957,"Ġnaquelles":6958,"ulp":6959,"Ġhun":6960,"Ġhers":6961,"Ġhours":6962,"Ġhenri":6963,"Ġthr":6964,"Ġalgo":6965,"Ġalong":6966,"Ġaltura":6967,"Ġemer":6968,"Ġembra":6969,"Ġempire":6970,"ild":6971,"ilo":6972,"Ġeras":6973,"eds":6974,"Ġaco":6975,"Ġact":6976,"ĠacÃ§Ãµes":6977,"Ġacred":6978,"Ġprocu":6979,"versi":6980,"verage":6981,"Ġporia":6982,"Ġporto":6983,"Ġporquanto":6984,"ĠportÃ£o":6985,"irro":6986,"Ġitagu":6987,"Ġonze":6988,"Ġhavel":6989,"Ġhacer":6990,"say":6991,"sado":6992,"sach":6993,"lear":6994,"Ġsaias":6995,"Ġsacer":6996,"Ġsagra":6997,"Ġsaimos":6998,"Ġsabat":6999,"Ġexter":7000,"Ġexpress":7001,"Ġbeat":7002,"Ġdesen":7003,"Ġdessa":7004,"ĠdesÃ§o":7005,"Ġdespre":7006,"Ġdesgra":7007,"Ġdescre":7008,"Ġdesast":7009,"Ġdescu":7010,"Ġdesire":7011,"Ġinterven":7012,"Ġdissem":7013,"Ġpern":7014,"Ġperdia":7015,"Ġperfeito":7016,"unci":7017,"unhas":7018,"Ġvira":7019,"Ġviveu":7020,"Ġsuff":7021,"Ġsugar":7022,"perfeitamente":7023,"Ġprice":7024,"point":7025,"ocra":7026,"ocente":7027,"Ãºs":7028,"ĠserÃ£o":7029,"Ġserve":7030,"Ġserver":7031,"Ġseries":7032,"Ġservers":7033,"Ġsereno":7034,"Ġamo":7035,"Ġamant":7036,"coÃ§o":7037,"Ġatordo":7038,"Ġatrope":7039,"Ġcapital":7040,"adores":7041,"..._":7042,"Ġcog":7043,"Ġcoqueiro":7044,"Ġvergonha":7045,"quete":7046,"Ġmuer":7047,"Ġmujere":7048,"ĠrÃ©":7049,"Ġrico":7050,"Ġresistencia":7051,"paul":7052,"paper":7053,"izes":7054,"ciante":7055,"ciÃ³n":7056,"Ġparo":7057,"Ġpartirte":7058,"tenhaar":7059,"Ġpoor":7060,"Ġpoema":7061,"Ġlow":7062,"Ġinternal":7063,"modo":7064,"rass":7065,"Ġcompe":7066,"Ġcompil":7067,"Ġcomprou":7068,"Ġcompens":7069,"Ġcomprei":7070,"Ġcomplet":7071,"Ġcompared":7072,"Ġabre":7073,"aba":7074,"tria":7075,"ghter":7076,"Ġmorria":7077,"Ġhovy":7078,"Ġorgulho":7079,"Ġtemper":7080,"Ġtemores":7081,"ĠcanÃ§Ã£o":7082,"ĠcanÃ§a":7083,"Ġcantava":7084,"Ġcandy":7085,"ĠcanÃ§ado":7086,"Ġpuder":7087,"Ġfria":7088,"Ġpeter":7089,"Ġpego":7090,"Ġpegava":7091,"Ġfaltava":7092,"Ġfalasse":7093,"illas":7094,"tesse":7095,"Ġimped":7096,"Ġapar":7097,"Ġapre":7098,"Ġapres":7099,"Ġunicamente":7100,"Ġuncle":7101,"Ġsending":7102,"Ġlongos":7103,"Ġmother":7104,"Ġmoving":7105,"Ġmoraes":7106,"ĠterÃ£o":7107,"Ġterras":7108,"Ġmansa":7109,"Ġmangas":7110,"tsie":7111,"Ġarro":7112,"Ġarrene":7113,"Ġpasmado":7114,"Ġlaia":7115,"Ġlate":7116,"Ġladeira":7117,"Ġlatest":7118,"Ġladaia":7119,"Ġgun":7120,"Ġfume":7121,"Ġtrap":7122,"Ġtratar":7123,"Ġboy":7124,"Ġboard":7125,"Ġbody":7126,"Ġchita":7127,"Ġchall":7128,"Ġcasado":7129,"Ġprego":7130,"anting":7131,"ticos":7132,"ticul":7133,"uria":7134,"Ġprimarily":7135,"ÃŃn":7136,"estribilho":7137,"ustre":7138,"Ġcreia":7139,"Ġestando":7140,"Ġki":7141,"Ġking":7142,"Ġkill":7143,"Ġkids":7144,"ahy":7145,"itada":7146,"Ġcard":7147,"blish":7148,"Ġcorrendo":7149,"Ġvago":7150,"Ġvacca":7151,"Ġposition":7152,"Ġiago":7153,"Ġpratica":7154,"viam":7155,"Ġcontos":7156,"Ġcontal":7157,"Ġcheios":7158,"Ġchegava":7159,"Ġfiles":7160,"sivo":7161,"Ġ26":7162,"ichigan":7163,"Ġbaix":7164,"Ġbapt":7165,"Ġbaile":7166,"Ġbaixa":7167,"Ġbachar":7168,"Ġbairro":7169,"Ġrecor":7170,"Ġrecom":7171,"Ġirr":7172,"ĠirmÃ£":7173,"Ġsolta":7174,"Ġsolve":7175,"Ġaccordo":7176,"Ġaccendeu":7177,"Ġadvent":7178,"Ġaddition":7179,"Ġadvantage":7180,"Ġmalicia":7181,"Ġidea":7182,"Ġideal":7183,"Ġengine":7184,"Ġelsnet":7185,"Ġpoude":7186,"Ġpoupa":7187,"Ġpoucas":7188,"bara":7189,"Ġtirasse":7190,"porque":7191,"Ġtaqua":7192,"Ġpedido":7193,"Ġfeia":7194,"Ġfell":7195,"Ġfeatures":7196,"Ġconfun":7197,"Ġconfid":7198,"Ġconfessa":7199,"ĠconfissÃ£o":7200,"Ġdeixo":7201,"Ġvoice":7202,"pectiva":7203,"Ġroom":7204,"Ġroda":7205,"Ġroemos":7206,"idamente":7207,"pennsylvania":7208,"tassem":7209,"Ġchaves":7210,"Ġchamado":7211,"ĠchapÃ©":7212,"continu":7213,"Ġpergunte":7214,"Ġpergunto":7215,"Ġ**":7216,"ĠpescoÃ§o":7217,"Ġpresence":7218,"Ġtranscre":7219,"Ġcabello":7220,"Ġjogando":7221,"Ġtrend":7222,"Ġtrying":7223,"ĠtrÃªs":7224,"Ġtrinta":7225,"Ġtristes":7226,"ological":7227,"french":7228,"Ġaugment":7229,"feitos":7230,"toso":7231,"Ġclos":7232,"Ġclone":7233,"Ġclass":7234,"Ġmoses":7235,"Ġgostei":7236,"Ġgostando":7237,"Ġgostoso":7238,"Ġesteve":7239,"creio":7240,"Ġsiempre":7241,"Ġsirius":7242,"Ġinstance":7243,"Ġverdadeiras":7244,"Ġexplico":7245,"ural":7246,"âĢħ":7247,"Ġexperiment":7248,"Ġficando":7249,"Ġficasse":7250,"used":7251,"Ġentrando":7252,"Ġcalou":7253,"Ġcalix":7254,"Ġoutrosim":7255,"Ġtecto":7256,"international":7257,"Ġstation":7258,"Ġcomputational":7259,"Ġtranslating":7260,"ckne":7261,"Ġdefine":7262,"anÃ§ado":7263,"Ġcompanheiro":7264,"Ġcompanheiros":7265,"ĠestÃ¡s":7266,"Ġbritish":7267,"Ġsomno":7268,"published":7269,"Ġplus":7270,"Ġplanting":7271,"Ġvalu":7272,"Ġvaleu":7273,"Ġaffei":7274,"Ġliving":7275,"Ġgloss":7276,"Ġcontract":7277,"Ġcedeu":7278,"Ġmista":7279,"Ġmister":7280,"Ġmissing":7281,"Ġfranco":7282,"itudes":7283,"refrÃ¡n":7284,"ĠdarÃ¡":7285,"Ġcommunity":7286,"Ġcommunities":7287,"Ġluzes":7288,"Ġponte":7289,"Ġsouth":7290,"Ġsouber":7291,"Ġfirms":7292,"Ġflight":7293,"ancei":7294,"Ġbastou":7295,"Ġbastaria":7296,"Ġcaminha":7297,"Ġtextual":7298,"Ġdomin":7299,"Ġlinguists":7300,"Ġmetteu":7301,"Ġlevantei":7302,"adamente":7303,"Ġdifference":7304,"Ġproprias":7305,"Ġchanges":7306,"Ġchannels":7307,"Ġdigamos":7308,"Ġvenir":7309,"Ġpossiveis":7310,"vised":7311,"Ġtorna":7312,"Ġinsinu":7313,"Ġinsiste":7314,"Ġreality":7315,"Ġrealidade":7316,"Ġconhece":7317,"Ġconheceu":7318,"Ġagents":7319,"Ġbubble":7320,"Ġbuckne":7321,"Ġinfrastructure":7322,"Ġtomo":7323,"Ġtomei":7324,"Ġtomando":7325,"inois":7326,"Ġentendo":7327,"Ġentenda":7328,"Ġentende":7329,"Ġentendi":7330,"Ġentendido":7331,"Ġpensasse":7332,"Ġwriters":7333,"pedia":7334,"ĠquiÃ§Ã¡":7335,"Ġdebates":7336,"ganta":7337,"Ġultimas":7338,"Ġsegura":7339,"Ġgame":7340,"Ġgave":7341,"Ġgather":7342,"Ġgauc":7343,"Ġgenio":7344,"Ġjurei":7345,"Ġeffici":7346,"Ġeffective":7347,"Ġespelho":7348,"Ġpequenino":7349,"Ġlembrando":7350,"Ġesquecido":7351,"Ġveio":7352,"imate":7353,"Ã¡sinha":7354,"Ġtrez":7355,"Ġtrepadas":7356,"Ġlibraries":7357,"estade":7358,"Ġofficios":7359,"Ġsector":7360,"Ġamarissimo":7361,"Ġmilag":7362,"Ġhaviamos":7363,"Ġrisk":7364,"ĠrazÃµes":7365,"Ġconsultar":7366,"Ġconsulting":7367,"Ġsalva":7368,"Ġvestir":7369,"Ġproducers":7370,"Ġsentence":7371,"entation":7372,"ĠmÃŃrame":7373,"Ġandavam":7374,"selves":7375,"Ġregional":7376,"Ġtornar":7377,"Ġ31":7378,"Ġpartners":7379,"piÃ£o":7380,"Ġletras":7381,"Ġquarta":7382,"Ġlinked":7383,"Ġmaterias":7384,"Ġdirections":7385,"Ġexaminar":7386,"Ġdesej":7387,"Ġdesejos":7388,"mails":7389,"ĠhaverÃ¡":7390,"Ġexacta":7391,"Ġexactamente":7392,"Ġimperio":7393,"Ġpassarinhos":7394,"Ġcintura":7395,"Ġcinema":7396,"Ġestudante":7397,"ĠrelÃª":7398,"Ġfields":7399,"Ġfecha":7400,"plain":7401,"place":7402,"Ġapertando":7403,"Ġmikam":7404,"Ġscan":7405,"Ġfunda":7406,"Ġconcluir":7407,"Ġtrabalhava":7408,"Ġglobalink":7409,"Ġadop":7410,"Ġadoravel":7411,"Ġmusical":7412,"Ġtootsie":7413,"Ġnotice":7414,"Ġescripta":7415,"Ġhelen":7416,"Ġhelps":7417,"Ġatravess":7418,"ĠfeiÃ§Ã£o":7419,"Ġromp":7420,"Ġromper":7421,"Ġfugia":7422,"ĠexplicaÃ§Ãµes":7423,"ĠfarÃ¡":7424,"Ġamanheceu":7425,"Ġinstitutions":7426,"Ġopinion":7427,"Ġlentamente":7428,"Ġvarias":7429,"Ġconselhos":7430,"Ġestrela":7431,"Ġplanos":7432,"Ġdevoro":7433,"tamento":7434,"Ġproposals":7435,"Ġdescober":7436,"Ġdespediu":7437,"Ġcollega":7438,"Ġruidos":7439,"Ġbusinesses":7440,"Ġhumanity":7441,"Ġcolor":7442,"Ġcolum":7443,"Ġoperating":7444,"Ġretratos":7445,"Ġcontacts":7446,"Ġhardware":7447,"Ġpassed":7448,"Ġpassear":7449,"Ġvaga":7450,"Ġvagas":7451,"ĠsÃ©rio":7452,"Ġdemand":7453,"Ġdemocra":7454,"Ġdocumentation":7455,"Ġexpect":7456,"Ġescutava":7457,"Ġdraw":7458,"Ġlongo":7459,"Ġinterests":7460,"Ġguarda":7461,"Ġcommercio":7462,"Ġcuidado":7463,"Ġdifficil":7464,"Ġbeijava":7465,"Ġkeeping":7466,"Ġeternidade":7467,"ĠputÃ£o":7468,"Ġfinancial":7469,"Ġanaly":7470,"Ġanalitica":7471,"Ġsegredinhos":7472,"Ġembarque":7473,"Ġobrigado":7474,"Ġerguia":7475,"Ġgovernments":7476,"Ġtypes":7477,"Ġtyler":7478,"Ġencontrei":7479,"Ġpractice":7480,"ĠagradeÃ§o":7481,"Ġnorte":7482,"Ġremove":7483,"Ġreference":7484,"Ġreferences":7485,"Ġconcerning":7486,"Ġdesconhe":7487,"Ġdesconfia":7488,"Ġrespostas":7489,"Ġfacilmente":7490,"Ġfacilidade":7491,"Ġfacilities":7492,"Ġoriginally":7493,"Ġearth":7494,"Ġelogio":7495,"Ġdecide":7496,"Ġdecidir":7497,"Ġdevoraria":7498,"Ġbrilha":7499,"Ġbolas":7500,"Ġextension":7501,"Ġdissimular":7502,"Ġabaf":7503,"Ġabaixo":7504,"Ġchambers":7505,"Ġprometti":7506,"Ġprometto":7507,"Ġreplaced":7508,"extract":7509,"ĠâĢ¢":7510,"Ġferida":7511,"Ġanimou":7512,"Ġcaetanear":7513,"Ġhighways":7514,"Ġaltern":7515,"Ġalterna":7516,"Ġordenado":7517,"ĠpedaÃ§os":7518,"Ġfiguras":7519,"Ġdescobri":7520,"Ġdescobriu":7521,"Ġloss":7522,"ommunications":7523,"Ġwonder":7524,"Ġgrito":7525,"Ġgerar":7526,"ĠsaÃŃam":7527,"Ġperiod":7528,"Ġaddress":7529,"Ġrepetindo":7530,"Ġrepetiam":7531,"Ġaborrecer":7532,"Ġstandards":7533,"Ġcatalog":7534,"Ġazas":7535,"Ġtelevision":7536,"Ġderre":7537,"Ġchorar":7538,"Ġmicro":7539,"Ġpanegyrico":7540,"Ġpancada":7541,"Ġsignific":7542,"assemos":7543,"Ġsexta":7544,"Ġtotally":7545,"Ġjurar":7546,"Ġacompanhar":7547,"Ġattitude":7548,"Ġtravelers":7549,"Ġduvidar":7550,"Ġtryna":7551,"Ġbrinca":7552,"Ġbrincar":7553,"Ġbrincava":7554,"Ġevents":7555,"Ġdime":7556,"Ġmolesti":7557,"Ġquiser":7558,"Ġwoah":7559,"Ġwalks":7560,"Ġindeed":7561,"Ġpadecer":7562,"Ġhesitou":7563,"Ġproxima":7564,"Ġpartially":7565,"Ġteimava":7566,"Ġteimasse":7567,"Ġapparecia":7568,"Ġappareceu":7569,"Ġmovement":7570,"Ġmovimento":7571,"Ġmovimentos":7572,"Ġpreferia":7573,"Ġrapido":7574,"Ġrapida":7575,"Ġrapid":7576,"Ġcarefully":7577,"Ġconfirmou":7578,"Ġmemorials":7579,"Ġsearching":7580,"ĠÃ³dio":7581,"Ġrasos":7582,"Ġrasgos":7583,"ĠcÃ³r":7584,"ĠcÃ³mo":7585,"Ġstrain":7586,"Ġoffers":7587,"ĠesqueÃ§o":7588,"Ġcathol":7589,"ĠemoÃ§Ãµes":7590,"Ġacostuma":7591,"ĠdisfarÃ§a":7592,"Ġrussia":7593,"Ġleave":7594,"Ġregister":7595,"Ġregisters":7596,"Ġsuggested":7597,"author":7598,"cultural":7599,"Ġaims":7600,"Ġobedeci":7601,"ĠquÃ©date":7602,"Ġbrowser":7603,"Ġbenefit":7604,"texts":7605,"Ġtowards":7606,"Ġreprodu":7607,"Ġhorror":7608,"Ġperaltas":7609,"ĠserviÃ§o":7610,"ĠserviÃ§os":7611,"Ġmessages":7612,"Ġtalkin":7613,"Ġjovens":7614,"Ġdigitization":7615,"Ġdigitized":7616,"Ġeditorial":7617,"Ġopportunities":7618,"Ġatirar":7619,"Ġspeech":7620,"Ġfinado":7621,"Ġwindow":7622,"Ġenchia":7623,"Ġencoberto":7624,"ĠdirÃ¡":7625,"Ġhart":7626,"Ġcompetition":7627,"Ġcompetitive":7628,"Ġabril":7629,"Ġescravos":7630,"Ġrecuar":7631,"ĠrecordaÃ§Ã£o":7632,"Ġconfuso":7633,"Ġconfusas":7634,"Ġcruel":7635,"Ġobservou":7636,"Ġdiscussion":7637,"Ġdiscussions":7638,"Ġconstantly":7639,"Ġconstantinop":7640,"Ġautoridade":7641,"Ġencontrar":7642,"Ġadivinh":7643,"languages":7644,"Ġquadro":7645,"Ġinvention":7646,"Ġmeeting":7647,"Ġregula":7648,"Ġrevelou":7649,"Ġacreditar":7650,"Ġacreditei":7651,"Ġliberal":7652,"Ġlegally":7653,"Ġlevei":7654,"Ġordens":7655,"Ġcorrect":7656,"Ġtechnological":7657,"Ġinscription":7658,"ĠinscripÃ§Ã£o":7659,"Ġconsegui":7660,"Ġreflectia":7661,"Ġreflectindo":7662,"Ġsuperlativo":7663,"Ġsuperlativos":7664,"Ġvolunteer":7665,"Ġshake":7666,"Ġfriends":7667,"Ġlances":7668,"Ġgarganta":7669,"Ġgames":7670,"Ġconvenient":7671,"Ġnaturaes":7672,"covado":7673,"ĠsemelhanÃ§a":7674,"Ġcollab":7675,"Ġcomplica":7676,"Ġimpaciencia":7677,"Ġimpaciente":7678,"Ġimmediate":7679,"Ġaprender":7680,"Ġapagou":7681,"Ġlapidar":7682,"Ġsupponha":7683,"Ġconsequencia":7684,"Ġescapei":7685,"Ġjournalist":7686,"Ġadap":7687,"Ġaviso":7688,"Ġtestem":7689,"Ġshare":7690,"Ġwidely":7691,"ĠesforÃ§o":7692,"ĠesforÃ§os":7693,"ĠcaÃŃam":7694,"Ġjazz":7695,"Ġentirely":7696,"Ġdivertir":7697,"ressecou":7698,"Ġdesigns":7699,"Ġperformance":7700,"Ġcomprido":7701,"Ġfront":7702,"Ġchuva":7703,"ĠpreparaÃ§Ã£o":7704,"Ġpredict":7705,"Ġconsumers":7706,"Ġroyalty":7707,"Ġpreserving":7708,"Ġpresilha":7709,"Ġpresilhas":7710,"Ġphenomen":7711,"Ġphenomeno":7712,"Ġbuscasse":7713,"Ġespectaculo":7714,"Ġdesfazer":7715,"based":7716,"Ġmiddle":7717,"Ġplease":7718,"Ġfresca":7719,"Ġdetermin":7720,"Ġwinchester":7721,"Ġincidente":7722,"Ġannuncia":7723,"Ġdamages":7724,"Ġnamorar":7725,"Ġalphabet":7726,"Ġemendar":7727,"Ġfortaleza":7728,"Ġdestru":7729,"Ġdiscovered":7730,"ĠprÃ³pria":7731,"Ġcotton":7732,"Ġrumor":7733,"Ġapanhar":7734,"Ġenganar":7735,"Ġcopyrights":7736,"Ġgraduate":7737,"Ġassombra":7738,"Ġinsistisse":7739,"Ġconsultancy":7740,"Ġapproxim":7741,"Ġmetaphora":7742,"Ġreasonable":7743,"ĠdÃ©sse":7744,"Ġcitiz":7745,"Ġcumpre":7746,"Ġempresta":7747,"Ġacademic":7748,"Ġrestabel":7749,"Ġpodemos":7750,"Ġinstrumental":7751,"Ġmonumento":7752,"Ġbullet":7753,"Ġgreater":7754,"Ġbrothers":7755,"Ġreligiosos":7756,"Ġstrategic":7757,"bruary":7758,"known":7759,"Ġdeclarou":7760,"Ġintrodu":7761,"Ġastronomia":7762,"Ġcavalleiro":7763,"Ġencyclo":7764,"Ġdiferente":7765,"Ġhundreds":7766,"Ġemploy":7767,"Ġembrul":7768,"Ġportugu":7769,"Ġdesdemona":7770,"Ġdesvanecimento":7771,"ĠpersuasÃ£o":7772,"Ġsujeito":7773,"Ġparceiro":7774,"Ġcanadians":7775,"Ġpupillas":7776,"Ġarriscar":7777,"Ġlacun":7778,"Ġaccommo":7779,"Ġcurioso":7780,"Ġcloutier":7781,"Ġplagiarism":7782,"Ġphrases":7783,"Ġsussur":7784,"Ġsorriso":7785,"pierre":7786,"Ġdescribed":7787,"Ġremorso":7788,"Ġremembrance":7789,"Ġtelecommunications":7790,"Ġscottish":7791,"Ġrequirements":7792,"Ġretorquiu":7793,"Ġcircumstancias":7794,"Ġgrammars":7795,"Ġreminiscencias":7796,"geneva":7797,"literature":7798,"nrs":7799,"sanguine":7800,"Ġevangel":7801,"Ġciume":7802,"Ġcrosses":7803,"Ġorelhas":7804,"institut":7805,"Ġpiston":7806,"Ġspring":7807,"Ġslettenhaar":7808,"ĠfÃ¡cil":7809,"Ġdebuxo":7810,"Ġtheatre":7811,"Ġvantagem":7812,"Ġwhatever":7813,"Ġingenu":7814,"Ġanecdo":7815,"Ġesterlinas":7816,"Ġcatherine":7817,"Ġenthusias":7818,"Ġenviuvou":7819,"Ġhershey":7820,"Ġembrazando":7821,"Ġitaguahy":7822,"Ġsacerdo":7823,"Ġsabatana":7824,"Ġdesastre":7825,"ĠintervenÃ§Ã£o":7826,"Ġdissemination":7827,"Ġsuffici":7828,"Ġbacharel":7829,"Ġtaquara":7830,"ĠchapÃ©o":7831,"Ġglossary":7832,"Ġbubblegum":7833,"Ġbucknell":7834,"Ġgauchey":7835,"Ġmikami":7836,"Ġmolestias":7837,"Ġconstantinopla":7838,"!_":7839,"):":7840,".).":7841,"070":7842,"14":7843,"18":7844,"19":7845,"57":7846,":--":7847,"?\"":7848,"?)":7849,"?...":7850,"ao":7851,"aic":7852,"aqui":7853,"bt":7854,"bos":7855,"bor":7856,"bia":7857,"bly":7858,"but":7859,"bido":7860,"bana":7861,"cter":7862,"cdi":7863,"cÃ§Ãµes":7864,"cura":7865,"dal":7866,"dÃ¡":7867,"dÃª":7868,"dulo":7869,"dden":7870,"douro":7871,"dona":7872,"ea":7873,"ef":7874,"eh":7875,"fo":7876,"fra":7877,"fre":7878,"gor":7879,"gna":7880,"gindo":7881,"gosto":7882,"gely":7883,"gget":7884,"ground":7885,"hin":7886,"hon":7887,"hinha":7888,"hÃ¡ra":7889,"ib":7890,"igu":7891,"iando":7892,"iversity":7893,"ivas":7894,"iÃ³n":7895,"ified":7896,"jando":7897,"josÃ©":7898,"ka":7899,"ket":7900,"ked":7901,"kind":7902,"kely":7903,"kele":7904,"kreyol":7905,"las":7906,"lou":7907,"ling":7908,"lidade":7909,"lines":7910,"lembra":7911,"mis":7912,"mal":7913,"mine":7914,"mies":7915,"mary":7916,"mission":7917,"mana":7918,"mely":7919,"nÃ¡":7920,"nst":7921,"oim":7922,"offic":7923,"pto":7924,"pri":7925,"pei":7926,"pito":7927,"pido":7928,"pÃ³s":7929,"pÃ´r":7930,"pÃ´l":7931,"rus":7932,"rinho":7933,"rera":7934,"rÃ¡s":7935,"sr":7936,"sal":7937,"ste":7938,"sto":7939,"sul":7940,"sina":7941,"sers":7942,"sua":7943,"tto":7944,"tÃ¡":7945,"tinha":7946,"tts":7947,"tÃ´":7948,"tise":7949,"tland":7950,"ures":7951,"uando":7952,"uga":7953,"ufra":7954,"vem":7955,"vet":7956,"vio":7957,"vement":7958,"wo":7959,"who":7960,"what":7961,"wers":7962,"word":7963,"weg":7964,"wuh":7965,"xe":7966,"xes":7967,"yn":7968,"you":7969,"ylo":7970,"yram":7971,"zy":7972,"zz":7973,"zen":7974,"zem":7975,"zinha":7976,"zero":7977,"Â¡":7978,"Ġ;":7979,"Ġ]":7980,"Ġze":7981,"Ġrib":7982,"Ġara":7983,"Ġari":7984,"Ġair":7985,"Ġapa":7986,"Ġaves":7987,"Ġajo":7988,"Ġaware":7989,"Ġaquellas":7990,"Ġaventura":7991,"Ġaverage":7992,"Ġtus":7993,"ĠtÃª":7994,"Ġtard":7995,"Ġtrib":7996,"Ġtours":7997,"Ġey":7998,"Ġeval":7999,"Ġegy":8000,"Ġdul":8001,"Ġditas":8002,"ĠdÃ´res":8003,"Ġdyn":8004,"Ġcity":8005,"Ġcolo":8006,"Ġculo":8007,"Ġcunha":8008,"ĠcÃ£es":8009,"Ġclear":8010,"Ġcnrs":8011,"Ġox":8012,"Ġock":8013,"Ġolho":8014,"inning":8015,"inadas":8016,"Ġment":8017,"ĠmÃ³":8018,"Ġmum":8019,"Ġmoun":8020,"Ġmdg":8021,"Ġpit":8022,"ĠpÃ£o":8023,"Ġpia":8024,"Ġpir":8025,"Ġpio":8026,"Ġpran":8027,"Ġpant":8028,"Ġpira":8029,"Ġpous":8030,"ĠpÃ´":8031,"Ġpush":8032,"ĠpÃµe":8033,"Ġpiedade":8034,"Ġpdf":8035,"Ġpyram":8036,"eric":8037,"erpo":8038,"erche":8039,"erblo":8040,"Ġsk":8041,"Ġsle":8042,"Ġsla":8043,"Ġslo":8044,"Ġsigo":8045,"Ġsources":8046,"Ġsester":8047,"rael":8048,"rados":8049,"rauwer":8050,"esto":8051,"quec":8052,"qued":8053,"quÃª":8054,"queza":8055,"quillo":8056,"quality":8057,"Ġnup":8058,"Ġnoutro":8059,"Ġnym":8060,"eness":8061,"encial":8062,"ash":8063,"asure":8064,"heu":8065,"heira":8066,"hecer":8067,"Ġquit":8068,"Ġquente":8069,"Ġquie":8070,"ori":8071,"ory":8072,"orei":8073,"Ġfon":8074,"Ġfus":8075,"Ġfio":8076,"Ġfad":8077,"Ġfish":8078,"Ġfita":8079,"Ġfeira":8080,"Ġfino":8081,"Ġflex":8082,"Ġfitavam":8083,"Ġfiquemos":8084,"isi":8085,"istiu":8086,"arre":8087,"arem":8088,"onos":8089,"oning":8090,"only":8091,"onco":8092,"any":8093,"anor":8094,"anhÃ£":8095,"Ġdedo":8096,"Ġdemas":8097,"Ġdedic":8098,"Ġdevesse":8099,"Ġdeli":8100,"Ġdeteve":8101,"Ġdemanda":8102,"Ġdefeitos":8103,"itutes":8104,"rea":8105,"Ġqueda":8106,"Ġqueixo":8107,"Ġlel":8108,"Ġled":8109,"Ġlei":8110,"Ġlvi":8111,"ĠlÃª":8112,"Ġland":8113,"Ġlind":8114,"Ġlentes":8115,"Ġlisten":8116,"Ġlustre":8117,"outes":8118,"aland":8119,"alities":8120,"Ġvital":8121,"Ġvinc":8122,"Ġvice":8123,"ĠbÃ¡":8124,"Ġbir":8125,"Ġband":8126,"Ġbigo":8127,"Ġboss":8128,"Ġwi":8129,"Ġwid":8130,"Ġware":8131,"iada":8132,"iamente":8133,"iable":8134,"dolog":8135,"haha":8136,"haver":8137,"Ġinfor":8138,"Ġindia":8139,"Ġincon":8140,"Ġinesper":8141,"Ġincor":8142,"Ġincons":8143,"Ġingle":8144,"empla":8145,"emora":8146,"Ġuk":8147,"Ġutil":8148,"tio":8149,"tidÃ£o":8150,"tiane":8151,"tifs":8152,"tee":8153,"telle":8154,"Ġando":8155,"Ġanto":8156,"Ġanton":8157,"Ġanglo":8158,"Ġcomia":8159,"Ġcoming":8160,"Ġcomfor":8161,"taram":8162,"tagon":8163,"imen":8164,"imente":8165,"imum":8166,"imina":8167,"iments":8168,"immin":8169,"Ã©n":8170,"Ã©vel":8171,"Ġmel":8172,"set":8173,"icias":8174,"ically":8175,"icking":8176,"icited":8177,"icks":8178,"deada":8179,"Ã§Ã³":8180,"Ġsela":8181,"Ġtoco":8182,"Ġtoler":8183,"Ġtochas":8184,"Ġeso":8185,"Ġespon":8186,"Ġgro":8187,"Ġgall":8188,"Ġgera":8189,"Ġgaz":8190,"Ġgeral":8191,"vagem":8192,"Ġpaz":8193,"Ġpath":8194,"Ġpaiz":8195,"Ġpaci":8196,"Ġpack":8197,"Ġpays":8198,"Ġpazes":8199,"Ġpatern":8200,"Ġpaquete":8201,"Ġandrew":8202,"Ġast":8203,"Ġasia":8204,"Ġasper":8205,"ĠasÃŃ":8206,"Ġassas":8207,"Ġaspect":8208,"Ġashaver":8209,"termin":8210,"Ġred":8211,"Ġreis":8212,"Ġrede":8213,"Ġrech":8214,"Ġredu":8215,"Ġreforma":8216,"Ġrecl":8217,"Ġrepre":8218,"Ġreli":8219,"Ġretros":8220,"ectir":8221,"ectric":8222,"Ġida":8223,"Ġilo":8224,"Ġident":8225,"Ġdoia":8226,"ĠdoÃ§":8227,"Ġdoeu":8228,"Ġdozen":8229,"hoje":8230,"Ġnora":8231,"Ġnotion":8232,"Ġnotes":8233,"Ġnovos":8234,"Ġnobody":8235,"Ġnovidade":8236,"Ġcause":8237,"Ġcaoim":8238,"Ġdada":8239,"Ġconte":8240,"Ġconve":8241,"Ġconfor":8242,"Ġcondu":8243,"Ġconcent":8244,"Ġcongress":8245,"Ġmatava":8246,"Ġmadu":8247,"Ġmagn":8248,"met":8249,"usos":8250,"usion":8251,"ĠÃ©l":8252,"ĠÃ©ramos":8253,"Ġjer":8254,"Ġyale":8255,"ridade":8256,"ridos":8257,"rivel":8258,"rift":8259,"Ġendi":8260,"Ġenab":8261,"Ġentr":8262,"Ġenvel":8263,"Ġenfe":8264,"Ġenjo":8265,"Ġenvis":8266,"Ġenfim":8267,"Ġdied":8268,"Ġdialo":8269,"olina":8270,"olicited":8271,"entas":8272,"etano":8273,"ceta":8274,"ceano":8275,"veiu":8276,"Ġnation":8277,"Ġnadar":8278,"Ġnaval":8279,"Ġnaufra":8280,"Ġisland":8281,"Ġisrael":8282,"may":8283,"ule":8284,"ulei":8285,"Ġhind":8286,"Ġhoney":8287,"Ġhull":8288,"Ġthir":8289,"Ġalt":8290,"Ġalco":8291,"Ġalimente":8292,"Ġempen":8293,"iles":8294,"ilame":8295,"Ġ(Â¡":8296,"edia":8297,"Ġachas":8298,"Ġprovision":8299,"vera":8300,"very":8301,"amo":8302,"amentos":8303,"amanhÃ£":8304,"ĠporÃ§Ã£o":8305,"Ġportanto":8306,"Ġmassin":8307,"iring":8308,"tuosas":8309,"goa":8310,"going":8311,"Ġonda":8312,"Ġongoing":8313,"Ġhaja":8314,"Ġparas":8315,"Ġparado":8316,"Ġparava":8317,"Ġpararam":8318,"ĠparanÃ¡":8319,"tracts":8320,"Ġforce":8321,"Ġfortes":8322,"Ġforever":8323,"Ġforward":8324,"Ġsaw":8325,"Ġsaio":8326,"Ġexal":8327,"Ġexag":8328,"Ġexistir":8329,"Ġexprim":8330,"Ġbeb":8331,"ĠbeÃ§a":8332,"Ġbebe":8333,"Ġbello":8334,"Ġbellos":8335,"cavam":8336,"caetano":8337,"chos":8338,"chou":8339,"chia":8340,"vial":8341,"vive":8342,"viÃ§Ã£o":8343,"Ã³is":8344,"Ġdesk":8345,"Ġdesl":8346,"Ġdeser":8347,"Ġdesle":8348,"Ġdestro":8349,"Ġdesses":8350,"Ġdesenho":8351,"Ġdesciam":8352,"Ġdesmenti":8353,"Ġdesgosto":8354,"Ġintercon":8355,"Ġinterino":8356,"Ġinterrup":8357,"Ġinterloc":8358,"Ġinterveiu":8359,"through":8360,"aga":8361,"ages":8362,"agem":8363,"Ġdisfr":8364,"Ġperda":8365,"Ġperfor":8366,"Ġpereira":8367,"Ġperdido":8368,"Ġperpet":8369,"Ġpersegu":8370,"uno":8371,"university":8372,"Ġcapa":8373,"Ġcape":8374,"Ġcaprich":8375,"Ġcapsul":8376,"Ġvier":8377,"Ġvill":8378,"Ġvive":8379,"Ġvivi":8380,"Ġviga":8381,"Ġviram":8382,"Ġvivesse":8383,"Ġviessem":8384,"Ġvivemos":8385,"lying":8386,"Ġsuid":8387,"Ġsueno":8388,"Ġsudden":8389,"person":8390,"perdÃ£o":8391,"pertise":8392,"Ġpros":8393,"Ġprome":8394,"Ġprender":8395,"Ġprendia":8396,"Ã§ados":8397,"Ġservo":8398,"Ġserved":8399,"Ġserious":8400,"Ġampa":8401,"Ġamua":8402,"Ġamount":8403,"cott":8404,"Ġatou":8405,"Ġatta":8406,"Ġattra":8407,"Ġatlan":8408,"ĠatrÃ¡s":8409,"Ġcapitulos":8410,"Ġcapitolina":8411,"uminar":8412,"Ġsemi":8413,"Ġcoca":8414,"Ġcoberto":8415,"Ġcoordina":8416,"Ġcooperation":8417,"Ġverm":8418,"Ġverde":8419,"ĠverÃ¡":8420,"Ġvermes":8421,"Ġmui":8422,"Ġmudado":8423,"ĠmuÃ©vel":8424,"stancia":8425,"essment":8426,"essemos":8427,"essuras":8428,"lhou":8429,"Ġcasou":8430,"Ġcasti":8431,"Ġcasando":8432,"Ġcasados":8433,"utor":8434,"uting":8435,"utrech":8436,"ĠrÃ£":8437,"Ġrough":8438,"Ġresource":8439,"Ġresurrei":8440,"Ġresumo":8441,"pago":8442,"cies":8443,"cious":8444,"tenho":8445,"Ġlie":8446,"Ġlight":8447,"Ġlibre":8448,"Ġligado":8449,"Ġlivida":8450,"Ġtuas":8451,"taruga":8452,"Ġpoints":8453,"Ġpoesia":8454,"Ġ13":8455,"Ġ16":8456,"Ġfogo":8457,"Ġlogra":8458,"Ġlovely":8459,"Ġinternun":8460,"gate":8461,"gatorio":8462,"Ġcompor":8463,"Ġcompon":8464,"Ġcomprar":8465,"Ġcomputing":8466,"Ġaboto":8467,"ford":8468,"fortuna":8469,"diÃ§o":8470,"diers":8471,"anguages":8472,"ably":8473,"Ġlevo":8474,"Ġlegado":8475,"Ġleft":8476,"Ġleitura":8477,"Ġwhom":8478,"Ġmorre":8479,"Ġfada":8480,"Ġfacto":8481,"Ġfacial":8482,"Ġhobl":8483,"Ġhotel":8484,"Ġsoou":8485,"Ġtemente":8486,"Ġpull":8487,"Ġpegam":8488,"Ġpegasse":8489,"ĠpegaÃŃto":8490,"Ġfalo":8491,"Ġfaltou":8492,"ders":8493,"Ġtelly":8494,"Ġteimos":8495,"doso":8496,"Ġimpres":8497,"sima":8498,"Ġapol":8499,"Ġaponta":8500,"Ġappla":8501,"Ġapril":8502,"Ġuno":8503,"Ġunres":8504,"Ġunfortuna":8505,"pebras":8506,"Ġseneca":8507,"Ġsenhoras":8508,"Ġmora":8509,"Ġmodi":8510,"Ġmoveis":8511,"Ġmodelo":8512,"ĠterÃ¡":8513,"ĠterÃ§a":8514,"Ġteriam":8515,"ixel":8516,"Ġmano":8517,"Ġmanif":8518,"tavam":8519,"duas":8520,"Ġargu":8521,"Ġarras":8522,"Ġarmas":8523,"Ġarvor":8524,"Ġarchan":8525,"Ġarmies":8526,"Ġpassion":8527,"Ġlapa":8528,"ĠlaÃ§o":8529,"Ġlazer":8530,"Ġlatter":8531,"ffrey":8532,"Ġgua":8533,"Ġcommand":8534,"Ġtrave":8535,"Ġtraba":8536,"Ġtrafic":8537,"Ġtratei":8538,"Ġtratado":8539,"Ġtraining":8540,"Ġtraffic":8541,"Ġbow":8542,"Ġbotas":8543,"Ġbotelle":8544,"Ġboceta":8545,"pling":8546,"plied":8547,"velanguages":8548,"Ġchina":8549,"Ġchine":8550,"Ġchie":8551,"Ġchance":8552,"Ġchoro":8553,"Ġchris":8554,"keo":8555,"Ġquerida":8556,"Ġescas":8557,"Ġescan":8558,"Ġescrava":8559,"Ġesculp":8560,"Ġentity":8561,"thern":8562,"Ġpreten":8563,"Ġpretas":8564,"Ġprecip":8565,"Ġpregui":8566,"loaded":8567,"Ġmares":8568,"Ġmarte":8569,"Ġmarcado":8570,"urou":8571,"urity":8572,"ursos":8573,"available":8574,"now":8575,"ÃŃcia":8576,"ÃŃvel":8577,"ÃŃlia":8578,"Ġheld":8579,"estina":8580,"Ġbutton":8581,"Ġmulata":8582,"ectos":8583,"Ġrab":8584,"Ġrara":8585,"Ġrare":8586,"Ġraio":8587,"Ġracio":8588,"Ġraises":8589,"Ġragget":8590,"Ġcredor":8591,"Ġestal":8592,"Ġestylo":8593,"Ġneg":8594,"Ġnegar":8595,"Ġnellas":8596,"Ġnegou":8597,"riam":8598,"Ġken":8599,"Ġkni":8600,"Ġkrauwer":8601,"irar":8602,"irable":8603,"itaÃ§Ãµes":8604,"opol":8605,"Ġcargo":8606,"Ġcarries":8607,"Ġcarved":8608,"Ġcarne":8609,"Ġcaricias":8610,"Ġcore":8611,"Ġcorda":8612,"Ġcorcovado":8613,"Ġnotas":8614,"tories":8615,"Ġvaz":8616,"Ġvaes":8617,"Ġvaras":8618,"Ġposa":8619,"Ġposs":8620,"Ġpositi":8621,"Ġcostura":8622,"Ġcosido":8623,"Ġprata":8624,"Ġprazo":8625,"Ġpendente":8626,"Ġpentagon":8627,"Ġcontasse":8628,"Ġcontinua":8629,"Ġcontempla":8630,"Ġchego":8631,"Ġchegue":8632,"Ġcheek":8633,"Ġchegam":8634,"ĠchegÃ¡mos":8635,"Ġfile":8636,"Ġfilhos":8637,"Ġgoods":8638,"iasse":8639,"Ġmenin":8640,"Ġmeninas":8641,"europe":8642,"sighted":8643,"Ġtalento":8644,"Ġtalking":8645,"Ġ28":8646,"Ġ29":8647,"Ġ200":8648,"Ġcopia":8649,"Ġbara":8650,"Ġbater":8651,"Ġbailar":8652,"Ġbatendo":8653,"Ġrecto":8654,"Ġmultiplic":8655,"Ġirish":8656,"Ġduro":8657,"Ġduzia":8658,"Ġsoltar":8659,"Ġsolved":8660,"Ġsoldado":8661,"Ġsoldiers":8662,"Ġviste":8663,"Ġvisinhas":8664,"Ġvisitar":8665,"Ġvisinhos":8666,"Ġvisiting":8667,"ously":8668,"Ġvelh":8669,"Ġpadrinho":8670,"Ġaccents":8671,"Ġaccord":8672,"Ġaccorda":8673,"Ġaccount":8674,"Ġvoltado":8675,"ĠvoltÃ¡mos":8676,"Ġ1993":8677,"board":8678,"Ġengano":8679,"ounds":8680,"Ġtiro":8681,"Ġtirei":8682,"Ġtiju":8683,"Ġtiempo":8684,"istan":8685,"Â»;":8686,"Ġtac":8687,"Ġtaken":8688,"natural":8689,"naile":8690,"ponÃªs":8691,"Ġsimilar":8692,"Ġgraci":8693,"Ġfeitos":8694,"Ġfebruary":8695,"Ġdeixal":8696,"Ġdeixando":8697,"Ġdeixavam":8698,"Ġsomebody":8699,"Ġvoid":8700,"Ġrole":8701,"Ġroberto":8702,"Ġdonnaile":8703,"Ġcertos":8704,"Ġcerrava":8705,"Ġchave":8706,"Ġchamei":8707,"Ġcujo":8708,"Ġcuides":8709,"Ġcuerpo":8710,"Ġsabido":8711,"conce":8712,"Ġanytime":8713,"icograph":8714,"Ġpreso":8715,"Ġpressa":8716,"Ġpresente":8717,"Ġacabo":8718,"Ġacabando":8719,"Ġacabado":8720,"ĠcabeÃ§as":8721,"Ġcabellei":8722,"panhas":8723,"ciso":8724,"cises":8725,"Ġquizessem":8726,"Ġjogo":8727,"Ġjogava":8728,"Ġjoined":8729,"Ġtrunca":8730,"Ġtrue":8731,"Ġtronco":8732,"acho":8733,"Ġtend":8734,"cesa":8735,"from":8736,"Ġmosaic":8737,"Ġgostar":8738,"Ġmelhores":8739,"ĠcomeÃ§a":8740,"creto":8741,"creator":8742,"Ġesperasse":8743,"Ġpodiamos":8744,"Ġinstant":8745,"Ġinstitutes":8746,"ĠcrÃª":8747,"ĠpÃ³des":8748,"Ġexplos":8749,"Ġexplor":8750,"Ġexplora":8751,"urai":8752,"Ġobject":8753,"Ġprince":8754,"Ġprincesa":8755,"ĠficÃ¡ra":8756,"protonotario":8757,"usetts":8758,"Ġouviram":8759,"Ġwebster":8760,"Ġjanela":8761,"Ġentrado":8762,"Ġentraram":8763,"Ġcalma":8764,"Ġcalados":8765,"Ġcalculo":8766,"Ġcalcul":8767,"Ġsangre":8768,"Ġsentiu":8769,"Ġsentidos":8770,"ĠcreaÃ§Ã£o":8771,"Ġcreator":8772,"Ġknows":8773,"Ġstations":8774,"cken":8775,"Ġnasci":8776,"Ġdefect":8777,"Ġdefective":8778,"Ġcompanheira":8779,"Ġtardia":8780,"Ġviria":8781,"Ġvirgem":8782,"Ġbrings":8783,"Ġbrisa":8784,"Ġbruno":8785,"Ġsomos":8786,"Ġsombras":8787,"asty":8788,"ĠfalarÃ¡":8789,"prr":8790,"pru":8791,"prise":8792,"Ġplural":8793,"ieve":8794,"Ġdistingu":8795,"Ġfizemos":8796,"chable":8797,"valent":8798,"zado":8799,"Ġcontraria":8800,"idelidade":8801,"Ġopinar":8802,"Ġmismo":8803,"Ġmissas":8804,"Ġridic":8805,"Ġxviii":8806,"Ġluci":8807,"Ġesquina":8808,"Ġsoul":8809,"Ġsouthern":8810,"Ġelectronically":8811,"Ġthemselves":8812,"Ġbasis":8813,"Ġbastar":8814,"Ġcamar":8815,"Ġcampanhas":8816,"Ġdomina":8817,"Ġdominava":8818,"Ġnetherlands":8819,"Ġbusto":8820,"Ġbuscando":8821,"Ġbusquei":8822,"Ġassisted":8823,"Ġassessment":8824,"Ġbonitas":8825,"Ġbonitos":8826,"Ġmetta":8827,"Ġmettido":8828,"Ġmettel":8829,"Ġmettesse":8830,"Ġrefutal":8831,"Ġlevanta":8832,"Ġcurou":8833,"Ġcurto":8834,"Ġcurtos":8835,"Ġmontar":8836,"Ġmontoy":8837,"Ġviajar":8838,"Ġviagens":8839,"Ġrespondia":8840,"Ġprophe":8841,"dema":8842,"demn":8843,"rugada":8844,"Ġsuspira":8845,"Ġbraile":8846,"Ġbradava":8847,"Ġdigas":8848,"Ġdigam":8849,"Ġdigno":8850,"Ġvenho":8851,"Ġveneno":8852,"Ġsubia":8853,"Ġsonhei":8854,"Ġsonetos":8855,"Ġfrequ":8856,"Ġwouldn":8857,"Ġpersonally":8858,"Ġpersonagens":8859,"Ġpossibilidade":8860,"atment":8861,"market":8862,"vissimo":8863,"ensÃµes":8864,"Ġinsistir":8865,"ĠconheÃ§o":8866,"Ġimages":8867,"Ġimaginando":8868,"Ġlembravam":8869,"Ġagonia":8870,"reiro":8871,"Ġgesture":8872,"tains":8873,"Ġresearcher":8874,"Ġmostly":8875,"Ġprofessionals":8876,"Ġtoma":8877,"Ġtomam":8878,"Ġculpadas":8879,"Ġentendia":8880,"Ġentendeu":8881,"Ġsorria":8882,"Ġdiscrim":8883,"Ġunique":8884,"Ġuniform":8885,"Ġcentury":8886,"Ġovercome":8887,"Ġseguir":8888,"Ġseguido":8889,"Ġgai":8890,"Ġgained":8891,"Ġgenu":8892,"Ġgenero":8893,"Ġjuremos":8894,"Ġjuizo":8895,"Ġdeveloping":8896,"tivity":8897,"Ġespanto":8898,"Ġespiar":8899,"Ġespiava":8900,"Ġlembras":8901,"Ġesquecera":8902,"Ġveille":8903,"Ġescrevel":8904,"Ġescreveu":8905,"Ġprinciple":8906,"Ġtreze":8907,"Ġtreanor":8908,"Ġdores":8909,"ĠestarÃ¡":8910,"Ġestariam":8911,"Ġofficers":8912,"Ġsecca":8913,"Ġseculo":8914,"Ġsecurity":8915,"Ġamargo":8916,"graphs":8917,"graphic":8918,"Ġmiles":8919,"Ġmilhar":8920,"ĠmilhÃµes":8921,"Ġhaviam":8922,"Ġconsultou":8923,"Ġsalvar":8924,"Ġstarting":8925,"Ġsurfing":8926,"Ġsurvive":8927,"entaÃ§Ã£o":8928,"entations":8929,"Ġmadeira":8930,"Ġerros":8931,"Ġernst":8932,"Ġshock":8933,"Ġcaracter":8934,"Ġdidn":8935,"Ġchovia":8936,"Ġchoose":8937,"Ġandado":8938,"Ġregions":8939,"rigas":8940,"Ġcounter":8941,"Ġtornando":8942,"Ġtornavam":8943,"Ġfamilias":8944,"Ġouvimos":8945,"Ġacharia":8946,"Ġachieve":8947,"Ġacceitar":8948,"Ġacceitou":8949,"Ġpartitura":8950,"Ġnecessaria":8951,"Ġnecessario":8952,"Ġnecessarily":8953,"pidas":8954,"Ġletter":8955,"Ġveo":8956,"Ġbelgi":8957,"Ġrepetir":8958,"Ġowns":8959,"ĠdirecÃ§Ã£o":8960,"Ġhumana":8961,"Ġexamples":8962,"Ġdeseja":8963,"Ġolhavam":8964,"Ġlimitation":8965,"Ġcontarei":8966,"Ġentertain":8967,"Ġunsolicited":8968,"Ġvocabul":8969,"ĠpassarÃ¡":8970,"Ġtrocou":8971,"Ġdinheiros":8972,"istola":8973,"Ġbanca":8974,"Ġbandido":8975,"Ġbanging":8976,"Ġrelembra":8977,"Ġdissol":8978,"dyard":8979,"vocÃªs":8980,"Ġzeca":8981,"Ġfechei":8982,"Ġfechou":8983,"Ġdefinitely":8984,"Ġkey":8985,"Ġkeen":8986,"Ġkept":8987,"Ġapertal":8988,"Ġlouva":8989,"ĠlouÃ§a":8990,"Ġformer":8991,"work":8992,"Ġeditors":8993,"Ġscale":8994,"endesse":8995,"endendo":8996,"Ġfundos":8997,"Ġfunds":8998,"Ġfunction":8999,"Ġground":9000,"Ġconcluo":9001,"Ġacudir":9002,"Ġtrabalhador":9003,"Ġdormi":9004,"Ġglobalisation":9005,"Ġbranco":9006,"Ġbrancos":9007,"Ġsetting":9008,"elefeld":9009,"Ġprocessed":9010,"Ġorganized":9011,"ĠterraÃ§o":9012,"Ġallowed":9013,"Ġescriptor":9014,"Ġescriptorio":9015,"Ġatrap":9016,"Ġfeios":9017,"Ġmediante":9018,"Ġessays":9019,"Ġjadelo":9020,"ĠjaponÃªs":9021,"Ġdescul":9022,"ĠambiÃ§Ã£o":9023,"Ġattenta":9024,"Ġattento":9025,"Ġfugindo":9026,"Ġfugiu":9027,"Ġfugiti":9028,"Ġfugisse":9029,"Ġexplicava":9030,"Ġhistorias":9031,"Ġpalpebras":9032,"Ġfariam":9033,"Ġindian":9034,"Ġconceived":9035,"Ġhonras":9036,"Ġhonesto":9037,"Ġtristezas":9038,"Ġinstitution":9039,"Ġexplicasse":9040,"Ġopinou":9041,"casting":9042,"zerland":9043,"Ġaguas":9044,"Ġaguenta":9045,"Ġlenha":9046,"ĠlenÃ§Ã³":9047,"Ġconsequen":9048,"ulate":9049,"Ġestreita":9050,"Ġestrelas":9051,"Ġestrepito":9052,"Ġplanning":9053,"Ġplanalto":9054,"juro":9055,"neta":9056,"Ġclaim":9057,"Ġclavet":9058,"Ġbiggest":9059,"Ġconstitu":9060,"Ġproposta":9061,"Ġdespedi":9062,"Ġdespedidas":9063,"Ġcolleagu":9064,"Ġrudyard":9065,"Ġbackground":9066,"Ġhumanas":9067,"roms":9068,"Ġdouble":9069,"Ġdoubt":9070,"Ġcold":9071,"Ġcolera":9072,"Ġcolonies":9073,"Ġorigin":9074,"Ġorigina":9075,"Ġstead":9076,"Ġsteven":9077,"Ġcourses":9078,"Ġnewspaper":9079,"Ġpolitico":9080,"Ġpolitics":9081,"Ġegua":9082,"Ġpinta":9083,"Ġpintado":9084,"Ġlabel":9085,"Ġlabora":9086,"Ġvagamente":9087,"Ġconversava":9088,"ĠconversaÃ§Ãµes":9089,"Ġviviam":9090,"Ġnetworks":9091,"Ġassociates":9092,"Ġ500":9093,"Ġshel":9094,"Ġdemol":9095,"Ġdemons":9096,"Ġwait":9097,"Ġindones":9098,"Ġdocumento":9099,"Ġaconse":9100,"Ġfollowed":9101,"Ġescuras":9102,"Ġmostrava":9103,"Ġreflexo":9104,"Ġbuilt":9105,"Ġamam":9106,"Ġamada":9107,"Ġpeccados":9108,"Ġspecialist":9109,"Ġlondon":9110,"Ġcompaq":9111,"Ġcompara":9112,"deiras":9113,"Ġ186":9114,"Ġaborrec":9115,"Ġtells":9116,"Ġapprova":9117,"ĠapprovaÃ§Ã£o":9118,"Ġappropria":9119,"Ġguardei":9120,"Ġguardado":9121,"Ġdonate":9122,"Ġbeijos":9123,"Ġbeijou":9124,"Ġbeijei":9125,"ĠoccasiÃµes":9126,"Ġtitle":9127,"Ġeterno":9128,"Ġfinance":9129,"Ġfinland":9130,"Ġlxvi":9131,"Ġlxii":9132,"Ġlxvii":9133,"Ġofferec":9134,"Ġiriamos":9135,"Ġalegres":9136,"Ġembarcar":9137,"Ġexcess":9138,"Ġescolhi":9139,"Ġeduard":9140,"Ġlxxi":9141,"Ġdireitos":9142,"Ġprogramme":9143,"Ġpurgatorio":9144,"Ġmanaging":9145,"Ġpromotion":9146,"Ġpromoted":9147,"Ġreflectir":9148,"Ġcincoenta":9149,"Ġagradecer":9150,"Ġacontecia":9151,"Ġacontecimentos":9152,"dentemente":9153,"Ġmocet":9154,"Ġmocinho":9155,"Ġspeaks":9156,"Ġnorth":9157,"Ġnorweg":9158,"Ġmetades":9159,"Ġreferir":9160,"Ġreaching":9161,"Ġconcert":9162,"Ġprotect":9163,"Ġproteger":9164,"Ġabstracts":9165,"Ġfacility":9166,"Ġdefunc":9167,"Ġultimamente":9168,"Ġearn":9169,"Ġswimmin":9170,"Ġdecided":9171,"Ġdevota":9172,"Ġbrilh":9173,"Ġbrigar":9174,"Ġbrief":9175,"Ġpagina":9176,"Ġpagamento":9177,"Ġensinar":9178,"Ġextending":9179,"Ġextended":9180,"Ġextensive":9181,"Ġexemplar":9182,"Ġturquia":9183,"Ġabatido":9184,"Ġappren":9185,"Ġchamando":9186,"Ġpromettia":9187,"ĠreligiÃ£o":9188,"expertise":9189,"Ġrank":9190,"Ġrandy":9191,"Ġtouca":9192,"Ġlargely":9193,"Ġbadge":9194,"Ġsecreto":9195,"Ġhighly":9196,"Ġ1971":9197,"Ġcompleted":9198,"Ġordenou":9199,"ĠordenaÃ§Ã£o":9200,"Ġpedac":9201,"Ġmodern":9202,"Ġarchit":9203,"Ġfurtifs":9204,"ributors":9205,"Ġtremulo":9206,"Ġtremend":9207,"Ġlisting":9208,"Ġblue":9209,"Ġessencia":9210,"Ġessencial":9211,"Ġconsiderable":9212,"ĠalcanÃ§a":9213,"Ġformam":9214,"Ġinterromper":9215,"Ġinterrompi":9216,"duzido":9217,"Ġarranjava":9218,"ĠlembranÃ§as":9219,"Ġincreased":9220,"Ġaborrecida":9221,"Ġstandardization":9222,"busto":9223,"Ġtelef":9224,"ĠtelevisÃ£o":9225,"Ġderiva":9226,"Ġpanno":9227,"ĠvÃªm":9228,"Ġbesides":9229,"Ġanswers":9230,"Ġsexy":9231,"Ġjurava":9232,"Ġenxuguei":9233,"Ġdesfec":9234,"Ġattitudes":9235,"Ġesconder":9236,"Ġescondido":9237,"Ġchegara":9238,"Ġchegaram":9239,"Ġcuriosa":9240,"Ġprompta":9241,"ficado":9242,"ficaÃ§Ã£o":9243,"Ġtried":9244,"Ġdiminu":9245,"ĠdimensÃµes":9246,"Ġmolhados":9247,"Ġwalking":9248,"Ġinclina":9249,"Ġinclinei":9250,"ĠinclinaÃ§Ã£o":9251,"Ġremete":9252,"Ġhesitar":9253,"ĠhesitaÃ§Ã£o":9254,"ĠalmoÃ§ar":9255,"Ġproximos":9256,"Ġparagraphs":9257,"Ġsaiba":9258,"Ġmurray":9259,"Ġmurmu":9260,"Ġfaceis":9261,"illot":9262,"Ġteimou":9263,"Ġtivera":9264,"Ġesquerdo":9265,"Ġmemory":9266,"Ġeffectivo":9267,"Ġapostolos":9268,"Ġlocalization":9269,"Ġaustra":9270,"ĠcÃ³ros":9271,"Ġdepend":9272,"Ġdepends":9273,"ĠberÃ§o":9274,"Ġcommovido":9275,"Ġgasta":9276,"Ġgastar":9277,"Ġgolpe":9278,"Ġnovels":9279,"Ġconnection":9280,"Ġacostumado":9281,"Ġdesceram":9282,"ĠdisfarÃ§ar":9283,"Ġrunning":9284,"Ġleaving":9285,"Ġleakeo":9286,"Ġunicode":9287,"Ġregistered":9288,"Ġexcellente":9289,"Ġexcellence":9290,"Ġamericans":9291,"Ġcorrespond":9292,"Ġcorrespondente":9293,"Ġspent":9294,"Ġspinning":9295,"Ġbrowse":9296,"Ġbrowsers":9297,"Ġanteriores":9298,"Ġselling":9299,"Ġestender":9300,"Ġestendeu":9301,"Ġespantada":9302,"Ġpayments":9303,"Ġjorge":9304,"Ġjornal":9305,"Ġhernan":9306,"Ġalvitre":9307,"Ġaltavista":9308,"Ġempina":9309,"Ġempur":9310,"Ġsatisfeito":9311,"Ġinterrogar":9312,"Ġdisposto":9313,"ĠdisposiÃ§Ã£o":9314,"Ġperfect":9315,"Ġperdoe":9316,"ĠabraÃ§ou":9317,"Ġpuxar":9318,"Ġprepare":9319,"Ġnearest":9320,"Ġrecommen":9321,"Ġrecommend":9322,"Ġgeneration":9323,"Ġscientifique":9324,"ĠabsolviÃ§Ã£o":9325,"Ġgermany":9326,"piraÃ§Ã£o":9327,"Ġtestamento":9328,"Ġpallida":9329,"Ġfrag":9330,"ĠbrasÃŃlia":9331,"Ġgrosso":9332,"Ġgrossos":9333,"Ġencheram":9334,"Ġencobr":9335,"ĠdirÃ£o":9336,"Ġdirty":9337,"Ġemprego":9338,"Ġempreguei":9339,"Ġchorei":9340,"Ġescravo":9341,"Ġrecuei":9342,"Ġobserva":9343,"Ġaffirma":9344,"Ġbelieving":9345,"Ġbarriers":9346,"Ġadolescente":9347,"Ġadolescentes":9348,"Ġexpanding":9349,"Ġspeakers":9350,"Ġpopularization":9351,"Ġidentification":9352,"Ġrecognize":9353,"Ġsuccessos":9354,"Ġsuccessful":9355,"Ġagarrei":9356,"Ġtonto":9357,"Ġedvantage":9358,"Ġstop":9359,"Ġsinging":9360,"Ġscotland":9361,"Ġspecific":9362,"Ġspecimen":9363,"Ġshore":9364,"Ġlangues":9365,"Ġinquieto":9366,"Ġself":9367,"Ġselvagem":9368,"Ġrezar":9369,"Ġrezei":9370,"Ġregular":9371,"Ġrequired":9372,"Ġrepresented":9373,"Ġconvidar":9374,"Ġconvivas":9375,"Ġencanto":9376,"Ġexecu":9377,"Ġdistrah":9378,"Ġatrevidas":9379,"Ġabane":9380,"Ġabanou":9381,"Ġabanava":9382,"Ġlegit":9383,"ĠlegiÃ£o":9384,"Ġordinar":9385,"Ġordene":9386,"Ġrecolhi":9387,"Ġadverti":9388,"Ġstatistics":9389,"Ġaffligir":9390,"Ġmethodolog":9391,"Ġconseguiu":9392,"Ġarrependimento":9393,"Ġdanger":9394,"Ġcriado":9395,"Ġmiral":9396,"Ġmirar":9397,"Ġslowly":9398,"Ġdemorar":9399,"Ġrejeitou":9400,"Ġenfiou":9401,"Ġdividir":9402,"Ġnamorada":9403,"Ġnamorados":9404,"Ġhostia":9405,"Ġsacudi":9406,"Ġexpense":9407,"Ġexpenses":9408,"ĠsemelhanÃ§as":9409,"Ġcomplying":9410,"Ġcomprimentar":9411,"Ġcomplexity":9412,"Ġimmediately":9413,"Ġimpulsos":9414,"Ġapagar":9415,"Ġmodalities":9416,"Ġguardal":9417,"Ġtravessuras":9418,"Ġpremio":9419,"ĠcreanÃ§ol":9420,"Ġrecusou":9421,"Ġrecordando":9422,"ĠirmÃ£os":9423,"Ġbringing":9424,"Ġaffected":9425,"Ġaffectuosas":9426,"Ġassistance":9427,"Ġmettida":9428,"Ġuniversidade":9429,"Ġfamiliares":9430,"Ġvexame":9431,"Ġbarbonos":9432,"Ġconsequence":9433,"Ġconstruction":9434,"Ġescapou":9435,"Ġpurposes":9436,"Ġbilhetes":9437,"Ġpotentially":9438,"ifico":9439,"Ġadagio":9440,"Ġtesting":9441,"Ġcelebre":9442,"Ġcelebres":9443,"Ġdevedor":9444,"Ġvasto":9445,"Ġinvest":9446,"Ġincompa":9447,"Ġincommodo":9448,"Ġtopics":9449,"Ġpainting":9450,"Ġnovembro":9451,"Ġconversando":9452,"Ġcontains":9453,"Ġcontaining":9454,"Ġenfiado":9455,"Ġenfiados":9456,"Ġexercises":9457,"Ġdespeito":9458,"Ġdesigna":9459,"Ġdispensa":9460,"Ġperrear":9461,"Ġperforming":9462,"ĠcoraÃ§Ãµes":9463,"Ġrestrictions":9464,"ĠpredicÃ§Ã£o":9465,"Ġcontribute":9466,"Ġroyalties":9467,"Ġpreserve":9468,"Ġtruth":9469,"Ġverdadeiramente":9470,"Ġcrime":9471,"Ġrecebendo":9472,"Ġbuscal":9473,"Ġvenhamos":9474,"Ġzangado":9475,"Ġzangava":9476,"Ġdezeseis":9477,"Ġpermittia":9478,"Ġcircumstancia":9479,"Ġessentially":9480,"Ġperiodical":9481,"Ġperiodicals":9482,"Ġsympath":9483,"Ġdisplayed":9484,"Ġextraordinario":9485,"Ġextraordinariamente":9486,"Ġpiscando":9487,"Ġscismando":9488,"Ġvanish":9489,"Ġvictima":9490,"Ġinutil":9491,"Ġinuteis":9492,"Ġasked":9493,"Ġcabia":9494,"Ġcautel":9495,"Ġmagro":9496,"Ġenferma":9497,"Ġenfermeira":9498,"Ġalphabe":9499,"Ġproferi":9500,"Ġdiscover":9501,"ĠprÃ³prio":9502,"Ġamarellas":9503,"Ġcotres":9504,"Ġrespeito":9505,"Ġsocegado":9506,"ĠimitaÃ§Ãµes":9507,"Ġapontando":9508,"Ġapalpei":9509,"Ġapplications":9510,"Ġapparencia":9511,"Ġlavadouro":9512,"Ġhealthy":9513,"Ġcopyrighted":9514,"Ġobjecto":9515,"Ġobtaining":9516,"Ġsincera":9517,"Ġfluido":9518,"Ġsupporting":9519,"Ġinfluence":9520,"Ġseparate":9521,"Ġseparados":9522,"Ġbroadcasting":9523,"ĠalcanÃ§ar":9524,"cantico":9525,"Ġavoid":9526,"Ġdroga":9527,"Ġduring":9528,"ĠsinhÃ¡sinha":9529,"Ġskye":9530,"Ġliability":9531,"Ġincenti":9532,"Ġinitiated":9533,"Ġestrada":9534,"Ġgeoffrey":9535,"Ġregard":9536,"Ġenorme":9537,"Ġenormous":9538,"Ġemendou":9539,"Ġforums":9540,"Ġexpressions":9541,"Ġextranho":9542,"Ġextremely":9543,"Ġcastelo":9544,"Ãªncia":9545,"Ġpowerful":9546,"Ġabroad":9547,"Ġallopathia":9548,"Ġcommentary":9549,"Ġrecreios":9550,"Ġmaluqu":9551,"Ġgravata":9552,"ĠconfianÃ§a":9553,"Ġobviously":9554,"Ġcampaign":9555,"Ġrisonho":9556,"Ġregresso":9557,"Ġdissertation":9558,"Ġdefinitiva":9559,"Ġwarranties":9560,"Ġindicate":9561,"Ġbellaqueo":9562,"Ġbellaquear":9563,"Ġdestinado":9564,"Ġdestinada":9565,"Ġswitch":9566,"Ġswitzerland":9567,"Ġsymbols":9568,"ĠrecommendaÃ§Ãµes":9569,"Ġinvestidura":9570,"Ġdepartment":9571,"Ġdepartments":9572,"senhor":9573,"Ġaventuras":9574,"Ġtosse":9575,"Ġevidentemente":9576,"Ġevocava":9577,"Ġsamba":9578,"Ġsnail":9579,"Ġspirit":9580,"Ġfulgu":9581,"ĠfÃ²ro":9582,"Ġlindos":9583,"ĠlampiÃ£o":9584,"Ġvulgar":9585,"Ġvenceu":9586,"Ġblood":9587,"Ġurbana":9588,"Ġulysse":9589,"tificial":9590,"Ġancioso":9591,"Ġestranha":9592,"Ġredistribu":9593,"Ġcausas":9594,"Ġmadrugada":9595,"Ġexquisita":9596,"Ġlexicograph":9597,"Ġimprimil":9598,"Ġapplicable":9599,"Ġmovies":9600,"Ġmodesta":9601,"Ġmanuscripto":9602,"Ġarrival":9603,"Ġarmazem":9604,"Ġlatino":9605,"Ġcommittee":9606,"Ġtragico":9607,"Ġkingscott":9608,"Ġcarnes":9609,"Ġaccordei":9610,"Ġaccurate":9611,"Ġsomewhat":9612,"Ġmonographs":9613,"Ġsuspirando":9614,"Ġdisclaimer":9615,"ĠfÃ³rma":9616,"Ġlibrarians":9617,"Ġvehicle":9618,"Ġfighting":9619,"Ġestremecer":9620,"Ġinterrompida":9621,"ĠreconciliaÃ§Ã£o":9622,"Ġhyperlink":9623,"Ġexclusivamente":9624,"Ġequipment":9625,"Ġsubstituto":9626,"Ġretrieval":9627,"Ġsublime":9628,"lenine":9629,"morreu":9630,"obrigado":9631,"Ġcigana":9632,"Ġorigem":9633,"Ġpsycho":9634,"Ġfinger":9635,"Ġbulha":9636,"Ġwatch":9637,"Ġinjuria":9638,"Ġinnocente":9639,"Ġincerto":9640,"Ġreformar":9641,"Ġreports":9642,"Ġredargu":9643,"Ġcabelo":9644,"Ġcontrol":9645,"Ġmajestade":9646,"Ġenhance":9647,"Ġencourage":9648,"Ġemerge":9649,"Ġacredita":9650,"sachusetts":9651,"Ġexterno":9652,"ĠexpressÃµes":9653,"Ġdesprezo":9654,"unciou":9655,"Ġatordoado":9656,"Ġatropello":9657,"Ġmuerdo":9658,"Ġarrodeada":9659,"Ġfumeteo":9660,"ticultural":9661,"Ġkipling":9662,"Ġbaixinho":9663,"Ġconfundem":9664,"Ġconfidencia":9665,"Ġ**--":9666,"Ġexperimentar":9667,"Ġsouberam":9668,"Ġvenirte":9669,"Ġinsinuou":9670,"Ġefficient":9671,"Ġmilagre":9672,"Ġcolumn":9673,"Ġdemocracy":9674,"Ġwonderful":9675,"Ġsignificant":9676,"Ġbrincadeira":9677,"Ġrapidly":9678,"Ġadivinhando":9679,"Ġcollabora":9680,"Ġtestemunhas":9681,"Ġbulletin":9682,"Ġencyclopedia":9683,"Ġportuguese":9684,"Ġanecdota":9685,"Ġsacerdote":9686,"Ġsufficiente":9687,"foi":9688,"keley":9689,"Ġzealand":9690,"Ġajoel":9691,"Ġevalua":9692,"Ġcunhadinha":9693,"Ġockerblo":9694,"Ġpanty":9695,"Ġpyramides":9696,"Ġsleep":9697,"Ġnympha":9698,"Ġquitanda":9699,"Ġfusco":9700,"ĠbÃ¡ilame":9701,"Ġinforoutes":9702,"Ġinglez":9703,"Ġantonio":9704,"Ġtolerava":9705,"Ġespontan":9706,"Ġpacific":9707,"Ġashaverus":9708,"Ġrecherche":9709,"Ġrepreh":9710,"Ġretrospectiva":9711,"Ġilovelanguages":9712,"Ġidentity":9713,"Ġcaoimhin":9714,"Ġendire":9715,"Ġenvisage":9716,"Ġnaufragio":9717,"Ġmassinissa":9718,"ĠexageraÃ§Ã£o":9719,"Ġdestroy":9720,"Ġinterconnec":9721,"Ġcapsuleo":9722,"ĠmuÃ©velo":9723,"utrecht":9724,"Ġlibretto":9725,"Ġhobler":9726,"Ġteimosos":9727,"Ġunfortunately":9728,"Ġmanifesta":9729,"Ġarchanjo":9730,"Ġbotelleo":9731,"Ġchinellas":9732,"Ġchief":9733,"Ġchristiane":9734,"Ġesculptor":9735,"Ġracioc":9736,"Ġraggett":9737,"european":9738,"Ġtijuca":9739,"Ġtruncado":9740,"Ġobjectos":9741,"Ġmontoya":9742,"Ġbelgium":9743,"Ġvocabulary":9744,"Ġjadelot":9745,"ĠlenÃ§Ã³es":9746,"Ġcolleagues":9747,"Ġindonesian":9748,"Ġappropriate":9749,"Ġnorwegian":9750,"Ġderivative":9751,"Ġhernandez":9752,"Ġmethodology":9753,"ĠcreanÃ§olas":9754,"Ġockerbloom":9755,"!\"":9756,"!--":9757,"'âĢĶ,":9758,",\"":9759,",Â»":9760,".âĢĿ":9761,"01":9762,"16":9763,"20":9764,"30":9765,"32":9766,"41":9767,"48":9768,"52":9769,"62":9770,"700":9771,"92":9772,"900":9773,"?_":9774,"ai":9775,"ate":9776,"ato":9777,"aper":9778,"aut":9779,"aten":9780,"ather":9781,"aur":9782,"aÃ§Ãµes":9783,"ating":9784,"aventura":9785,"aÃ±o":9786,"bm":9787,"bn":9788,"bs":9789,"bom":9790,"bic":9791,"bed":9792,"bio":9793,"big":9794,"bros":9795,"bios":9796,"bura":9797,"biqu":9798,"brios":9799,"brir":9800,"cd":9801,"cr":9802,"cte":9803,"cam":9804,"ctu":9805,"cina":9806,"cest":9807,"colo":9808,"cting":9809,"cemos":9810,"cru":9811,"citas":9812,"cÃ¡mos":9813,"dd":9814,"dis":9815,"dil":9816,"dÃ³":9817,"diz":9818,"dity":9819,"dita":9820,"dinho":9821,"dand":9822,"dindo":9823,"daria":9824,"dessem":9825,"ddle":9826,"ees":9827,"eas":9828,"eia":9829,"edo":9830,"ete":9831,"even":9832,"eamente":9833,"elles":9834,"fl":9835,"fess":9836,"fur":9837,"fies":9838,"faz":9839,"france":9840,"gth":9841,"gla":9842,"gno":9843,"gence":9844,"gamente":9845,"grando":9846,"gÃ¡rio":9847,"his":9848,"hom":9849,"hÃ¡":9850,"hendo":9851,"hÃ´":9852,"huh":9853,"hull":9854,"ires":9855,"iente":9856,"ivo":9857,"ience":9858,"ijo":9859,"iencia":9860,"ibility":9861,"jul":9862,"just":9863,"jamos":9864,"jisa":9865,"kers":9866,"lin":9867,"los":9868,"lon":9869,"lam":9870,"lings":9871,"my":9872,"mity":9873,"masse":9874,"michigan":9875,"mpago":9876,"nor":9877,"nou":9878,"nel":9879,"nus":9880,"niz":9881,"ninho":9882,"nand":9883,"nds":9884,"nunca":9885,"oas":9886,"ogo":9887,"oito":9888,"otes":9889,"oting":9890,"oaÃ§Ã£o":9891,"pk":9892,"pin":9893,"pic":9894,"pus":9895,"pando":9896,"pran":9897,"pad":9898,"put":9899,"passe":9900,"pson":9901,"pitar":9902,"prias":9903,"palo":9904,"pidez":9905,"ptation":9906,"rÃ£o":9907,"rte":9908,"ric":9909,"rente":9910,"rens":9911,"rÃ¡ra":9912,"rdy":9913,"rice":9914,"sc":9915,"she":9916,"sar":9917,"sol":9918,"sch":9919,"sÃ³":9920,"sum":9921,"six":9922,"sinho":9923,"sasse":9924,"senta":9925,"sses":9926,"special":9927,"space":9928,"sources":9929,"santa":9930,"stico":9931,"sÃŃvel":9932,"tm":9933,"tres":9934,"tch":9935,"tÃº":9936,"tinho":9937,"tindo":9938,"tÃ¡ra":9939,"tinas":9940,"tinhos":9941,"ud":9942,"ug":9943,"uda":9944,"ude":9945,"upo":9946,"uge":9947,"utions":9948,"ucto":9949,"ueta":9950,"udir":9951,"utionary":9952,"umed":9953,"udiu":9954,"ughter":9955,"vÃ¡":9956,"vÃª":9957,"vÃŃ":9958,"vour":9959,"vance":9960,"vÃ¡ra":9961,"wk":9962,"wid":9963,"xas":9964,"xava":9965,"yo":9966,"yers":9967,"yale":9968,"zos":9969,"zol":9970,"ziu":9971,"zÃ³n":9972,"zech":9973,"Â¿":9974,"Ġ$":9975,"Ġ,":9976,"Ġ...":9977,"Ġ00":9978,"ĠÂ»":9979,"ĠÂ¿":9980,"Ġaro":9981,"Ġadia":9982,"ĠaÃŃ":9983,"Ġaze":9984,"Ġaval":9985,"Ġatado":9986,"Ġavent":9987,"Ġaula":9988,"Ġatur":9989,"Ġatira":9990,"Ġahead":9991,"Ġaids":9992,"Ġajun":9993,"Ġawar":9994,"Ġtras":9995,"Ġties":9996,"Ġtall":9997,"Ġtrip":9998,"Ġtonta":9999,"Ġtough":10000,"ĠtÃ¨":10001,"Ġtasty":10002,"Ġere":10003,"Ġeres":10004,"Ġedi":10005,"Ġeast":10006,"Ġerec":10007,"Ġeru":10008,"Ġevent":10009,"Ġetexts":10010,"Ġdr":10011,"Ġdut":10012,"Ġdica":10013,"Ġdita":10014,"Ġdja":10015,"Ġdante":10016,"Ġdrip":10017,"Ġdans":10018,"ĠdÃŃa":10019,"ĠdÃ²r":10020,"Ġcs":10021,"Ġcv":10022,"ĠcÃ£o":10023,"Ġcel":10024,"Ġcvi":10025,"Ġcix":10026,"Ġclo":10027,"Ġcine":10028,"Ġcii":10029,"Ġcds":10030,"Ġcessa":10031,"Ġcvii":10032,"Ġcviii":10033,"Ġciii":10034,"ĠcÃ²r":10035,"Ġcioso":10036,"Ġcmu":10037,"Ġczech":10038,"ĠoÃŃ":10039,"Ġodes":10040,"Ġodio":10041,"Ġoak":10042,"Ġoceano":10043,"Ġodd":10044,"iner":10045,"init":10046,"inde":10047,"intes":10048,"inidade":10049,"inasse":10050,"inhei":10051,"inently":10052,"inian":10053,"inaba":10054,"Ġmm":10055,"Ġmit":10056,"Ġmou":10057,"ĠmÃ©":10058,"Ġmun":10059,"Ġmere":10060,"Ġmina":10061,"ĠmÃªs":10062,"Ġmental":10063,"ĠmÃºs":10064,"Ġmichigan":10065,"Ġmcken":10066,"ĠpÃ¡":10067,"Ġpei":10068,"Ġpando":10069,"Ġpras":10070,"Ġpity":10071,"Ġpida":10072,"Ġpana":10073,"Ġpixel":10074,"ery":10075,"eros":10076,"erved":10077,"ervos":10078,"Ġsar":10079,"ĠsÃ£":10080,"ĠsÃ¡":10081,"Ġsmo":10082,"Ġspl":10083,"Ġstro":10084,"Ġsting":10085,"Ġspi":10086,"Ġstran":10087,"Ġshado":10088,"Ġsounds":10089,"Ġslings":10090,"rate":10091,"radas":10092,"rary":10093,"raÃ§ar":10094,"ratch":10095,"esus":10096,"esma":10097,"estar":10098,"esome":10099,"quar":10100,"quiz":10101,"quero":10102,"queira":10103,"quiring":10104,"Ġnic":10105,"ĠnÃ³":10106,"Ġnun":10107,"Ġnine":10108,"Ġnero":10109,"Ġninhos":10110,"Ġnela":10111,"Ġnessas":10112,"Ġnervos":10113,"ener":10114,"ening":10115,"ensa":10116,"enÃ§Ã£o":10117,"entava":10118,"enge":10119,"endas":10120,"enÃ§o":10121,"ension":10122,"entado":10123,"enadas":10124,"encho":10125,"encing":10126,"encies":10127,"ased":10128,"asphe":10129,"osen":10130,"osamente":10131,"hel":10132,"heÃ§o":10133,"Ġquan":10134,"ordia":10135,"orÃ§o":10136,"orough":10137,"Ġfit":10138,"Ġfum":10139,"Ġfab":10140,"Ġfill":10141,"Ġfome":10142,"Ġfive":10143,"Ġfie":10144,"Ġfitar":10145,"Ġfeste":10146,"Ġfrias":10147,"Ġflow":10148,"Ġfitando":10149,"Ġfidelidade":10150,"iso":10151,"isava":10152,"isba":10153,"isado":10154,"island":10155,"ari":10156,"ars":10157,"art":10158,"arma":10159,"artificial":10160,"onio":10161,"onias":10162,"onardo":10163,"Ã£s":10164,"aned":10165,"anÃ§o":10166,"anation":10167,"Ġdeco":10168,"Ġdetes":10169,"Ġdedu":10170,"Ġdepu":10171,"Ġdeitou":10172,"Ġdeals":10173,"itten":10174,"itant":10175,"itasse":10176,"itous":10177,"itera":10178,"itaria":10179,"itados":10180,"itissimo":10181,"itics":10182,"remo":10183,"reza":10184,"reland":10185,"Ġquedo":10186,"Ġquedar":10187,"Ġlv":10188,"Ġlente":10189,"Ġlut":10190,"ĠlanÃ§a":10191,"Ġlinhas":10192,"Ġlenta":10193,"Ġlump":10194,"Ġlvii":10195,"ouvi":10196,"ouras":10197,"Ġtheft":10198,"Ġthetis":10199,"Ġtheory":10200,"ombo":10201,"Ġvinho":10202,"Ġvind":10203,"Ġviam":10204,"ĠvÃ³s":10205,"ĠvÃ£os":10206,"Ġvimos":10207,"ĠvÃŃcio":10208,"Ġbos":10209,"Ġbam":10210,"Ġbite":10211,"Ġbone":10212,"Ġbento":10213,"Ġbrio":10214,"Ġbens":10215,"Ġbord":10216,"Ġbump":10217,"Ġbeng":10218,"Ġborda":10219,"Ġbossa":10220,"Ġwing":10221,"Ġwent":10222,"Ġwest":10223,"Ġwides":10224,"iaes":10225,"iade":10226,"iamo":10227,"iaveis":10228,"hab":10229,"hah":10230,"hara":10231,"hamos":10232,"hable":10233,"hawa":10234,"Ġintr":10235,"Ġinsi":10236,"Ġinfr":10237,"Ġincu":10238,"Ġincum":10239,"Ġinici":10240,"ĠinÃŃcio":10241,"Ġinception":10242,"emo":10243,"emed":10244,"emento":10245,"empt":10246,"emne":10247,"Ġuteis":10248,"Ġubiqu":10249,"tias":10250,"tida":10251,"tigu":10252,"tidade":10253,"tivel":10254,"tiria":10255,"tible":10256,"tiens":10257,"tiful":10258,"tela":10259,"teach":10260,"tello":10261,"tegy":10262,"Ġanth":10263,"Ġancia":10264,"Ġanges":10265,"Ġancest":10266,"Ġanzol":10267,"llor":10268,"llon":10269,"llion":10270,"lleza":10271,"lliÃ£o":10272,"rot":10273,"rora":10274,"rola":10275,"ropol":10276,"Ġcomi":10277,"Ġcomendo":10278,"Ġcomtanto":10279,"Ġcommet":10280,"taca":10281,"tawa":10282,"damos":10283,"dable":10284,"import":10285,"imitar":10286,"imonio":10287,"guez":10288,"gueira":10289,"gusto":10290,"Ġmelo":10291,"Ġmeios":10292,"Ġmellon":10293,"sey":10294,"sell":10295,"secou":10296,"ict":10297,"icar":10298,"iciste":10299,"icons":10300,"dee":10301,"deiros":10302,"deixa":10303,"dezas":10304,"Ã§Ã£":10305,"Ġseda":10306,"Ġsets":10307,"Ġsepar":10308,"Ġsecc":10309,"Ġsexu":10310,"Ġtoe":10311,"Ġtocado":10312,"Ġtocando":10313,"Ġtodito":10314,"Ġesa":10315,"Ġespe":10316,"Ġesqui":10317,"Ġesgar":10318,"Ġesante":10319,"Ġesgan":10320,"Ġesbel":10321,"Ġesbura":10322,"top":10323,"Ġgor":10324,"Ġgri":10325,"Ġgle":10326,"Ġgla":10327,"Ġgone":10328,"Ġgour":10329,"Ġgast":10330,"ĠgÃ³s":10331,"Ġgrim":10332,"Ġgordo":10333,"Ġgyal":10334,"Ġganho":10335,"vai":10336,"Ġpair":10337,"Ġpagou":10338,"Ġpagem":10339,"ĠpaÃŃs":10340,"Ġpateo":10341,"ĠandÃ©":10342,"Ġandasse":10343,"Ġandaria":10344,"Ġandassem":10345,"Ġasmo":10346,"Ġasian":10347,"ingos":10348,"ingir":10349,"Ã¡mo":10350,"Ã¡vel":10351,"tera":10352,"terial":10353,"Ġrey":10354,"Ġrega":10355,"Ġretic":10356,"Ġrepos":10357,"Ġregra":10358,"Ġretal":10359,"Ġretir":10360,"Ġretido":10361,"Ġreject":10362,"Ġretira":10363,"Ġreinou":10364,"Ġrecapit":10365,"Ġreduced":10366,"Ġredob":10367,"Ġrevised":10368,"ecas":10369,"ecta":10370,"ected":10371,"Ġiv":10372,"Ġira":10373,"Ġiber":10374,"Ġiba":10375,"Ġiii":10376,"Ġilha":10377,"Ġign":10378,"Ġirac":10379,"Ġirem":10380,"Ġilhas":10381,"Ġibm":10382,"Ġigno":10383,"Ġireland":10384,"Ġdoer":10385,"Ġdotes":10386,"Ġdoesse":10387,"Ġdoze":10388,"Ġdoentes":10389,"hot":10390,"how":10391,"hoÃ§a":10392,"hold":10393,"holic":10394,"ĠouÃ§a":10395,"Ġnoj":10396,"Ġnotei":10397,"Ġnoches":10398,"elera":10399,"electric":10400,"Ġcae":10401,"Ġcava":10402,"Ġcame":10403,"Ġcaco":10404,"Ġcaber":10405,"Ġcader":10406,"Ġcaix":10407,"Ġcatas":10408,"Ġcable":10409,"Ġcatei":10410,"ĠcaÃŃa":10411,"ĠcaixÃ£o":10412,"Ġcavar":10413,"Ġcaixa":10414,"Ġcateg":10415,"Ġcairam":10416,"Ġdave":10417,"Ġdamas":10418,"Ġdaba":10419,"Ġcontido":10420,"Ġconvida":10421,"Ġconvin":10422,"ĠcondiÃ§Ã£o":10423,"Ġconcreto":10424,"Ġcondemn":10425,"Ġcontigu":10426,"Ġmate":10427,"Ġmaio":10428,"Ġmatr":10429,"Ġmature":10430,"Ġmatal":10431,"Ġmaps":10432,"Ġmataria":10433,"Ġmadura":10434,"Ġmamm":10435,"Ġmachado":10436,"usc":10437,"uses":10438,"usto":10439,"Ġ--...":10440,"Ġjam":10441,"Ġjava":10442,"Ġjump":10443,"Ġjantei":10444,"Ġjarre":10445,"Ġjesus":10446,"rial":10447,"rido":10448,"riveis":10449,"rietary":10450,"Ġenre":10451,"Ġenver":10452,"Ġenca":10453,"Ġenfor":10454,"Ġendu":10455,"Ġenlo":10456,"Ġenven":10457,"Ġends":10458,"Ġenquanto":10459,"Ġenxo":10460,"Ġdios":10461,"Ġdidi":10462,"Ġdiary":10463,"Ġdivin":10464,"Ġdiverse":10465,"ĠdivisÃ£o":10466,"olas":10467,"olha":10468,"olir":10469,"olingual":10470,"olation":10471,"enty":10472,"entre":10473,"entists":10474,"entinian":10475,"ets":10476,"etou":10477,"etÃ©":10478,"ethora":10479,"respec":10480,"ressem":10481,"cegas":10482,"veill":10483,"veja":10484,"veau":10485,"Ġnail":10486,"Ġnavi":10487,"Ġnaquellas":10488,"Ġisi":10489,"Ġisola":10490,"Ġislands":10491,"Ġisbn":10492,"Ġisolation":10493,"matic":10494,"making":10495,"macy":10496,"ulou":10497,"ulso":10498,"ultan":10499,"Ġhit":10500,"Ġhence":10501,"Ġhid":10502,"Ġhits":10503,"Ġhuge":10504,"Ġhiciste":10505,"Ġthera":10506,"Ġthrow":10507,"Ġthread":10508,"Ġtheres":10509,"Ġthumb":10510,"Ġthorn":10511,"Ġthorough":10512,"Ġalb":10513,"Ġalis":10514,"Ġalar":10515,"Ġalva":10516,"Ġalum":10517,"Ġalright":10518,"Ġaltos":10519,"Ġalju":10520,"Ġalbu":10521,"ĠalÃ§ada":10522,"Ġempa":10523,"Ġembe":10524,"Ġemph":10525,"Ġempha":10526,"ili":10527,"ilha":10528,"iling":10529,"iled":10530,"ilando":10531,"ilita":10532,"ilities":10533,"ilÃł":10534,"Ġossos":10535,"Ġosculo":10536,"Ġ(+":10537,"edas":10538,"edor":10539,"Ġacer":10540,"Ġacal":10541,"Ġacci":10542,"Ġactor":10543,"Ġactive":10544,"Ġacima":10545,"Ġacorda":10546,"Ġactual":10547,"ĠacÃ³de":10548,"Ġactively":10549,"Ġacquiring":10550,"Ġprovis":10551,"Ġprogress":10552,"veram":10553,"vergence":10554,"Ġporco":10555,"ĠporquÃª":10556,"Ġmassachusetts":10557,"irman":10558,"goth":10559,"govern":10560,"gogy":10561,"Ġonto":10562,"Ġonelo":10563,"Ġhaha":10564,"Ġhack":10565,"Ġhaines":10566,"Ġhavido":10567,"Ġhavemos":10568,"Ġhacemos":10569,"Ġhawk":10570,"Ġparall":10571,"Ġparando":10572,"trar":10573,"trained":10574,"traints":10575,"soon":10576,"soci":10577,"soever":10578,"lego":10579,"levant":10580,"Ġformos":10581,"Ġsapo":10582,"Ġsabem":10583,"Ġsaido":10584,"Ġsadly":10585,"ĠsazÃ³n":10586,"Ġexig":10587,"Ġexpon":10588,"Ġexpec":10589,"Ġexport":10590,"Ġexpi":10591,"Ġexists":10592,"Ġextin":10593,"Ġexterior":10594,"Ġexisted":10595,"Ġexplain":10596,"Ġexato":10597,"Ġexempt":10598,"Ġbee":10599,"Ġbear":10600,"Ġbeam":10601,"Ġbeard":10602,"Ġbebel":10603,"Ġbeau":10604,"Ġweather":10605,"caÃ§Ã£o":10606,"cape":10607,"vidar":10608,"vidÃ£o":10609,"Ã³i":10610,"Ã³rio":10611,"Ġdesal":10612,"Ġdesva":10613,"Ġdesce":10614,"Ġdesun":10615,"Ġdesper":10616,"Ġdesci":10617,"Ġdesfor":10618,"Ġdesvia":10619,"Ġdesment":10620,"Ġdescom":10621,"Ġdesat":10622,"Ġdesceu":10623,"Ġdestem":10624,"Ġdeseng":10625,"Ġdeslig":10626,"ĠdesÃ¡gua":10627,"Ġinterina":10628,"Ġinterpre":10629,"Ġinterval":10630,"Ġintervallos":10631,"Ġinterface":10632,"Ġintermedi":10633,"Ġinterinidade":10634,"this":10635,"think":10636,"thicas":10637,"thplace":10638,"ager":10639,"agÃ£o":10640,"agou":10641,"aged":10642,"Ġdise":10643,"Ġdisper":10644,"Ġdisci":10645,"Ġdispon":10646,"Ġdisses":10647,"Ġdisap":10648,"Ġdispoz":10649,"Ġdismay":10650,"Ġperce":10651,"Ġperten":10652,"Ġperna":10653,"Ġperfe":10654,"Ġperola":10655,"Ġperversa":10656,"Ġperdendo":10657,"Ġperdida":10658,"Ġpercor":10659,"rannos":10660,"rancel":10661,"unk":10662,"unless":10663,"untaria":10664,"Ġcapim":10665,"Ġcaptiva":10666,"Ġcapability":10667,"Ġcapote":10668,"Ġvii":10669,"Ġviii":10670,"Ġviera":10671,"Ġviemos":10672,"Ġviola":10673,"ĠviÃ§os":10674,"Ġvivendo":10675,"ĠvigÃ¡rio":10676,"Ġsupre":10677,"Ġsuissa":10678,"Ġprosa":10679,"Ġpriamo":10680,"pora":10681,"ocupo":10682,"Ãºde":10683,"Ġserra":10684,"Ġsermos":10685,"Ġserves":10686,"Ġserenas":10687,"Ġservil":10688,"Ġsereia":10689,"Ġamof":10690,"Ġamigu":10691,"coitado":10692,"Ġatar":10693,"Ġattal":10694,"Ġattem":10695,"Ġatinava":10696,"umbra":10697,"umph":10698,"lain":10699,"bern":10700,"berkeley":10701,"ades":10702,"adinha":10703,"adir":10704,"Ġcode":10705,"Ġcova":10706,"Ġcopo":10707,"Ġcobra":10708,"Ġcoast":10709,"Ġcoding":10710,"Ġcollo":10711,"ĠcoÃ§ava":10712,"Ġcovered":10713,"Ġcocegas":10714,"Ġverbo":10715,"Ġveremos":10716,"Ġverne":10717,"Ġverific":10718,"Ġverniz":10719,"Ġmudo":10720,"Ġmucho":10721,"stro":10722,"Ġcash":10723,"Ġcasal":10724,"Ġcasta":10725,"Ġcasca":10726,"Ġcastan":10727,"Ġcasual":10728,"Ġcasuar":10729,"utia":10730,"Ġrin":10731,"Ġros":10732,"Ġrhe":10733,"Ġring":10734,"ĠrÃ¡":10735,"Ġrender":10736,"Ġrenda":10737,"Ġrendeu":10738,"Ġritual":10739,"Ġrhy":10740,"Ġrestr":10741,"Ġresting":10742,"Ġresid":10743,"Ġresenti":10744,"Ġresistir":10745,"Ġressources":10746,"Ġressecou":10747,"pack":10748,"izon":10749,"ĠÃ¡quelle":10750,"ĠÃ¡rea":10751,"cidade":10752,"cipan":10753,"cientemente":10754,"tens":10755,"tened":10756,"tenÃ§Ã£o":10757,"Ġlii":10758,"Ġlix":10759,"Ġligar":10760,"Ġlieu":10761,"Ġliii":10762,"Ġligal":10763,"Ġlighter":10764,"Ġlikely":10765,"Ġtubar":10766,"Ġpoet":10767,"Ġpodem":10768,"Ġpodido":10769,"Ġpopul":10770,"Ġpoesias":10771,"Ġpobres":10772,"Ġpoetas":10773,"Ġfox":10774,"Ġfotos":10775,"Ġfoot":10776,"Ġloan":10777,"Ġlopes":10778,"gae":10779,"garam":10780,"gaÃ§Ãµes":10781,"mother":10782,"Ġcompas":10783,"Ġcomprado":10784,"Ġabalo":10785,"Ġability":10786,"Ġabrindo":10787,"Ġabomina":10788,"ĠabenÃ§o":10789,"dias":10790,"digo":10791,"direc":10792,"Ġleia":10793,"Ġleite":10794,"Ġleonardo":10795,"onge":10796,"Ġmorou":10797,"Ġmortal":10798,"Ġmordeu":10799,"Ġmoreno":10800,"Ġmordendo":10801,"Ġmorresse":10802,"Ġmorressem":10803,"Ġfati":10804,"Ġfavel":10805,"Ġfaces":10806,"Ġfaced":10807,"Ġfavour":10808,"Ġhold":10809,"Ġhoped":10810,"Ġholly":10811,"Ġsog":10812,"Ġsober":10813,"Ġsoff":10814,"Ġsobras":10815,"Ġsobres":10816,"Ġsofri":10817,"Ġsozinha":10818,"Ġsopran":10819,"ionario":10820,"Ġorg":10821,"Ġorph":10822,"Ġorches":10823,"Ġortho":10824,"Ġtemer":10825,"Ġtemor":10826,"Ġtemia":10827,"Ġtemendo":10828,"Ġcanon":10829,"ĠcanÃ§ou":10830,"Ġcanoas":10831,"Ġpuer":10832,"Ġpuras":10833,"Ġpudessem":10834,"Ġpuedo":10835,"Ġpureza":10836,"Ġfrene":10837,"Ġfructo":10838,"ĠpeÃ§as":10839,"Ġpegado":10840,"Ġpeores":10841,"Ġpegando":10842,"Ġfalam":10843,"Ġfalsas":10844,"Ġfalemos":10845,"ĠfalÃ¡ra":10846,"ĠfalÃ¡mos":10847,"Ġfalamos":10848,"Ġfaltando":10849,"Ġfaltam":10850,"Ġfaltasse":10851,"derou":10852,"deric":10853,"illa":10854,"ills":10855,"illes":10856,"illinois":10857,"Ġimp":10858,"Ġimital":10859,"Ġimplic":10860,"Ġimmen":10861,"Ġimplied":10862,"Ġimpru":10863,"Ġape":10864,"Ġappre":10865,"Ġaphor":10866,"Ġunre":10867,"Ġunion":10868,"Ġundes":10869,"Ġunindo":10870,"Ġuntou":10871,"Ġunhas":10872,"Ġungido":10873,"Ġunlim":10874,"pefac":10875,"pegaÃŃto":10876,"Ġsense":10877,"Ġsenado":10878,"Ġsentado":10879,"Ġsentada":10880,"Ġsentados":10881,"Ġlongamente":10882,"ĠalguÃ©m":10883,"Ġmove":10884,"Ġmover":10885,"Ġmoram":10886,"ĠmoÃ§os":10887,"Ġmorar":10888,"Ġmorando":10889,"Ġmobil":10890,"Ġmotiva":10891,"Ġmoham":10892,"Ġmolleza":10893,"Ġmoedas":10894,"Ġterem":10895,"Ġternos":10896,"Ġterna":10897,"ĠterÃ¡s":10898,"Ġterriveis":10899,"ixon":10900,"ĠallusÃ£o":10901,"Ġalluc":10902,"Ġmandem":10903,"Ġmandasse":10904,"tavamos":10905,"dually":10906,"Ġaren":10907,"Ġarco":10908,"Ġarder":10909,"Ġardia":10910,"Ġardor":10911,"Ġarru":10912,"Ġarlet":10913,"Ġartis":10914,"Ġaroma":10915,"Ġarche":10916,"Ġpase":10917,"Ġpassas":10918,"Ġlay":10919,"Ġlama":10920,"Ġlaid":10921,"Ġlately":10922,"Ġlagoa":10923,"ciaes":10924,"ciamos":10925,"ffer":10926,"Ġguess":10927,"Ġguest":10928,"Ġfuria":10929,"Ġfurios":10930,"Ġcouple":10931,"ĠolhÃ¡mos":10932,"Ġcommentar":10933,"Ġcommemora":10934,"Ġtrade":10935,"Ġtraria":10936,"Ġtragar":10937,"Ġtraid":10938,"Ġtratal":10939,"Ġtraves":10940,"Ġtrack":10941,"Ġtravesse":10942,"Ġtratamento":10943,"Ġbotar":10944,"ĠbotÃ£o":10945,"Ġboards":10946,"Ġboost":10947,"Ġboiade":10948,"plan":10949,"plina":10950,"plement":10951,"plique":10952,"trophe":10953,"Ġchico":10954,"Ġchiste":10955,"Ġchrist":10956,"Ġchips":10957,"Ġchild":10958,"Ġchosen":10959,"Ġtamanha":10960,"Ġtambi":10961,"bean":10962,"bello":10963,"Ġquery":10964,"Ġqueres":10965,"Ġquerem":10966,"geted":10967,"Ġescar":10968,"Ġescutar":10969,"Ġescuros":10970,"Ġwilling":10971,"Ġcasaes":10972,"Ġpreta":10973,"Ġprece":10974,"Ġpreench":10975,"Ġpreju":10976,"Ġpredom":10977,"Ġpreocupo":10978,"antasse":10979,"loat":10980,"igos":10981,"Ġmaru":10982,"Ġmaridos":10983,"Ġmarcol":10984,"Ġmarcel":10985,"Ġmarmore":10986,"uring":10987,"urring":10988,"urbios":10989,"Ġprimo":10990,"ramento":10991,"Ġwhatsoever":10992,"noti":10993,"ÃŃvia":10994,"Ġheard":10995,"Ġheft":10996,"dassem":10997,"brada":10998,"brairie":10999,"Ã§oando":11000,"Ġmule":11001,"Ġmulticultural":11002,"ustos":11003,"Ġraw":11004,"Ġraiz":11005,"Ġraras":11006,"Ġraja":11007,"Ġraros":11008,"Ġradic":11009,"Ġralha":11010,"Ġcreation":11011,"Ġcreole":11012,"Ġestoma":11013,"Ġnef":11014,"Ġneto":11015,"Ġnegando":11016,"Ġkin":11017,"Ġkat":11018,"Ġkore":11019,"Ġkush":11020,"open":11021,"Ġcarec":11022,"Ġcarros":11023,"Ġcards":11024,"Ġcarola":11025,"Ġcarinhos":11026,"ĠcartÃ£o":11027,"Ġcartorio":11028,"Ġcarmen":11029,"Ġcarib":11030,"Ġcarpin":11031,"bled":11032,"Ġcores":11033,"Ġcortar":11034,"Ġcorps":11035,"Ġcortina":11036,"Ġcorneta":11037,"ĠcoroaÃ§Ã£o":11038,"Ġnotou":11039,"ĠnotÃŃcia":11040,"Ġfazenda":11041,"tory":11042,"torios":11043,"Ġvaguei":11044,"Ġposth":11045,"Ġposting":11046,"ĠposiÃ§Ã£o":11047,"Ġpele":11048,"Ġcosa":11049,"Ġprati":11050,"ĠpraÃ§a":11051,"Ġpraga":11052,"Ġprazos":11053,"Ġpenn":11054,"Ġpenet":11055,"Ġpennsylvania":11056,"Ġpendulo":11057,"Ġcontempl":11058,"Ġcheiro":11059,"Ġchegasse":11060,"Ġcheiram":11061,"Ġcheaper":11062,"Ġfilms":11063,"Ġfilhinha":11064,"alled":11065,"allide":11066,"Ġgod":11067,"Ġmenti":11068,"Ġmeninos":11069,"Ġmendigo":11070,"Ġmoreover":11071,"eux":11072,"sian":11073,"Ġtale":11074,"Ġtemporary":11075,"Ġ22":11076,"Ġ24":11077,"Ġohh":11078,"Ġohhh":11079,"cles":11080,"Ġusc":11081,"Ġusual":11082,"ĠbaiÃ£o":11083,"Ġbatt":11084,"Ġbateu":11085,"Ġbailes":11086,"Ġwasp":11087,"Ġrecitou":11088,"Ġrecurso":11089,"Ġrecitei":11090,"Ġrecitando":11091,"Ġironia":11092,"posso":11093,"Ġduz":11094,"ĠduraÃ§Ã£o":11095,"Ġdurar":11096,"Ġduelo":11097,"Ġsola":11098,"Ġsolte":11099,"Ġsolda":11100,"Ġsolto":11101,"Ġsolely":11102,"Ġsolitude":11103,"ĠsoltÃ¡mos":11104,"Ġsolemne":11105,"ĠvisÃ£o":11106,"Ġvision":11107,"ĠvisÃµes":11108,"Ġvissem":11109,"Ġvelas":11110,"Ġaccus":11111,"Ġaccoun":11112,"Ġaccompan":11113,"Ġaccessed":11114,"Ġaccesas":11115,"preciso":11116,"Ġads":11117,"Ġador":11118,"Ġadds":11119,"Ġadded":11120,"Ġadventu":11121,"ĠadulaÃ§Ã£o":11122,"Ġadrift":11123,"Ġadvance":11124,"Ġvolto":11125,"ĠvoltÃ¡ra":11126,"cert":11127,"Ġmaldade":11128,"Ġ1992":11129,"boa":11130,"box":11131,"both":11132,"ially":11133,"Ġengana":11134,"Ġengland":11135,"Ġeles":11136,"Ġelite":11137,"Ġelimina":11138,"Ġestados":11139,"Ġestabel":11140,"Ġestablished":11141,"Ġestablish":11142,"massem":11143,"Ġtransa":11144,"Ġtranst":11145,"Ġpour":11146,"back":11147,"Ġtij":11148,"Ġtirando":11149,"Ġtiene":11150,"Ġtivemos":11151,"Ġtienes":11152,"Ġbecco":11153,"Â».":11154,"Ġtao":11155,"Ġtapir":11156,"Ġgrain":11157,"Ġgrate":11158,"Ġgrace":11159,"Ġgrades":11160,"Ġgraph":11161,"Ġgravissimo":11162,"Ġgradually":11163,"Ġpedil":11164,"ĠpedÃŃ":11165,"Ġpediam":11166,"Ġpedisse":11167,"Ġfeitor":11168,"Ġfeitic":11169,"venho":11170,"Ġconflic":11171,"Ġconfiou":11172,"Ġconfunda":11173,"Ġconsor":11174,"Ġconsti":11175,"Ġconsists":11176,"Ġconstern":11177,"Ġdeixaria":11178,"Ġdeixemos":11179,"Ġvoce":11180,"Ġroido":11181,"Ġrock":11182,"Ġroidos":11183,"Ġrotina":11184,"Ġrolar":11185,"Ġrolava":11186,"Ġrobusto":11187,"Ġroxas":11188,"Ġcern":11189,"Ġcerem":11190,"Ġcerca":11191,"Ġcertas":11192,"Ġgrangi":11193,"Ġchairman":11194,"Ġchamassem":11195,"idou":11196,"talvez":11197,"Ġcutello":11198,"Ġcuidou":11199,"contra":11200,"convergence":11201,"rosa":11202,"Ġanyway":11203,"Ġperguntando":11204,"Ġpeso":11205,"Ġpesada":11206,"Ġpesade":11207,"Ġpesquiz":11208,"Ġpresa":11209,"Ġpressas":11210,"ĠpressÃ£o":11211,"Ġpresentations":11212,"Ġacaba":11213,"Ġacabam":11214,"Ġacabassem":11215,"Ġacabaram":11216,"Ġpromised":11217,"Ġprominently":11218,"Ġtranspar":11219,"Ġtransition":11220,"Ġhomo":11221,"Ġhombros":11222,"Ġparecida":11223,"Ġparecidos":11224,"Ġjoe":11225,"Ġjogado":11226,"Ġjoelho":11227,"ĠtrÃ¡s":11228,"Ġtristan":11229,"Ġfossemos":11230,"ologies":11231,"ologias":11232,"ologists":11233,"actu":11234,"wned":11235,"Ġbooking":11236,"Ġbookings":11237,"Ġbooksell":11238,"Ġtended":11239,"Ġtenhas":11240,"ĠtentaÃ§Ã£o":11241,"Ġentregou":11242,"Ġaux":11243,"Ġauto":11244,"Ġauge":11245,"Ġaurora":11246,"Ġaugusto":11247,"inalmente":11248,"Ġclin":11249,"ĠclÃ£":11250,"Ġclus":11251,"Ġclasse":11252,"Ġclero":11253,"Ġclose":11254,"Ġgoso":11255,"Ġgostaria":11256,"Ġgostasse":11257,"Ġthinks":11258,"ĠcomeÃ§as":11259,"ĠcomeÃ§ado":11260,"created":11261,"oriamente":11262,"Ġespertar":11263,"Ġinstru":11264,"Ġcren":11265,"Ġcriti":11266,"Ġcrentes":11267,"Ġcrises":11268,"Ġexplore":11269,"Ġexpliquemos":11270,"Ġexplanation":11271,"Ġknot":11272,"Ġobter":11273,"Ġobras":11274,"Ġobrig":11275,"Ġprints":11276,"Ġprincipa":11277,"Ġprofit":11278,"Ġprofun":11279,"Ġexperimental":11280,"Ġficassem":11281,"profit":11282,"produced":11283,"profess":11284,"Ġouvida":11285,"Ġtimida":11286,"ĠlÃ¡cte":11287,"Ġjanta":11288,"Ġentran":11289,"Ġentramos":11290,"Ġentrasse":11291,"Ġcalc":11292,"Ġcalando":11293,"Ġcalasse":11294,"Ġcaladas":11295,"ĠcalÃ§ava":11296,"Ġcalculos":11297,"ĠcalÃ§ada":11298,"Ġcalcular":11299,"Ġamorosas":11300,"Ġpassam":11301,"Ġpassasse":11302,"Ġsandia":11303,"Ġsangrando":11304,"Ġsentida":11305,"Ġcreado":11306,"Ġcreates":11307,"Ġstain":11308,"Ġstake":11309,"Ġwhoa":11310,"Ġtranslations":11311,"cking":11312,"ckload":11313,"Ġnasce":11314,"Ġnasty":11315,"Ġnascem":11316,"Ġnascidos":11317,"Ġdefendendo":11318,"ysica":11319,"Ġtarget":11320,"Ġtartaruga":11321,"Ġtargeted":11322,"Ġvirou":11323,"Ġviriam":11324,"Ġbrush":11325,"Ġbricks":11326,"Ġsomente":11327,"Ġsomnos":11328,"Ġsommar":11329,"Ġsommando":11330,"Ġsombrios":11331,"promet":11332,"puter":11333,"puente":11334,"publish":11335,"Ġplutar":11336,"Ġplantei":11337,"Ġplethora":11338,"club":11339,"Ġcomputerized":11340,"ieties":11341,"Ġvalha":11342,"Ġvalei":11343,"Ġvalsa":11344,"Ġupda":11345,"Ġupgra":11346,"Ġupdate":11347,"Ġupdated":11348,"Ġdistantes":11349,"Ġaffli":11350,"Ġaffecto":11351,"Ġlivre":11352,"charac":11353,"physica":11354,"Ġrecebem":11355,"Ġreceioso":11356,"Ġreceiava":11357,"Ġcontrast":11358,"Ġcontrary":11359,"Ġcontraste":11360,"Ġcede":11361,"Ġceei":11362,"Ġopas":11363,"Ġoptimo":11364,"Ġmiss":11365,"ĠmisiÃ³n":11366,"Ġmiseric":11367,"Ġfranqueza":11368,"ituiu":11369,"Ġrijo":11370,"Ġrigor":11371,"Ġriddle":11372,"Ġeurocall":11373,"Ġprecisos":11374,"dings":11375,"Ġxi":11376,"Ġxv":11377,"Ġxvi":11378,"Ġxix":11379,"Ġxii":11380,"Ġxero":11381,"Ġxli":11382,"Ġxvii":11383,"Ġxiv":11384,"Ġxiii":11385,"Ġxliv":11386,"Ġsino":11387,"Ġluta":11388,"Ġluiz":11389,"Ġlutam":11390,"Ġpassados":11391,"Ġpassavamos":11392,"Ġpassagens":11393,"Ġcontinues":11394,"Ġcontinued":11395,"Ġcontinuam":11396,"Ġcontinuando":11397,"Ġcontinuasse":11398,"ĠcontinuÃ¡mos":11399,"Ġponderou":11400,"Ġsouza":11401,"Ġexperiences":11402,"dice":11403,"Ġphy":11404,"Ġpharma":11405,"ĠflÃ´res":11406,"Ġflesh":11407,"Ġflash":11408,"rect":11409,"Ġcampo":11410,"ĠcamÃµes":11411,"Ġcaminhos":11412,"Ġcamisas":11413,"Ġcaminhei":11414,"Ġafas":11415,"ĠafÃ£":11416,"Ġafroux":11417,"Ġafrance":11418,"Ġafaga":11419,"Ġafloat":11420,"Ġdomes":11421,"Ġdomingos":11422,"Ġlinguagem":11423,"Ġassis":11424,"Ġassem":11425,"Ġassust":11426,"Ġassento":11427,"Ġassign":11428,"Ġassistir":11429,"Ġbondades":11430,"Ġmette":11431,"Ġrefaz":11432,"Ġrepou":11433,"Ġrepel":11434,"Ġrepul":11435,"Ġrepito":11436,"Ġlevando":11437,"Ġlevemente":11438,"adable":11439,"computer":11440,"Ġcurso":11441,"Ġcurtido":11442,"Ġmineira":11443,"Ġmonte":11444,"Ġmontan":11445,"Ġmonolingual":11446,"Ġresponse":11447,"Ġresponsi":11448,"Ġrespondendo":11449,"Ġqualidade":11450,"Ġqualms":11451,"Ġpropunha":11452,"Ġproprietary":11453,"Ġportador":11454,"Ġsuspect":11455,"ential":11456,"Ġbradar":11457,"Ġbradou":11458,"Ġbradando":11459,"Ġdigna":11460,"Ġdignas":11461,"Ġdigni":11462,"sempre":11463,"Ġnumbers":11464,"Ġvender":11465,"Ġvendia":11466,"Ġvendendo":11467,"Ġvencel":11468,"ĠveneraÃ§Ã£o":11469,"Ġsuburbios":11470,"Ġsonhando":11471,"ĠsonhÃ¡ra":11472,"vice":11473,"Ġfrequen":11474,"Ġfreguez":11475,"Ġfrederic":11476,"itorio":11477,"Ġestimava":11478,"Ġestirado":11479,"Ġesticadas":11480,"Ġestimei":11481,"Ġestivessem":11482,"Ġpersonnel":11483,"Ġpossibility":11484,"Ġpossibly":11485,"atÃ©":11486,"marina":11487,"visual":11488,"Ġtorre":11489,"Ġtorno":11490,"Ġtoronto":11491,"Ġpoland":11492,"Ġpolidez":11493,"Ġplat":11494,"Ġplacer":11495,"Ġplays":11496,"ĠplatÃ£o":11497,"Ġplacida":11498,"ensÃ£o":11499,"Ġinser":11500,"Ġinsul":11501,"Ġinsistencia":11502,"ĠinspiraÃ§Ã£o":11503,"Ġgets":11504,"Ġrealised":11505,"Ġready":11506,"Ġreader":11507,"Ġconhecesse":11508,"Ġsuppos":11509,"Ġsuppuz":11510,"Ġsupplement":11511,"Ġimagen":11512,"Ġimaginar":11513,"Ġimaginei":11514,"Ġlembrado":11515,"Ġagent":11516,"Ġagencies":11517,"Ġgestes":11518,"Ġgestures":11519,"Ġsenhores":11520,"Ġbueno":11521,"Ġburied":11522,"Ġbuzz":11523,"Ġinfel":11524,"Ġinfecta":11525,"Ġmostre":11526,"Ġtomava":11527,"ĠtomÃ¡ra":11528,"Ġoutta":11529,"Ġoutput":11530,"Ġentendem":11531,"Ġpensamentos":11532,"Ġsorve":11533,"Ġsortes":11534,"Ġsorrir":11535,"Ġsocio":11536,"Ġsociedade":11537,"Ġsocieties":11538,"Ġdeveloper":11539,"Ġrelata":11540,"Ġrelative":11541,"Ġdiscursos":11542,"Ġuniversi":11543,"pedarias":11544,"Ġquiera":11545,"tonia":11546,"tongue":11547,"Ġoverall":11548,"Ġoverload":11549,"timento":11550,"timony":11551,"Ġseguro":11552,"Ġseguida":11553,"Ġseguintes":11554,"Ġgene":11555,"Ġjuran":11556,"Ġjugar":11557,"Ġjuventu":11558,"librairie":11559,"Ġeffect":11560,"Ġoral":11561,"Ġorador":11562,"Ġoratorio":11563,"Ġoratorios":11564,"Ġstrip":11565,"Ġstyl":11566,"Ġstream":11567,"Ġbomba":11568,"tivas":11569,"Ġespinho":11570,"Ġespantou":11571,"Ġespelh":11572,"Ġespelhos":11573,"Ġpequenas":11574,"Ġesquecia":11575,"Ġesquecendo":11576,"Ġesquecimentos":11577,"Ġesquecidas":11578,"Ġshall":11579,"Ġships":11580,"Ġescreve":11581,"Ġescrevo":11582,"Ġescrevia":11583,"Ġescrevesse":11584,"Ġpessoaes":11585,"Ġtrevas":11586,"Ġtreatment":11587,"Ġlibrairie":11588,"Ġneedle":11589,"egie":11590,"Ġsecco":11591,"Ġjunto":11592,"Ġjuntando":11593,"Ġbeings":11594,"graphy":11595,"graphia":11596,"Ġeverybody":11597,"Ġmile":11598,"Ġsegundos":11599,"Ġacham":11600,"Ġacharam":11601,"Ġachavam":11602,"Ġrise":11603,"Ġrisque":11604,"Ġrisks":11605,"Ġriscava":11606,"Ġriscando":11607,"Ġrisquei":11608,"Ġconsultei":11609,"Ġsale":11610,"Ġsaltou":11611,"ĠsalvaÃ§Ã£o":11612,"Ġstartu":11613,"Ġglow":11614,"Ġmaybe":11615,"Ġproduce":11616,"Ġproduction":11617,"Ġsurdos":11618,"Ġsurfer":11619,"Ġallivio":11620,"week":11621,"Ġdicen":11622,"Ġdiccion":11623,"Ġsentou":11624,"Ġsentindo":11625,"Ġbestas":11626,"Ġcostumava":11627,".Â»--Â«":11628,"Ġerrei":11629,"Ġshot":11630,"Ġshows":11631,"issimas":11632,"issimos":11633,"Ġbabies":11634,"Ġgrew":11635,"Ġgrego":11636,"Ġgreek":11637,"Ġfalavamos":11638,"Ġcxi":11639,"Ġcxv":11640,"Ġcxvi":11641,"Ġcxix":11642,"Ġcxii":11643,"Ġcxli":11644,"Ġcxvii":11645,"Ġcxviii":11646,"Ġcxiv":11647,"Ġcxiii":11648,"Ġcxliv":11649,"Ġchoos":11650,"Ġchove":11651,"Ġchovendo":11652,"Ġchorasse":11653,"Ġchoices":11654,"ĠmÃŃstico":11655,"Ġboche":11656,"Ġandam":11657,"Ġregiments":11658,"Ġreggae":11659,"Ġhouver":11660,"Ġhouvessem":11661,"Ġcounts":11662,"Ġcounting":11663,"igne":11664,"Ġmarked":11665,"Ġtornaria":11666,"Ġquail":11667,"Ġfounded":11668,"ontaine":11669,"Ġachal":11670,"Ġachando":11671,"ĠachÃ¡ra":11672,"Ġachilles":11673,"Ġacceital":11674,"Ġacceitando":11675,"Ġparty":11676,"Ġpartia":11677,"Ġpartly":11678,"Ġnecessity":11679,"ĠnecessÃ¡rio":11680,"piendo":11681,"their":11682,"Ġvellei":11683,"Ġbelo":11684,"Ġbelong":11685,"Ġimportancia":11686,"ciliaveis":11687,"Ġquinto":11688,"Ġquartel":11689,"Ġquaresma":11690,"Ġmaterna":11691,"Ġdirect":11692,"Ġhumano":11693,"Ġhumidos":11694,"Ġexaminei":11695,"Ġdesejar":11696,"Ġcorreio":11697,"Ġlimpas":11698,"Ġcontaria":11699,"Ġentera":11700,"Ġenterrado":11701,"Ġenterprise":11702,"mailing":11703,"Ġsaudos":11704,"Ġvocational":11705,"Ġpassaro":11706,"Ġtwenty":11707,"ĠtroÃ§a":11708,"Ġtropel":11709,"Ġtrocara":11710,"ĠtrovÃ£o":11711,"Ġdinossa":11712,"Ġcinta":11713,"Ġcinza":11714,"Ġstuck":11715,"Ġsturdy":11716,"Ġbank":11717,"Ġbanda":11718,"Ġestudo":11719,"Ġestudando":11720,"Ġestupido":11721,"Ġestupefac":11722,"ĠrelÃ¢":11723,"Ġreliable":11724,"Ġdisserem":11725,"Ġdifferentes":11726,"Ġfique":11727,"Ġfield":11728,"Ġfechal":11729,"Ġpapelinho":11730,"Ġdefinici":11731,"plays":11732,"Ġapertava":11733,"Ġapertei":11734,"Ġapertado":11735,"Ġapertada":11736,"Ġoccur":11737,"Ġmiranda":11738,"Ġdezeno":11739,"Ġdezoito":11740,"Ġlouvar":11741,"Ġformulei":11742,"Ġundermin":11743,"Ġrepetiria":11744,"world":11745,"inassem":11746,"Ġscenas":11747,"Ġscore":11748,"Ġscena":11749,"Ġscratch":11750,"endente":11751,"Ġfundas":11752,"Ġfunding":11753,"Ġfundidas":11754,"Ġbarra":11755,"Ġbarbara":11756,"Ġconclui":11757,"Ġacudia":11758,"Ġacudisse":11759,"Ġlooks":11760,"Ġheads":11761,"Ġsimplesmente":11762,"Ġconfessando":11763,"Ġconfessasse":11764,"Ġdormindo":11765,"Ġdormiu":11766,"Ġdormiam":11767,"Ġdormisse":11768,"Ġproblema":11769,"Ġadora":11770,"Ġadopt":11771,"Ġagreed":11772,"Ġcresce":11773,"Ġcrescia":11774,"Ġcrescidos":11775,"Ġcrescente":11776,"Ġcrescei":11777,"Ġmusico":11778,"Ġmusculos":11779,"Ġsilence":11780,"Ġsilvery":11781,"Ġdeviamos":11782,"Ġsett":11783,"Ġdownloaded":11784,"Ġvivera":11785,"Ġorganiz":11786,"Ġescriptos":11787,"Ġatrai":11788,"Ġatraves":11789,"Ġsciencia":11790,"Ġscientists":11791,"Ġfeij":11792,"Ġfeixe":11793,"Ġjamais":11794,"ĠdescanÃ§a":11795,"Ġdescrip":11796,"Ġattention":11797,"Ġattender":11798,"Ġattendia":11799,"Ġattendeu":11800,"Ġrompeu":11801,"Ġrompiendo":11802,"Ġfugi":11803,"Ġpediria":11804,"orarios":11805,"Ġagrado":11806,"Ġagradar":11807,"Ġpalmo":11808,"Ġpalmas":11809,"Ġpalpitar":11810,"ĠpalhoÃ§a":11811,"Ġindigna":11812,"Ġmediators":11813,"Ġconceito":11814,"Ġconceder":11815,"ĠconceiÃ§Ã£o":11816,"Ġconcepts":11817,"Ġconcebido":11818,"Ġhonesti":11819,"Ġhonorarios":11820,"Ġviuvo":11821,"Ġfavores":11822,"Ġexplicam":11823,"ĠficarÃ¡":11824,"Ġopinions":11825,"Ġagulha":11826,"ĠdÃ¡rte":11827,"Ġfinally":11828,"ĠlenÃ§ol":11829,"Ġlength":11830,"Ġvari":11831,"Ġvariar":11832,"ulated":11833,"Ġsumma":11834,"Ġsummary":11835,"Ġestreitas":11836,"Ġvoltada":11837,"Ġvoltaram":11838,"Ġplane":11839,"Ġplanet":11840,"Ġplanned":11841,"Ġfrancez":11842,"Ġclaras":11843,"Ġstrict":11844,"Ġdevils":11845,"Ġincred":11846,"Ġdescorado":11847,"Ġdescoberto":11848,"Ġbackpack":11849,"Ġfeels":11850,"Ġfeeling":11851,"Ġhappens":11852,"ivos":11853,"Ġdourado":11854,"Ġcolcha":11855,"Ġoperates":11856,"Ġsteps":11857,"Ġcontavam":11858,"Ġbehrens":11859,"Ġpasseios":11860,"Ġpasseadores":11861,"Ġnegociante":11862,"Ġpoliticos":11863,"century":11864,"Ġeastern":11865,"Ġeguaes":11866,"Ġcumpriu":11867,"Ġpintar":11868,"Ġpintou":11869,"Ġpinturas":11870,"Ġlabels":11871,"Ġvagos":11872,"Ġbreves":11873,"Ġbreach":11874,"Ġgift":11875,"Ġconversavam":11876,"Ġjusto":11877,"Ġrapada":11878,"Ġnetworking":11879,"Ġimagination":11880,"Ġsmaller":11881,"gelo":11882,"Ġ58":11883,"Ġ557":11884,"Ġ548":11885,"ĠsÃ©ria":11886,"ĠsÃ©stro":11887,"Ġnonpro":11888,"Ġdemorei":11889,"Ġdocument":11890,"Ġdocumentos":11891,"Ġsacramento":11892,"Ġescute":11893,"Ġescuta":11894,"Ġescutai":11895,"ĠescuridÃ£o":11896,"Ġmostravam":11897,"Ġmostrador":11898,"Ġmostrasse":11899,"Ġ60":11900,"Ġ65":11901,"Ġ650":11902,"Ġamado":11903,"enging":11904,"Ġlonesome":11905,"Ġbalance":11906,"ĠbalanÃ§ado":11907,"ĠbalanÃ§o":11908,"Ġintens":11909,"Ġintensos":11910,"Ġcomparal":11911,"Ġcomparavel":11912,"....?":11913,"....Â»":11914,"Ġbellaco":11915,"Ġ182":11916,"Ġlearned":11917,"Ġtelling":11918,"Ġguarde":11919,"Ġcommerciante":11920,"Ġpublisher":11921,"Ġbeijal":11922,"serÃ¡":11923,"www":11924,"Ġ400":11925,"Ġayy":11926,"Ġayude":11927,"Ġtitles":11928,"Ġeternos":11929,"Ġeternas":11930,"Ġfinos":11931,"Ġfinder":11932,"Ġfineza":11933,"Ġfinezas":11934,"Ġlxi":11935,"Ġlxv":11936,"Ġlxix":11937,"Ġlxiv":11938,"Ġanalogo":11939,"Ġoffereceu":11940,"Ġsegredou":11941,"Ġembargo":11942,"Ġexcel":11943,"Ġperdera":11944,"Ġperderam":11945,"Ġresolvido":11946,"Ġarregal":11947,"Ġescolas":11948,"Ġescolhia":11949,"Ġobrigou":11950,"Ġobrigava":11951,"Ġjantares":11952,"Ġergui":11953,"Ġerguer":11954,"Ġeconomia":11955,"Ġeconomias":11956,"Ġeconomics":11957,"irecer":11958,"Ġxxi":11959,"Ġxxv":11960,"Ġxxvi":11961,"Ġxxix":11962,"Ġxxii":11963,"Ġxxvii":11964,"Ġxxviii":11965,"Ġxxiv":11966,"Ġxxiii":11967,"Ġxxxi":11968,"Ġxxxv":11969,"Ġxxxvi":11970,"Ġxxxix":11971,"Ġxxxii":11972,"Ġxxxvii":11973,"Ġxxxviii":11974,"Ġxxxiv":11975,"Ġxxxiii":11976,"Ġtyp":11977,"Ġtyrannos":11978,"Ġcxxi":11979,"Ġcxxv":11980,"Ġcxxvi":11981,"Ġcxxix":11982,"Ġcxxii":11983,"Ġcxxvii":11984,"Ġcxxviii":11985,"Ġcxxiv":11986,"Ġcxxiii":11987,"Ġcxxxi":11988,"Ġcxxxv":11989,"Ġcxxxvi":11990,"Ġcxxxix":11991,"Ġcxxxii":11992,"Ġcxxxvii":11993,"Ġcxxxviii":11994,"Ġcxxxiv":11995,"Ġcxxxiii":11996,"Ġpentear":11997,"Ġlxxv":11998,"Ġlxxvi":11999,"Ġlxxix":12000,"Ġlxxii":12001,"Ġlxxvii":12002,"Ġlxxviii":12003,"Ġlxxiv":12004,"Ġlxxxi":12005,"Ġlxxxv":12006,"Ġlxxxvi":12007,"Ġlxxxix":12008,"Ġlxxxii":12009,"Ġlxxxvii":12010,"Ġlxxxviii":12011,"Ġlxxxiv":12012,"Ġlxxxiii":12013,"Ġescadas":12014,"Ġescapava":12015,"Ġencontre":12016,"Ġprograms":12017,"Ġdestinos":12018,"Ġpurse":12019,"Ġpurch":12020,"Ġteacher":12021,"Ġmanagers":12022,"Ġpractically":12023,"Ġbrincos":12024,"Ġagradeci":12025,"Ġagradecimentos":12026,"Ġagradecimento":12027,"cription":12028,"ttery":12029,"Ġmerits":12030,"Ġpied":12031,"Ġpique":12032,"Ġpiece":12033,"Ġnorms":12034,"Ġnormal":12035,"Ġlessons":12036,"Ġmetaphysica":12037,"Ġremoto":12038,"Ġremoval":12039,"Ġremotely":12040,"Ġconcertou":12041,"Ġmachu":12042,"ĠprotecÃ§Ã£o":12043,"Ġdesconf":12044,"Ġamizades":12045,"Ġabsor":12046,"Ġcontentou":12047,"Ġentenderam":12048,"Ġsilencios":12049,"Ġnetworked":12050,"Ġadiar":12051,"Ġadiemos":12052,"Ġearns":12053,"Ġelogia":12054,"Ġelogiar":12055,"Ġelogiou":12056,"Ġelogiado":12057,"ĠdevoÃ§Ã£o":12058,"Ġdevotas":12059,"Ġdevorar":12060,"Ġbrid":12061,"Ġbrian":12062,"ĠbolÃŃvia":12063,"delaria":12064,"Ġpagasse":12065,"Ġensinassem":12066,"Ġextensions":12067,"Ġexemplos":12068,"Ġturned":12069,"ĠturvaÃ§Ã£o":12070,"Ġabatida":12071,"ĠabaetÃ©":12072,"tricted":12073,"Ġvoltaria":12074,"Ġvoltarete":12075,"Ġpromette":12076,"Ġreplacing":12077,"Ġreligion":12078,"biando":12079,"bielefeld":12080,"exten":12081,"netherlands":12082,"Ġtirada":12083,"Ġtirava":12084,"Ġtiraram":12085,"Ġmomentos":12086,"Ġferro":12087,"Ġferry":12088,"Ġfernand":12089,"Ġfolia":12090,"Ġfolha":12091,"Ġlargar":12092,"Ġlargos":12093,"Ġbadges":12094,"Ġanimal":12095,"Ġanimadinha":12096,"Ġsecret":12097,"Ġespairecer":12098,"Ġillus":12099,"Ġillinois":12100,"Ġenvolvia":12101,"Ġenvolvendo":12102,"Ġalterar":12103,"Ġexchanging":12104,"ĠpareÃ§a":12105,"Ġpodeis":12106,"Ġlogares":12107,"Ġlevado":12108,"Ġlevaram":12109,"Ġordena":12110,"Ġordenar":12111,"Ġpedagogy":12112,"Ġapostolo":12113,"Ġmoderno":12114,"ĠmoderaÃ§Ã£o":12115,"Ġmoderator":12116,"Ġmoderated":12117,"Ġfurto":12118,"Ġtremula":12119,"Ġdescobriam":12120,"Ġmagazines":12121,"Ġaquela":12122,"Ġcircles":12123,"Ġbloc":12124,"Ġblink":12125,"Ġblasphe":12126,"Ġessence":12127,"ĠgrÃ£o":12128,"Ġgritar":12129,"Ġalcunha":12130,"Ġalcancei":12131,"Ġperiodo":12132,"Ġperiods":12133,"Ġsuperior":12134,"Ġfalara":12135,"Ġimposed":12136,"ĠimpossÃŃvel":12137,"Ġarranjar":12138,"Ġarranjou":12139,"Ġlawyers":12140,"Ġmystica":12141,"Ġsolidar":12142,"Ġxlv":12143,"Ġxlvi":12144,"Ġxlix":12145,"Ġxlii":12146,"Ġxlvii":12147,"Ġxlviii":12148,"Ġxliii":12149,"Ġconheciamos":12150,"Ġaborrecivel":12151,"Ġcatalogo":12152,"brray":12153,"Ġazues":12154,"Ġtelegraph":12155,"Ġtelephone":12156,"Ġderra":12157,"Ġderived":12158,"Ġchorava":12159,"Ġchoravam":12160,"Ġopens":12161,"Ġopening":12162,"Ġmicroso":12163,"Ġpancadas":12164,"Ġscreens":12165,"assar":12166,"Ġfariamos":12167,"Ġdecla":12168,"Ġdecorou":12169,"Ġbeside":12170,"Ġenxugava":12171,"Ġactually":12172,"Ġacompanhado":12173,"Ġacompanhava":12174,"Ġacompanhal":12175,"Ġfallen":12176,"Ġfallec":12177,"Ġimprove":12178,"Ġimproving":12179,"Ġimproved":12180,"Ġimprovement":12181,"Ġimproprias":12182,"Ġescondidas":12183,"Ġchegada":12184,"Ġchegavam":12185,"Ġduvidoso":12186,"Ġcuriosos":12187,"Ġcuriosidade":12188,"Ġpromptamente":12189,"Ġbrinqued":12190,"Ġecclesiastico":12191,"Ġecclesiasticos":12192,"faÃ§Ã£o":12193,"Ġtrivial":12194,"Ġtriumph":12195,"Ġevil":12196,"Ġevoc":12197,"Ġdenomina":12198,"Ġdimin":12199,"Ġdimension":12200,"Ġmole":12201,"Ġmoldura":12202,"Ġmolestia":12203,"Ġdemorado":12204,"Ġdemorada":12205,"Ġdemoradamente":12206,"Ġwoke":12207,"Ġinclinou":12208,"Ġinclinava":12209,"Ġpadecia":12210,"Ġpadecido":12211,"Ġpadecimentos":12212,"Ġremedios":12213,"Ġcavalheiro":12214,"Ġalike":12215,"Ġproximas":12216,"rantee":12217,"Ġpartida":12218,"Ġparticipa":12219,"Ġparticipan":12220,"Ġteimarem":12221,"Ġapparecer":12222,"Ġtambor":12223,"Ġpreferably":12224,"ĠrapagÃ£o":12225,"Ġcareer":12226,"Ġreconstru":12227,"Ġreconhecer":12228,"Ġaccresc":12229,"Ġconfirma":12230,"Ġconfirmava":12231,"Ġconfirmaria":12232,"Ġjuramentos":12233,"Ġeffectively":12234,"Ġcybermedia":12235,"Ġcxlv":12236,"Ġcxlvi":12237,"Ġcxlii":12238,"Ġcxlvii":12239,"Ġcxlviii":12240,"Ġcxliii":12241,"Ġphotocopy":12242,"Ġausente":12243,"ĠcÃ³gelo":12244,"ĠmÃ¡u":12245,"Ġstrategy":12246,"Ġdealt":12247,"Ġdealing":12248,"Ġdepending":12249,"Ġdependent":12250,"Ġinvoluntaria":12251,"Ġcomece":12252,"Ġcommodity":12253,"ĠmeditaÃ§Ã£o":12254,"Ġgastaria":12255,"Ġgole":12256,"Ġcatholic":12257,"Ġconcordar":12258,"Ġconnections":12259,"Ġconnectivity":12260,"Ġhands":12261,"Ġacostumar":12262,"Ġacostumando":12263,"caracas":12264,"Ġdisfarce":12265,"utarte":12266,"Ġrussian":12267,"Ġruns":12268,"Ġrestituiu":12269,"Ġcantaba":12270,"Ġchegaremos":12271,"Ġgostavas":12272,"Ġphysics":12273,"Ġphysicas":12274,"Ġphysically":12275,"Ġsuspeitas":12276,"Ġsuspeitar":12277,"Ġpolicies":12278,"Ġrelativamente":12279,"Ġrelatively":12280,"Ġrelationships":12281,"Ġregistra":12282,"Ġclaramente":12283,"Ġsuggestion":12284,"Ġobrigada":12285,"ĠobrigaÃ§Ãµes":12286,"Ġscreenplays":12287,"cultures":12288,"fujisa":12289,"faces":12290,"facciÃ³n":12291,"facilita":12292,"Ġtrouxesse":12293,"Ġtrouxeram":12294,"ĠeducaÃ§Ã£o":12295,"Ġcriou":12296,"Ġcriei":12297,"ĠcrianÃ§as":12298,"Ġomis":12299,"Ġobedecia":12300,"Ġobedecesse":12301,"Ġprize":12302,"Ġspam":12303,"Ġspite":12304,"Ġspurring":12305,"Ġstored":12306,"ĠquÃ©da":12307,"Ġbrowsing":12308,"Ġintimo":12309,"Ġintimas":12310,"Ġintimou":12311,"Ġtocarte":12312,"Ġtocarei":12313,"Ġestende":12314,"Ġestendendo":12315,"Ġpagaria":12316,"Ġhorse":12317,"Ġhorrivel":12318,"Ġhorizon":12319,"Ġalugadas":12320,"Ġempino":12321,"Ġempurrei":12322,"Ġempallide":12323,"Ġsatisfaz":12324,"ĠsatisfaÃ§Ã£o":12325,"ĠsatisfacciÃ³n":12326,"Ġdespite":12327,"Ġdisposta":12328,"Ġperfis":12329,"Ġperfil":12330,"Ġsucceder":12331,"ĠserviÃ§al":12332,"ĠabraÃ§al":12333,"Ġleading":12334,"Ġpuxou":12335,"Ġpuxal":12336,"Ġpuxando":12337,"Ġpreparing":12338,"Ġpensado":12339,"ĠroÃ§avam":12340,"Ġcliff":12341,"Ġmonthly":12342,"Ġgenerate":12343,"Ġgenerated":12344,"Ġgenerations":12345,"Ġmaintains":12346,"Ġmereces":12347,"Ġmerecem":12348,"Ġcustomer":12349,"Ġdevagarinho":12350,"?Â»--Â«":12351,"cribe":12352,"double":12353,"Ġ70":12354,"Ġatirou":12355,"Ġatirava":12356,"Ġethics":12357,"Ġpallido":12358,"Ġspoke":12359,"Ġspear":12360,"Ġspeed":12361,"Ġspeeds":12362,"Ġbitter":12363,"Ġwants":12364,"Ġgrossas":12365,"ĠrelevaÃ§Ã£o":12366,"Ġiluminar":12367,"Ġharm":12368,"Ġempregou":12369,"Ġempregue":12370,"Ġdesesperadamente":12371,"Ġviewing":12372,"Ġcompeting":12373,"ĠcomprehensÃ£o":12374,"Ġabrira":12375,"Ġabrigo":12376,"Ġlepido":12377,"Ġlepida":12378,"Ġappeal":12379,"peutica":12380,"ĠsÃ³sinhos":12381,"Ġescravas":12382,"ĠescravidÃ£o":12383,"Ġrecuou":12384,"Ġconfusos":12385,"Ġpresenting":12386,"Ġcruz":12387,"Ġdistincta":12388,"Ġaffirmava":12389,"ĠaffirmaÃ§Ã£o":12390,"Ġaffirmou":12391,"Ġmetteram":12392,"Ġdiscuss":12393,"Ġbarriga":12394,"Ġjustify":12395,"Ġencontraram":12396,"Ġspeaker":12397,"Ġcharacteristics":12398,"Ġidentify":12399,"Ġrecognizing":12400,"donde":12401,"distance":12402,"Ġagarrou":12403,"Ġagarrar":12404,"Ġagarrava":12405,"Ġajudava":12406,"Ġajudal":12407,"Ġedf":12408,"Ġedge":12409,"Ġcedendo":12410,"Ġminucias":12411,"Ġscope":12412,"Ġspecified":12413,"Ġquadra":12414,"Ġquadros":12415,"Ġlinear":12416,"Ġbills":12417,"Ġbillion":12418,"Ġinquieta":12419,"Ġinvencivel":12420,"Ġcombination":12421,"ĠcomborÃ§o":12422,"Ġrezas":12423,"Ġreguero":12424,"Ġrequires":12425,"Ġrepresenta":12426,"Ġencam":12427,"Ġalegra":12428,"Ġexecutar":12429,"ĠexecuÃ§Ã£o":12430,"Ġexpansion":12431,"Ġexpansivo":12432,"Ġbellezas":12433,"capital":12434,"Ġdesappr":12435,"ĠdistraÃŃ":12436,"ĠdistracÃ§Ãµes":12437,"Ġatrevia":12438,"Ġatalhei":12439,"Ġroubar":12440,"Ġroubo":12441,"Ġresults":12442,"Ġimportar":12443,"ĠcorrecÃ§Ã£o":12444,"Ġcorrections":12445,"Ġpossue":12446,"Ġrecolher":12447,"Ġrecolheu":12448,"Ġjohnson":12449,"Ġafflicto":12450,"Ġaffligia":12451,"Ġaffligiu":12452,"Ġxcv":12453,"Ġxcvi":12454,"Ġxcvii":12455,"Ġxcviii":12456,"Ġxcii":12457,"Ġxciv":12458,"Ġxcix":12459,"Ġxciii":12460,"Ġinscriptions":12461,"Ġconseguir":12462,"Ġcommercialised":12463,"Ġexclamava":12464,"Ġexclamei":12465,"Ġarrependi":12466,"Ġarrependeu":12467,"Ġapprenderia":12468,"Ġexclusive":12469,"Ġfocuses":12470,"Ġequivalent":12471,"ĠdanÃ§ar":12472,"Ġoblitera":12473,"Ġmillions":12474,"Ġshape":12475,"Ġfridge":12476,"issaire":12477,"Ġdemorando":12478,"Ġventures":12479,"Ġseemed":12480,"Ġreparou":12481,"Ġrejeitar":12482,"Ġrejeitei":12483,"Ġreturns":12484,"Ġnotaram":12485,"Ġconclusion":12486,"Ġmailbox":12487,"Ġdivide":12488,"Ġnamorado":12489,"Ġhosted":12490,"Ġhospedarias":12491,"Ġalheia":12492,"Ġitalia":12493,"Ġitalian":12494,"Ġexpensive":12495,"Ġinteressar":12496,"Ġinteressantes":12497,"Ġcollar":12498,"Ġcomplemento":12499,"Ġcomprimarios":12500,"Ġaprendeu":12501,"Ġaprendi":12502,"Ġlapis":12503,"Ġguidelines":12504,"Ġchins":12505,"Ġpremios":12506,"Ġpremissa":12507,"Ġcreanca":12508,"Ġcreancas":12509,"Ġrecusar":12510,"Ġrecusaria":12511,"ĠvolverÃ©":12512,"ĠaffectaÃ§Ã£o":12513,"Ġrecebera":12514,"Ġassistia":12515,"Ġnumeros":12516,"Ġnumerous":12517,"Ġnumerosa":12518,"Ġnumerosas":12519,"Ġconheceram":12520,"Ġsupponho":12521,"Ġfamiliaridade":12522,"Ġvexada":12523,"Ġvexado":12524,"Ġconstruir":12525,"Ġvagaroso":12526,"Ġadmitia":12527,"Ġadmitte":12528,"Ġdissimulou":12529,"Ġdissimulado":12530,"ottawa":12531,"Ġequal":12532,"Ġequili":12533,"Ġpunhado":12534,"Ġsharing":12535,"Ġshared":12536,"Ġdedicatoria":12537,"Ġwishes":12538,"Ġinvited":12539,"Ġinvented":12540,"Ġmexia":12541,"Ġmexico":12542,"Ġtopic":12543,"Ġgemini":12544,"Ġganhava":12545,"Ġrebola":12546,"Ġretorquia":12547,"Ġnovelle":12548,"ĠcaÃŃdo":12549,"Ġconversar":12550,"Ġjazia":12551,"ressed":12552,"ĠembaraÃ§ar":12553,"Ġhabitos":12554,"Ġexerc":12555,"Ġexistem":12556,"Ġexisting":12557,"ĠviolÃ£o":12558,"Ġcoragem":12559,"Ġcochilar":12560,"Ġcochilando":12561,"Ġrestrict":12562,"Ġcompridas":12563,"Ġchupado":12564,"Ġcarrying":12565,"Ġcontributed":12566,"Ġcontributions":12567,"Ġmentioned":12568,"Ġvoltavam":12569,"Ġvoltavamos":12570,"Ġconsumer":12571,"Ġtruckload":12572,"Ġbookstores":12573,"ĠcrimÃ©a":12574,"Ġrecebedor":12575,"Ġcaminhar":12576,"Ġcaminhou":12577,"Ġcaminhando":12578,"Ġsuspensor":12579,"Ġsuspendamos":12580,"ĠbrazÃ£o":12581,"Ġintegral":12582,"Ġculpada":12583,"Ġdownloading":12584,"Ġespectador":12585,"Ġbuildings":12586,"Ġdramatica":12587,"Ġdramatur":12588,"Ġdramatically":12589,"Ġautomatically":12590,"Ġpermitted":12591,"Ġdesfazendo":12592,"Ġbrasileiro":12593,"pole":12594,"Ġataque":12595,"ĠataÃºde":12596,"Ġafric":12597,"Ġcenters":12598,"Ġpcs":12599,"Ġpleasure":12600,"Ġscismar":12601,"Ġspreading":12602,"quate":12603,"Ġquote":12604,"Ġdetermine":12605,"Ġvanilla":12606,"Ġvicios":12607,"Ġvictoria":12608,"Ġvadio":12609,"ĠvadiaÃ§Ã£o":12610,"Ġvadrot":12611,"Ġborne":12612,"Ġwinner":12613,"Ġincidentes":12614,"techn":12615,"techie":12616,"Ġannunciou":12617,"Ġdobrado":12618,"Ġdobrava":12619,"Ġcabisba":12620,"Ġcautela":12621,"Ġdamage":12622,"Ġmagia":12623,"Ġjules":12624,"Ġjulga":12625,"Ġjuris":12626,"Ġjurou":12627,"ĠjurÃ¡mos":12628,"Ġnamorava":12629,"Ġthoughts":12630,"Ġemendei":12631,"Ġproferir":12632,"Ġfortalecer":12633,"ĠdestrÃ³i":12634,"Ġinteracting":12635,"Ġamarello":12636,"Ġrenew":12637,"Ġrendas":12638,"Ġrespeitos":12639,"Ġsocegada":12640,"Ġapontou":12641,"Ġapanhou":12642,"Ġapalpava":12643,"Ġapplied":12644,"Ġapparentemente":12645,"ÃŃssima":12646,"Ġbatiam":12647,"Ġbatinas":12648,"Ġbattle":12649,"jajajaja":12650,"Ġgravura":12651,"Ġgravemente":12652,"Ġgravuras":12653,"ĠgraduaÃ§Ã£o":12654,"Ġobjec":12655,"Ġreceipt":12656,"Ġreceiving":12657,"Ġrecebidas":12658,"Ġsinceramente":12659,"Ġflux":12660,"Ġassusta":12661,"Ġassustado":12662,"Ġassustada":12663,"Ġlevantava":12664,"Ġsubstancia":12665,"Ġinsistia":12666,"Ġsupported":12667,"Ġsupplices":12668,"Ġsupplicas":12669,"Ġproviders":12670,"Ġmembership":12671,"Ġconsultants":12672,"Ġvestidos":12673,"Ġprocural":12674,"Ġcumpridas":12675,"Ġbroaden":12676,"ĠsuggestÃ£o":12677,"Ġreflectiu":12678,"Ġmetaphoras":12679,"ĠalcanÃ§o":12680,"ĠalcanÃ§ou":12681,"Ġwooden":12682,"Ġreproduziam":12683,"ĠinterrogaÃ§Ã£o":12684,"Ġinterrogativamente":12685,"Ġappears":12686,"Ðµn":12687,"Ġ90":12688,"ĠavÃ´":12689,"Ġepistola":12690,"Ġdrop":12691,"Ġolvido":12692,"Ġolvidar":12693,"Ġmiudo":12694,"Ġmiudos":12695,"Ġmiudas":12696,"Ġsixty":12697,"ĠsinhÃ´":12698,"Ġflying":12699,"Ġfantasia":12700,"Ġdecision":12701,"Ġdecisiva":12702,"Ġdelivering":12703,"Ġdelivered":12704,"Ġllene":12705,"Ġllores":12706,"Ġinventou":12707,"Ġinexpen":12708,"Ġinexplica":12709,"Ġregards":12710,"Ġrevolta":12711,"Ġrevolution":12712,"Ġthomas":12713,"Ġthomaz":12714,"Ġthompson":12715,"Ġempresario":12716,"Ġemendando":12717,"Ġemendados":12718,"transla":12719,"transmit":12720,"Ġexpression":12721,"Ġextranhos":12722,"Ġextremos":12723,"Ġdesviou":12724,"Ġdesviei":12725,"Ġdiscreto":12726,"Ġcastello":12727,"cional":12728,"Ġparentage":12729,"ĠpodridÃ£o":12730,"Ġ1200":12731,"Ġapanhado":12732,"Ġapanhados":12733,"Ġallopatha":12734,"Ġpreviously":12735,"Ġcortejar":12736,"Ġrecreio":12737,"Ġirremedi":12738,"Ġirreversi":12739,"Ġirrelevant":12740,"Ġaccentuando":12741,"Ġmaluca":12742,"Ġgravador":12743,"Ġconsolava":12744,"Ġopposto":12745,"Ġopposed":12746,"Ġcampainha":12747,"ĠsuppÃµe":12748,"Ġaggravou":12749,"Ġrisonha":12750,"Ġgreatest":12751,"Ġstudying":12752,"Ġbiblia":12753,"Ġbiblio":12754,"Ġdefinitivamente":12755,"ĠdescanÃ§o":12756,"ĠdescanÃ§ar":12757,"Ġwarranty":12758,"Ġ1857":12759,"Ġ1858":12760,"Ġ1859":12761,"Ġattribuo":12762,"Ġattribuir":12763,"Ġmysteriosa":12764,"Ġstrategies":12765,"Ġexcellentissima":12766,"Ġcocheira":12767,"Ġadivinhado":12768,"Ġadivinhavam":12769,"Ġobscuro":12770,"Ġobscuridade":12771,"Ġinvestiga":12772,"Ġbrazilian":12773,"local":12774,"nancy":12775,"seneca":12776,"writing":12777,"written":12778,"Ġajuste":12779,"Ġtask":12780,"Ġtaste":12781,"Ġpulso":12782,"Ġpilher":12783,"Ġsiso":12784,"Ġsister":12785,"Ġsamurai":12786,"Ġsnake":12787,"ĠnÃ©on":12788,"Ġfaster":12789,"ĠfÃ²ra":12790,"Ġdegrau":12791,"Ġdegraus":12792,"Ġqueimando":12793,"Ġlindas":12794,"Ġlectures":12795,"Ġvencedor":12796,"Ġblooms":12797,"Ġwired":12798,"Ġwireless":12799,"Ġulysses":12800,"Ġgeopol":12801,"Ġpatamar":12802,"Ġpataillot":12803,"Ġreparava":12804,"Ġreached":12805,"Ġredistributing":12806,"Ġcontesto":12807,"Ġconciliar":12808,"Ġencardido":12809,"ĠdiversÃ£o":12810,"ĠdiversÃµes":12811,"Ġispn":12812,"Ġacanhada":12813,"Ġacanhamento":12814,"Ġproportion":12815,"copyright":12816,"Ġversic":12817,"Ġmueva":12818,"Ġmueve":12819,"Ġrenova":12820,"Ġrespirava":12821,"ĠrespiraÃ§Ã£o":12822,"Ġlogica":12823,"Ġlogical":12824,"Ġcompostura":12825,"ĠcomposiÃ§Ã£o":12826,"Ġlexicons":12827,"Ġsobrancel":12828,"Ġimprimir":12829,"Ġmovie":12830,"ĠallegaÃ§Ãµes":12831,"Ġargentinian":12832,"Ġnegativa":12833,"Ġcorrigiu":12834,"Ġsolicit":12835,"Ġtranquill":12836,"Ġaudiovisual":12837,"ĠcomeÃ§amos":12838,"Ġsomewhere":12839,"Ġrivalidade":12840,"Ġafforded":12841,"Ġaffordable":12842,"Ġnetscape":12843,"commenda":12844,"communications":12845,"Ġministro":12846,"Ġmonotonia":12847,"Ġsuspiro":12848,"Ġconhecidas":12849,"ĠfÃ³rmas":12850,"Ġlibrarian":12851,"webmaster":12852,"Ġtrocariam":12853,"Ġbanalidade":12854,"Ġadoeciam":12855,"Ġromances":12856,"Ġestremec":12857,"Ġbreakthrough":12858,"Ġadequada":12859,"Ġadequadas":12860,"Ġhomeopathia":12861,"Ġhomeopatha":12862,"Ġdesconfiar":12863,"ĠdesconfianÃ§a":12864,"Ġfolhear":12865,"Ġfolheto":12866,"Ġinterrompesse":12867,"Ġreconciliar":12868,"Ġcomprehende":12869,"Ġconservatorio":12870,"Ġadvertising":12871,"Ġadvertisement":12872,"Ġrepugnancia":12873,"Ġdeliciosamente":12874,"Ġaproveitou":12875,"Ġaproveitei":12876,"Ġsublimes":12877,"Ġphilosoph":12878,"academ":12879,"burgh":12880,"mitted":12881,"mulher":12882,"pping":12883,"tholog":12884,"warded":12885,"Ġapoio":12886,"ĠaÃ§oitar":12887,"Ġtestimony":12888,"Ġtablet":12889,"Ġdriven":12890,"Ġdrives":12891,"Ġcrazy":12892,"Ġcivil":12893,"Ġpetropol":12894,"Ġsinais":12895,"Ġnuca":12896,"Ġquantia":12897,"Ġflat":12898,"Ġfixar":12899,"ĠfÃ´ra":12900,"Ġdetails":12901,"Ġvingasse":12902,"ĠvinganÃ§a":12903,"Ġbounded":12904,"Ġblowing":12905,"dobbs":12906,"Ġintrigas":12907,"Ġinimigo":12908,"Ġinimigos":12909,"Ġintuito":12910,"ĠanimaÃ§Ã£o":12911,"Ġangels":12912,"Ġangeles":12913,"Ġanonymity":12914,"ĠestrÃ©":12915,"Ġganhar":12916,"Ġgrupo":12917,"Ġassiduas":12918,"Ġretirou":12919,"Ġreverend":12920,"Ġrevenue":12921,"Ġconnecting":12922,"Ġmaxima":12923,"Ġmaximum":12924,"Ġmamacitas":12925,"Ġensaios":12926,"Ġenrichment":12927,"Ġdialects":12928,"researcher":12929,"Ġhunch":12930,"Ġhungar":12931,"Ġthrust":12932,"Ġthrush":12933,"Ġacode":12934,"Ġacodem":12935,"Ġprocurei":12936,"Ġportobello":12937,"Ġsagrado":12938,"Ġbeatles":12939,"ĠdesgraÃ§a":12940,"ĠdesgraÃ§ado":12941,"Ġdescrevem":12942,"Ġdescuido":12943,"Ġpernadas":12944,"Ġamantissimo":12945,"Ġamantissima":12946,"Ġcogitei":12947,"ĠrÃ©veill":12948,"Ġparochia":12949,"Ġcompetir":12950,"Ġcompilation":12951,"Ġcompensar":12952,"abaixo":12953,"ĠcanÃ§adas":12954,"Ġunclear":12955,"Ġarrenego":12956,"Ġarrenegar":12957,"Ġboyzinho":12958,"Ġchallenge":12959,"Ġchallenging":12960,"Ġkingdom":12961,"Ġpositions":12962,"Ġbaptisado":12963,"Ġirritada":12964,"Ġidealistic":12965,"Ġpoupada":12966,"Ġconfessava":12967,"Ġrodaque":12968,"continue":12969,"Ġtranscrever":12970,"Ġaugmentar":12971,"Ġclosely":12972,"Ġstationery":12973,"Ġvalued":12974,"Ġvaluable":12975,"ĠaffeiÃ§Ãµes":12976,"ĠaffeiÃ§oando":12977,"Ġmistake":12978,"Ġmistakes":12979,"Ġfrancois":12980,"Ġdominance":12981,"Ġtornaram":12982,"Ġgathering":12983,"Ġpartnerships":12984,"Ġdesejasse":12985,"Ġfechadas":12986,"Ġscanned":12987,"Ġfundament":12988,"Ġfundamental":12989,"Ġadopting":12990,"Ġatravessar":12991,"Ġdescoberta":12992,"Ġdescobertas":12993,"Ġruidosa":12994,"Ġcolorido":12995,"Ġdemanding":12996,"Ġguardada":12997,"Ġdifficilmente":12998,"Ġanalyse":12999,"Ġanalyst":13000,"Ġdesconhecida":13001,"Ġdesconfiado":13002,"Ġalternando":13003,"Ġalternate":13004,"Ġderreou":13005,"Ġderretirte":13006,"Ġcatholica":13007,"Ġcatholico":13008,"Ġacostumados":13009,"ĠreproducÃ§Ã£o":13010,"Ġregulations":13011,"Ġcomplicava":13012,"Ġphenomenon":13013,"Ġphenomenal":13014,"Ġdetermined":13015,"Ġannunciado":13016,"Ġdestruir":13017,"ĠassombraÃ§Ã£o":13018,"Ġcitizen":13019,"Ġcitizens":13020,"Ġrestabelec":13021,"Ġintroduction":13022,"Ġemployees":13023,"Ġembrulho":13024,"Ġlacuna":13025,"Ġlacunas":13026,"Ġsussurrava":13027,"Ġevangelho":13028,"Ġingenuidade":13029,"Ġenthusiasmo":13030,"Ġenthusiasmado":13031,"boston":13032,"donate":13033,"free":13034,"honhÃ´":13035,"missas":13036,"official":13037,"wood":13038,"Ġarabic":13039,"Ġapaixon":13040,"ĠtÃªm":13041,"Ġtardou":13042,"Ġtribun":13043,"Ġegypto":13044,"Ġdulcis":13045,"Ġdynam":13046,"Ġoxford":13047,"Ġmumps":13048,"Ġmountains":13049,"Ġpitangu":13050,"Ġpirueta":13051,"Ġpranto":13052,"Ġpirates":13053,"Ġpousou":13054,"ĠpÃ´z":13055,"Ġslope":13056,"Ġsestercio":13057,"queces":13058,"Ġnupcial":13059,"Ġquieta":13060,"Ġfadiga":13061,"Ġflexible":13062,"Ġvinculo":13063,"Ġbirthplace":13064,"Ġbandwid":13065,"Ġbigode":13066,"Ġwider":13067,"Ġwidest":13068,"Ġinconciliaveis":13069,"Ġinesperada":13070,"Ġincorpora":13071,"Ġinconscientemente":13072,"Ġutilidade":13073,"Ġantoine":13074,"Ġanglophone":13075,"Ġcomfortable":13076,"Ġgerado":13077,"Ġpaizagens":13078,"Ġpackage":13079,"Ġpaternidade":13080,"Ġaspereza":13081,"Ġassassina":13082,"terminologies":13083,"Ġredea":13084,"Ġreduces":13085,"ĠreclusÃ£o":13086,"Ġrelied":13087,"ĠdoÃ§ura":13088,"Ġconveying":13089,"Ġconforme":13090,"Ġconducted":13091,"Ġmaduro":13092,"Ġmagnifico":13093,"Ġjersey":13094,"Ġenabled":13095,"ĠentrÃ¡mos":13096,"Ġenfeite":13097,"Ġenjoy":13098,"Ġdialogo":13099,"Ġthird":13100,"Ġaltitude":13101,"Ġalcohol":13102,"Ġempenho":13103,"Ġbebendo":13104,"Ġdeslumbra":13105,"Ġdeserto":13106,"Ġdesleal":13107,"ĠinterrupÃ§Ã£o":13108,"Ġinterlocutor":13109,"Ġdisfrutarte":13110,"Ġperformed":13111,"Ġvillage":13112,"Ġvigaira":13113,"personal":13114,"Ġprometeu":13115,"Ġseriously":13116,"Ġamuado":13117,"Ġattached":13118,"Ġcoordinator":13119,"Ġcastigada":13120,"ĠresurreiÃ§Ã£o":13121,"ciousness":13122,"Ġinternuncio":13123,"Ġimpression":13124,"Ġapolice":13125,"Ġunrestricted":13126,"Ġmoravam":13127,"Ġargumentos":13128,"Ġarrastado":13129,"Ġarvores":13130,"Ġguarantee":13131,"Ġcommandante":13132,"Ġtravelled":13133,"Ġtrabaja":13134,"Ġtraficante":13135,"Ġchancellor":13136,"Ġescassa":13137,"Ġprecipitava":13138,"ĠpreguiÃ§a":13139,"Ġbuttons":13140,"Ġrabeca":13141,"Ġkenyon":13142,"Ġknife":13143,"Ġvazio":13144,"Ġpossess":13145,"ĠcontemplaÃ§Ã£o":13146,"Ġmeninice":13147,"Ġmultiplicity":13148,"Ġvelhice":13149,"Ġaccordance":13150,"Ġaccordado":13151,"Ġcabelleireiro":13152,"Ġinstantane":13153,"Ġexplosion":13154,"Ġexploration":13155,"Ġprinceza":13156,"Ġsangrei":13157,"Ġridiculas":13158,"Ġluciano":13159,"Ġcamarote":13160,"Ġdominate":13161,"Ġsuspirava":13162,"marketing":13163,"Ġdiscriminaba":13164,"Ġgaiola":13165,"Ġgenuine":13166,"Ġmilhares":13167,"Ġrelembrar":13168,"Ġkeyboard":13169,"Ġatrapal":13170,"Ġfugitivos":13171,"Ġconsequencias":13172,"Ġsteadily":13173,"Ġlaboratories":13174,"Ġshelves":13175,"Ġdemolissem":13176,"Ġaconselhou":13177,"Ġ1860":13178,"Ġaborrecimento":13179,"Ġofferecia":13180,"Ġmocetona":13181,"Ġdefunctos":13182,"Ġapprende":13183,"Ġpedacinho":13184,"Ġtremendous":13185,"ĠalcanÃ§avam":13186,"Ġarranjavamos":13187,"Ġtelefone":13188,"Ġdesfecho":13189,"Ġdiminuir":13190,"Ġmurmurando":13191,"Ġaustralia":13192,"Ġcorrespondence":13193,"Ġrecommended":13194,"Ġfragile":13195,"Ġencobrindo":13196,"Ġstopped":13197,"Ġregularly":13198,"Ġexecutada":13199,"Ġdistrahido":13200,"Ġlegitimate":13201,"Ġvanishing":13202,"Ġalphabeto":13203,"Ġincentive":13204,"Ġmaluquice":13205,"Ġredistribution":13206,"Ġredarguiu":13207,"Ġcolumnist":13208,"Ġajoelhavam":13209,"Ġevaluation":13210,"Ġespontaneamente":13211,"Ġreprehendeu":13212,"Ġinterconnected":13213,"automa":13214,"aventurados":13215,"colorado":13216,"dandy":13217,"furtive":13218,"historia":13219,"homem":13220,"london":13221,"nouveau":13222,"sheesh":13223,"Ġaventurou":13224,"Ġaturdido":13225,"Ġawareness":13226,"ĠtÃ¨m":13227,"Ġerected":13228,"Ġdutch":13229,"Ġdicaprio":13230,"Ġdjavan":13231,"index":13232,"ĠmÃºsica":13233,"Ġmckenna":13234,"Ġpandora":13235,"Ġsplit":13236,"Ġstroke":13237,"Ġspike":13238,"Ġshadows":13239,"Ġslingshot":13240,"Ġniche":13241,"Ġfieis":13242,"Ġdeduc":13243,"Ġdeputado":13244,"Ġvindouras":13245,"Ġbengala":13246,"Ġwidespread":13247,"hawaii":13248,"Ġincutir":13249,"Ġiniciou":13250,"Ġubiquitous":13251,"teachers":13252,"Ġanciava":13253,"Ġancestors":13254,"important":13255,"Ġmelodias":13256,"Ġsexual":13257,"Ġesburacando":13258,"Ġgrieux":13259,"Ġgleaned":13260,"ĠgastÃ¡mos":13261,"ĠgÃ³sto":13262,"Ġgrimes":13263,"Ġpairs":13264,"Ġasmodee":13265,"Ġrepositor":13266,"Ġretalhos":13267,"Ġretiring":13268,"Ġredobrou":13269,"Ġignoro":13270,"Ġiracema":13271,"electricite":13272,"Ġcatastrophe":13273,"Ġcontiguos":13274,"Ġmatrimonio":13275,"Ġenduring":13276,"Ġenloqueces":13277,"Ġenvenenadas":13278,"Ġenxoval":13279,"Ġdidier":13280,"Ġisolated":13281,"matics":13282,"Ġtherapeutica":13283,"Ġtheresa":13284,"Ġaljube":13285,"Ġalbuquer":13286,"Ġemphas":13287,"Ġemphatico":13288,"Ġonelook":13289,"sociological":13290,"Ġextincto":13291,"Ġbeautiful":13292,"ĠdesuniÃ£o":13293,"Ġdestemido":13294,"Ġdesengano":13295,"Ġintervallo":13296,"Ġintermediaries":13297,"Ġdisciplina":13298,"Ġdisseste":13299,"Ġdisappe":13300,"Ġperfeitissimo":13301,"Ġsupremacy":13302,"Ġattali":13303,"Ġverificar":13304,"Ġcasuarina":13305,"Ġrhyme":13306,"Ġresentimentos":13307,"ĠtubarÃ£o":13308,"Ġfavela":13309,"Ġhollywood":13310,"Ġsobresalto":13311,"Ġsoprano":13312,"ĠorphÃ£o":13313,"Ġorchestra":13314,"Ġorthographia":13315,"Ġimmensa":13316,"Ġapprecia":13317,"Ġundesirable":13318,"Ġuntouchable":13319,"Ġunlimited":13320,"ĠmotivaciÃ³n":13321,"Ġmohammed":13322,"Ġallucina":13323,"Ġarlette":13324,"Ġartista":13325,"Ġfuriosas":13326,"Ġtraidor":13327,"Ġtravesseiro":13328,"Ġboiadeiro":13329,"Ġchicote":13330,"ĠtambiÃ©n":13331,"Ġmarcolini":13332,"Ġrajada":13333,"Ġralhava":13334,"Ġestomago":13335,"Ġkatz":13336,"Ġkushal":13337,"Ġcaribbean":13338,"Ġcarpinteiro":13339,"Ġbattles":13340,"Ġaccompanying":13341,"Ġadventures":13342,"Ġgraphics":13343,"Ġgrangier":13344,"Ġpesadelo":13345,"Ġtransparency":13346,"Ġcritique":13347,"Ġprincipaes":13348,"ĠlÃ¡ctea":13349,"Ġplutarcho":13350,"characters":13351,"Ġmisericordia":13352,"Ġxerox":13353,"Ġpharmacia":13354,"Ġafrouxar":13355,"Ġafrancezado":13356,"Ġrefazel":13357,"Ġmontanhas":13358,"Ġbuzzard":13359,"Ġdevelopers":13360,"Ġuniversidades":13361,"Ġjuventude":13362,"Ġstreams":13363,"Ġespelhinho":13364,"Ġdiccionarios":13365,"Ġdinossauros":13366,"ĠestupefacÃ§Ã£o":13367,"ĠrelÃ¢mpago":13368,"ĠdefiniciÃ³n":13369,"Ġdezenove":13370,"ĠindignaÃ§Ã£o":13371,"Ġhonestidade":13372,"ĠdÃ¡rtelo":13373,"Ġ55752":13374,"Ġ54830":13375,"Ġtyrannosaur":13376,"Ġfernandes":13377,"Ġmicrosoft":13378,"Ġbrinquedos":13379,"Ġtriumphalmente":13380,"Ġparticipants":13381,"fujisawa":13382,"facilitator":13383,"Ġsatisfazer":13384,"Ġsuspensorios":13385,"Ġcabisbaixo":13386,"Ġinexplicaveis":13387,"ĠirremediÃ¡vel":13388,"Ġirreversible":13389,"Ġpetropolis":13390,"ĠrÃ©veillon":13391,"Ġbandwidth":13392}